#version: 0.2
t h
i n
a n
th e</w>
r e
t i
e r
o n
e n
a r
o r
e d</w>
t o</w>
in g</w>
o u
o f</w>
an d</w>
o n</w>
e s</w>
l i
s t
r o
i n</w>
a l</w>
i t
a t
e r</w>
a l
e c
a t</w>
a n</w>
i s</w>
o m
r i
l y</w>
s i
a ti
a s</w>
o r</w>
a c
d e
s t</w>
th at</w>
p o
i c
s u
i l
v e</w>
l e
l o
en t</w>
w h
th e
s e</w>
d i
u r
u n
r a
e n</w>
p ro
l d</w>
n o
l e</w>
h a
c on
t s</w>
f or</w>
a b
c e</w>
e m
c i
b u
i t</w>
v er
a d
e l
ou n
b e
ati on</w>
n e
a m
s h
a g
e x
c om
t er
on s</w>
a s
ar e</w>
ti on</w>
v i
m o
s e
b e</w>
u l
at e</w>
w it
ou ld</w>
e s
o l
wit h</w>
a r</w>
p e
f or
u c
c h
m ent</w>
a p
er s</w>
b y</w>
no t</w>
i m
g h
re s
o p
m a
bu t</w>
en t
v e
it s</w>
i s
c oun
t h</w>
ec on
g o
h as</w>
po li
ha ve</w>
q u
w or
f f
econ om
i r</w>
w il
th er</w>
t y</w>
t r
er e</w>
it y</w>
or e</w>
k e
u s
wil l</w>
s p
f ro
t ri
fro m</w>
i c</w>
m an
u ro
l a
the ir</w>
p or
ti c
re n
e v
th is</w>
m ore</w>
on al</w>
st r
t a
C h
on e</w>
re c
d s</w>
ou t</w>
t o
p er
i r
al ly</w>
i li
d ing</w>
E uro
m e
p ar
t ed</w>
h i
ri s
g e</w>
the y</w>
c re
s o</w>
f in
w as</w>
y e
a li
al l</w>
t e
t ur
g i
ver n
ar y</w>
c h</w>
k e</w>
p re
Ch in
g e
go vern
en ts</w>
w ould</w>
ab le</w>
a y</w>
d e</w>
in g
o w
a u
ic h</w>
wh ich</w>
ti m
w e
an ce</w>
s o
tri es</w>
coun tries</w>
p l
th an</w>
p u
ti ons</w>
ro w
n ati
U S</w>
t u
p ri
re d</w>
at es</w>
m ar
c an</w>
c o
t ing</w>
om e</w>
t er</w>
d er
at ed</w>
k s</w>
2 0
d uc
c y</w>
i g
ci al</w>
Chin a</w>
gh t</w>
m in
v er</w>
si on</w>
s s</w>
c es</w>
b ec
h e
g h</w>
en ce</w>
o ther</w>
m er
ti es</w>
en ti
f u
b o
u st</w>
ati ons</w>
su r
st s</w>
r u
po s
m s</w>
poli tic
w i
f e
wor ld</w>
s ti
g row
an t</w>
t ra
an s</w>
p a
econom ic</w>
l u
ou s</w>
i f</w>
man y</w>
d ed</w>
d u
be en</w>
on g</w>
k ing</w>
f o
d ec
in ter
ar s</w>
lo b
mo st</w>
h o
d er</w>
d o
nati onal</w>
b an
n i
ne w</w>
con t
A mer
p e</w>
u m
Amer ic
w e</w>
govern ment</w>
m on
a d</w>
g lob
f ac
on ly</w>
s ec
i es</w>
fin an
or s</w>
at e
no w</w>
mar ke
r ou
ag e</w>
c e
st e
lo w
p res
di s
f a
m i
politic al</w>
ou r
h is</w>
u s</w>
es s</w>
sh ould</w>
c ur
il e</w>
Euro pe
Euro pe</w>
v es</w>
o ver</w>
h e</w>
ev en</w>
f i
grow th</w>
com p
wh en</w>
ab out</w>
s er
su ch</w>
ff ic
1 9
ve lo
ch an
th ere</w>
al l
em b
glob al</w>
ti ve</w>
b li
po w
com m
a in
I n
al so</w>
tr y</w>
ili ty</w>
le ad
n o</w>
in c
be t
su p
a f
ex p
ar d</w>
wh o</w>
en er
I s
op le</w>
re g
in e</w>
m ents</w>
si d
on g
t ary</w>
c ould</w>
de velo
e st
Europe an</w>
w ere</w>
f ir
in cre
it ed</w>
in te
l ar
pe ople</w>
si a</w>
finan cial</w>
pu bli
coun try</w>
c ap
t en
in ve
i st
tur e</w>
s y
s ome</w>
sh i
em p
s el
ow n</w>
b le</w>
o d</w>
the se</w>
es s
ye ars</w>
a k
c r
u e</w>
de b
wh ile</w>
wh at</w>
au se</w>
ec t</w>
v ing</w>
c ent
o se</w>
g y</w>
develo p
t w
re s</w>
f ic
por t
cur ren
inve st
c ris
in f
al s</w>
s in
le ss</w>
un i
20 0
at ing</w>
a st</w>
v o
p en
e f
tim e</w>
poli cy</w>
ou r</w>
em ent</w>
econom y</w>
d ic
w el
r an
li ke</w>
for m
in de
in to</w>
am e</w>
d o</w>
m uc
a se</w>
s a
g re
com e</w>
ha d</w>
il li
oun d</w>
sti tu
pro b
t e</w>
b i
si ve</w>
muc h</w>
R us
wi th
am p
cris is</w>
str uc
re l
c al</w>
ar ly</w>
bec ause</w>
un der
i l</w>
or y</w>
u p</w>
g u
ma y</w>
m ust</w>
i d</w>
ac e</w>
ac k</w>
pow er</w>
ar i
res p
g ra
the m</w>
o b
inte re
o ver
su m
ou gh</w>
m is
c or
l ed</w>
e l</w>
af ter</w>
t ec
i d
por t</w>
w ay</w>
th re
pro duc
si g
el ec
ati ve</w>
le ar</w>
S t
d ay</w>
an y</w>
lo w</w>
t ly</w>
ab ility</w>
st an
U n
ol l
c u
publi c</w>
inter national</w>
re ig
de mo
we en</w>
v ed</w>
bet ween</w>
hi gh
tr an
incre as
st ri
im p
y ing</w>
c an
in i
chan ge</w>
c er
p s</w>
v en
J ap
G er
wh ere</w>
Un ited</w>
li m
en g
inc lu
prob le
Is ra
re gi
i z
ye ar</w>
marke t</w>
v ic
c ri
fir st</w>
f un
ffic i
th ose</w>
ma in
l ong
e se</w>
ac h</w>
y s</w>
ol u
s s
Americ a</w>
su l
fu l</w>
c ess</w>
tw o</w>
demo cr
w a
sid ent</w>
cont in
r on
mon e
si m
ou t
o f
E U</w>
ac y</w>
re for
ci es</w>
ing s</w>
ti c</w>
m emb
illi on</w>
m ili
ad e</w>
e ff
20 1
o c
en d</w>
ho w</w>
c ed</w>
li ke
resp on
ste m</w>
li c
shi p</w>
bo th</w>
n ed</w>
deb t</w>
ver y</w>
su b
si ons</w>
re qu
p ul
t t
cap it
or i
ati c</w>
b er
inde ed</w>
im port
v en</w>
ou s
j ust</w>
G re
ur e</w>
di a</w>
l ing</w>
n ing</w>
sur e</w>
ev er</w>
ain st</w>
wel l</w>
it e</w>
vi e
t re
ag ainst</w>
pro vi
su c
e qu
ali z
ur ity</w>
emp lo
m e</w>
per i
th rou
re sul
h el
A f
Rus sia</w>
so ci
ic al</w>
sy stem</w>
po si
s en
ter m</w>
v al
ne e
ff e
ne ed</w>
l in
a in</w>
st ate</w>
sp ec
p h
res s</w>
k ed</w>
ma j
si ble</w>
la st</w>
r an</w>
ti ci
an g
r ate</w>
g ener
f t</w>
ter s</w>
k ers</w>
lead ers</w>
at er</w>
enti al</w>
to day</w>
t or</w>
ban ks</w>
ce p
marke ts</w>
th ing</w>
b or
at t
l l</w>
bec ome</w>
r al</w>
p r
Jap an</w>
em er
ti onal</w>
mili tary</w>
P re
govern ments</w>
ac t</w>
s c
sin ce</w>
en d
amp le</w>
er n</w>
d om
ch o
like ly</w>
rec ent</w>
re ad
invest ment</w>
ag re
de m
reig n</w>
p ly</w>
th ough</w>
b en
in stitu
us ed</w>
I ran</w>
g ing</w>
eff ec
w ard</w>
n uc
wor k</w>
emplo y
ma ke</w>
tec h
sup port</w>
m ent
ex ample</w>
to o</w>
t -
con f
po pul
con si
g r
f is
Americ an</w>
ge t</w>
ent ly</w>
c a
import ant</w>
f re
w ar</w>
s m</w>
s ed</w>
z e</w>
Pre sident</w>
ta in
b as
ap pro
e st</w>
t en</w>
r ates</w>
en ding</w>
h ar
be ing</w>
m at
h u
intere st</w>
ali ty</w>
St ates</w>
ing ly</w>
s h</w>
e i
po in
f ar</w>
w ar
throu gh</w>
no w
se e
sti ll</w>
wh e
dec i
m an</w>
com pe
ffe ren
Isra el</w>
l ong</w>
is m</w>
f ul
nuc lear</w>
f l
the n</w>
di fferen
b al
Chin ese</w>
0 0</w>
o re
Ger many</w>
is su
ad v
str ate
d ence</w>
c ul
u d
fu ture</w>
tra de</w>
sec urity</w>
poli cies</w>
In dia</w>
om e
op er
b a
fa il
cont ro
ve ly</w>
ti on
re as
si an</w>
ec ted</w>
am a</w>
fis cal</w>
pri v
with out</w>
z one</w>
al th</w>
un ity</w>
di vi
D P</w>
inclu ding</w>
tic ul
do es</w>
a st
l es</w>
reg ul
lo o
a k</w>
ye t</w>
i de
c our
g en
l s</w>
so cial</w>
tech no
h an
develop ment</w>
ac h
mi ght</w>
em s</w>
d own</w>
le g
ate ly</w>
on -
hi st
tran s
pri ces</w>
p tion</w>
lar ge</w>
se t</w>
econom ies</w>
ter r
e uro
ab ly</w>
re al</w>
sh or
e -
s ame</w>
f ol
di rec
gi ven</w>
read y</w>
bu il
a m</w>
si de</w>
U ni
A ra
ener gy</w>
p ur
ch all
ke y</w>
sh ed</w>
employ ment</w>
ta ke</w>
olu tion</w>
an other</w>
o th
en s</w>
curren t</w>
or ity</w>
ef for
un der</w>
G DP</w>
par ticul
ma in</w>
capit al</w>
de sp
u se</w>
hi gh</w>
P al
maj or</w>
P ar
g ed</w>
be li
d am
ra ther</w>
ou th</w>
d ra
techno lo
j o
Pal est
y p
fo reign</w>
ur ing</w>
t al
re li
m ade</w>
bo o
k now
e t</w>
e d
ben ef
c y
c oll
in du
s ing</w>
e p
st ar
ri ght</w>
con sum
di d</w>
c all
o g
p la
st ates</w>
be g
ris k</w>
in come</w>
I ra
inf l
gh ts</w>
or der</w>
ne ss</w>
B an
n s</w>
c lo
tur n</w>
er ship</w>
d re
p p
O b
re main
adv an
a pos
& apos
posi tion</w>
h ol
u m</w>
c ar
re ly</w>
ul t</w>
c ing</w>
for e</w>
qu es
au th
euro zone</w>
su st
bet ter</w>
e duc
Af ri
du ce</w>
an g</w>
par t</w>
li f
e ve</w>
Ob ama</w>
in v
be fore</w>
b illion</w>
R e
al -
resul t</w>
19 9
can not</w>
o ffici
ap pe
s ome
pos ed</w>
am ong</w>
b er</w>
ta in</w>
l am
t ors</w>
long -
h um
lar ge
E ast</w>
l ine</w>
ac coun
d le</w>
s ha
proble m</w>
c ha
re duc
bu sin
ist an</w>
d -
b ility</w>
al ready</w>
sel f</w>
dem and</w>
cent ral</w>
y -
&apos ;
s m
an n
j ec
institu tions</w>
ad d
Ban k</w>
pro f
p ec
c ou
whe ther</w>
an ti
comp an
sig ni
fac t</w>
K ore
reg im
pu t</w>
go od</w>
pro gra
b r
soci e
of ten</w>
C om
el s</w>
ag es</w>
regi on</w>
ist er</w>
tt le</w>
o il</w>
k il
ar m
ti z
in t
g rou
signi fic
g es</w>
compe ti
u es</w>
mo re
cour se</w>
c ess
Uni on</w>
y o
S y
hel p</w>
m en
A sia</w>
ta x</w>
more over</w>
ur y</w>
ch il
c la
ac tion</w>
l an
cre di
N e
requ i
d en
w s</w>
&apos; s</w>
st ed</w>
pa st</w>
r ul
y a</w>
d uring</w>
mone tary</w>
ser vic
incre ase</w>
s ci
ar ch</w>
Palest ini
ti v
s econ
t ar
wa ys</w>
m as
de fic
ar ound</w>
ac hi
ab li
o ff
est abli
en vi
sec tor</w>
ous ly</w>
th us</w>
d ers</w>
o t
g an
f ur
con cer
pre v
us h</w>
tur al</w>
di ffic
sust ain
proble ms</w>
r ance</w>
ro le</w>
me a
j u
st -
ver s
thre e</w>
im pro
d ar
wh y</w>
po t
i ally</w>
c lim
l ab
le ast</w>
er ing</w>
hum an</w>
sp ending</w>
pos sible</w>
ir e</w>
Ira q</w>
li ttle</w>
ve l</w>
our ces</w>
le v
mo der
democr acy</w>
n or
for ce</w>
b ack</w>
W or
fe w</w>
lo c
in d</w>
F rance</w>
do m</w>
ne x
b ro
go ti
Sy ri
infl ation</w>
conf lic
priv ate</w>
ne goti
fol low
m or
N or
u p
dom es
de f
o ld</w>
th in
bas ed</w>
S outh</w>
In ter
oth ers</w>
ci tiz
a ff
mo de
st ability</w>
h ow
min i
k an</w>
e li
z ed</w>
ri se</w>
mone y</w>
s es</w>
n ec
cent ury</w>
compan ies</w>
vi ol
pec ially</w>
es pecially</w>
li ber
Is lam
e ver
ma king</w>
k es</w>
envi ron
pri ce</w>
op port
ali sm</w>
ec e</w>
n um
n at
i al</w>
at er
i ous</w>
high er</w>
nee ded</w>
how ever</w>
sim il
h al
ac c
li es</w>
a re
nex t</w>
Wor ld</w>
ati onal</w>
ag o</w>
se qu
develop ing</w>
refor m</w>
ci vi
c l
t an
domes tic</w>
ad es</w>
memb ers</w>
d oll
yo u</w>
pro cess</w>
por ts</w>
is h</w>
W est</w>
man ag
em ents</w>
ac ro
ne i
tic al</w>
fo c
or d
d ri
ic s</w>
i st</w>
t or
f ra
m illion</w>
comp le
ris ing</w>
comm it
l and</w>
h ou
increas ingly</w>
n al</w>
c lear</w>
str ong</w>
c ase</w>
to ward</w>
de pen
pl ace</w>
me di
ac cep
2 0</w>
e ar
d ly</w>
aliz ation</w>
tim es</w>
grow ing</w>
with in</w>
tri bu
rec og
ati on
Gre ece</w>
recog ni
i sts</w>
clim ate</w>
al most</w>
refor ms</w>
curren cy</w>
re pres
gan iz
e p</w>
he alth</w>
regim e</w>
ac k
su res</w>
for m</w>
b on
me ans</w>
call ed</w>
b re
st o
poin t</w>
contin ue</w>
D e
remain s</w>
secon d</w>
long- term</w>
st ra
si st
dec ades</w>
pre ci
ri ghts</w>
con di
re se
p at
fur ther</w>
Afri c
t ting</w>
t n
nee ds</w>
S o
struc ture</w>
ra p
gre ater</w>
at s</w>
form ation</w>
desp ite</w>
educ ation</w>
L e
r it
ic ally</w>
ban k</w>
as se
al e</w>
se ver
emb er</w>
f am
differen t</w>
g er</w>
d es</w>
vie w</w>
th s</w>
e ach</w>
appro ach</w>
citiz ens</w>
u ti
memb er</w>
r y</w>
W est
in ed</w>
elec tion</w>
a i
diffic ult</w>
w om
com es</w>
us ing</w>
pe ace</w>
po or</w>
la w</w>
Kore a</w>
ur o</w>
t es</w>
p er</w>
b ar
d i</w>
d ent</w>
de n</w>
a z
ta x
re fl
le vel</w>
effor ts</w>
op e</w>
Ara b</w>
re main</w>
on e
particul arly</w>
in divi
in ci
c le
m ul
d ge</w>
contro l</w>
it self</w>
ex peri
the m
of f</w>
ent ed</w>
co sts</w>
ques tion</w>
ar gu
ex c
o ds</w>
indivi du
ter ms</w>
suc cess
ch ar
Afric a</w>
regi onal</w>
a v
pro g
lo g
in e
sel ves</w>
at ors</w>
p le</w>
M id
ever y
pl an
m y</w>
m ig
g ge
be st</w>
T he</w>
provi de</w>
democr atic</w>
ac cor
tiv ity</w>
s pe
on ce</w>
cou ra
Mid dle</w>
form er</w>
d on</w>
de ter
bu d
ac ti
n on-
mini str
st ren
ro w</w>
ver age</w>
r e</w>
popul ation</w>
ou b
long er</w>
k en</w>
re v
fac e</w>
stren g
rec ently</w>
intere sts</w>
emer ging</w>
in ten
di st
chall eng
res ources</w>
h er</w>
busin ess</w>
indu stri
for ces</w>
st at
socie ty</w>
di tional</w>
, 0
T ur
E C
t able</w>
e very</w>
i a</w>
politic s</w>
amp ;</w>
& amp;</w>
sh ar
in no
en ing</w>
E g
ex tre
e uro</w>
y ang</w>
agre ement</w>
W ar</w>
Eg yp
en ough</w>
a vo
effec tive</w>
low er</w>
le a
u g
se ems</w>
p i
it u
il l
sy st
M us
P ak
qu ot
West ern</w>
hist ory</w>
di sp
pot ential</w>
num ber</w>
lab or</w>
es sion</w>
al low
inte gr
b ur
S ec
inf lu
in ste
co st</w>
un employment</w>
th ir
con tribu
er ity</w>
M in
a il
C on
poli tici
ini ti
f -
we ak
en se</w>
con stitu
B ush</w>
sm all</w>
f ic</w>
F ren
nati on
i e
pl ac
ori ties</w>
nec ess
,0 00</w>
pro tec
contin u
comm on</w>
sh are</w>
or ganiz
exp an
inste ad</w>
ord in
conflic t</w>
g a
L i
them selves</w>
fi ed</w>
Nor th</w>
as es</w>
dre n</w>
cl as
le ad</w>
ha ps</w>
invest ors</w>
l ack</w>
ge ther</w>
ne g
n am
in s</w>
d ang
Mus li
t on</w>
s ay</w>
per haps</w>
dam ent
to gether</w>
signific ant</w>
fre e</w>
en ces</w>
tr ac
re duce</w>
ne ver</w>
ris ks</w>
e vi
wom en</w>
servic es</w>
fe ren
ab ili
sh ing</w>
per s
fun dament
strate gy</w>
chil dren</w>
w ant</w>
su gge
cer tain
gre at</w>
credi t</w>
wor kers</w>
en cy</w>
d y</w>
6 0</w>
us es</w>
lif e</w>
P ri
com b
ad ministr
Fren ch</w>
we ap
ow n
ou ght</w>
benef its</w>
bal an
s ol
fin ance</w>
beli eve</w>
Palestini an</w>
quot ;</w>
lo cal</w>
issu es</w>
& quot;</w>
ic e</w>
Syri a</w>
5 0</w>
p ed</w>
o -
un ti
re st</w>
us ti
se e</w>
pre sid
19 8
rese arch</w>
ag ain</w>
anti -
d a
co oper
b ri
unti l</w>
lead ership</w>
cre ate</w>
tic s</w>
ful ly</w>
ffici ent</w>
inde pen
hi m</w>
val ue</w>
reig n
ru n</w>
con sequ
sen se</w>
mis sion</w>
g o</w>
si bility</w>
an c
ur al</w>
reas on</w>
po ver
e a
uti n</w>
P utin</w>
Min ister</w>
ser ious</w>
ru le</w>
poli cy
le ft</w>
Rus sian</w>
Ger man</w>
sim ply</w>
prog ress</w>
k ra
inno v
h ard</w>
an y
ment al</w>
an ts</w>
ho ld</w>
c are</w>
tici p
po se</w>
me an
j ob
st ing</w>
ann u
U kra
mea sures</w>
bal ance</w>
A r
3 0</w>
tu ally</w>
j ect</w>
imp act</w>
inter ven
t al</w>
pa y
e k</w>
par ty</w>
g ic</w>
le ar
l -
Af gh
t ation</w>
mul ti
pl om
li am
doll ar</w>
reli gi
com ing</w>
ater al</w>
A n
pro sp
p ay</w>
st ud
200 8</w>
o li
t un
ne t</w>
c am
v ement</w>
i m</w>
ne w
ma kers</w>
C ent
le ss
lev els</w>
st and</w>
pow er
y oun
y ed</w>
tr ue</w>
accor ding</w>
imp le
pro mo
d oub
uni ties</w>
ex change</w>
di plom
wh o
par ties</w>
I M
technolo gy</w>
o s
lead ing</w>
wi se</w>
ru p
pr inci
le gi
an ese</w>
C oun
coll ap
develop ed</w>
ti sh</w>
f all</w>
comm unity</w>
on d</w>
increas ed</w>
nei gh
wh ose</w>
hou se
h ome</w>
B ri
progra m</w>
fin d</w>
sustain able</w>
res er
n er
k now</w>
e arly</w>
o l</w>
politici ans</w>
el l
mi d
i an</w>
achi ev
fre e
em is
so ve
rec over
p ing</w>
IM F</w>
pre sident</w>
Par ty</w>
stan ding</w>
in formation</w>
ag g
sh o
job s</w>
e as
ban king</w>
s cho
offici als</w>
hu man
ci l</w>
ac ks</w>
EC B</w>
ven ess</w>
gi es</w>
fir ms</w>
z ation</w>
administr ation</w>
accoun t</w>
g as</w>
pro mis
h ere</w>
al though</w>
en coura
condi tions</w>
a ir
Ne w</w>
wi de</w>
ri ch</w>
challeng es</w>
see m</w>
em o
par tn
bec om
A sian</w>
sup por
inf ra
g ain
en ge</w>
y ond</w>
p ris
bud get</w>
ati ves</w>
Pak istan</w>
p as
consum ption</w>
weap ons</w>
hal f</w>
e th
cla im
Americ ans</w>
vi ous</w>
re ad</w>
inv ol
ra is
at ten
ta ken</w>
ow ing</w>
be yond</w>
am oun
sever al</w>
m ing</w>
legi tim
con c
st a
acro ss</w>
pur su
en sure</w>
di es</w>
ari an</w>
mo ve</w>
der al</w>
suc cess</w>
pover ty</w>
sci enti
po l
cre d
al th
s w
a h
Jap anese</w>
Coun cil</w>
ali st</w>
j usti
fo od</w>
st er</w>
ab s
d ru
19 7
op position</w>
simil ar</w>
con v
rul es</w>
Egyp t</w>
Bri tish</w>
publi c
hist or
ex ist
dec ade</w>
Tur key</w>
infra structure</w>
ha ving</w>
B ar
de al</w>
chall enge</w>
opport unity</w>
cor por
pres sion</w>
ac cess</w>
strate gic</w>
rel ations</w>
en ed</w>
deter min
F ed</w>
ta king</w>
st oc
s ing
pres sure</w>
dom in
al ways</w>
youn g</w>
sel f-
Ukra ine</w>
N o
tim ul
tu al</w>
it ing</w>
issu e</w>
con tra
u res</w>
thre at</w>
en sive</w>
produc tion</w>
con fi
chan ges</w>
respon se</w>
loo k</w>
grou ps</w>
s timul
defic it</w>
t ro
c ause</w>
So vie
pa ig
mas sive</w>
he ad
fi ve</w>
struc tural</w>
mode l</w>
g ence</w>
for tun
cre ated</w>
Inter national</w>
policy makers</w>
know le
consi der
cam paig
ate -
tre at
fail ure</w>
v ari
pre dic
he ad</w>
al y
Islam ic</w>
op en</w>
advan ced</w>
re turn</w>
re ach
h ope</w>
gu ar
bi a</w>
thir d</w>
shor t</w>
in ning</w>
de mon
bon ds</w>
Pri me</w>
viol ence</w>
Cent ral</w>
c ol
as sum
U N</w>
oc cu
fail ed</w>
de st
large st</w>
increas ing</w>
vi sion</w>
rec ei
Isra el
requi res</w>
in dic
h un
f y</w>
requ ire</w>
mon ths</w>
leg al</w>
bi g</w>
Afgh an
s itu
in sur
th er
in es</w>
d at
b on</w>
necess ary</w>
di se
s low
offici al</w>
o k</w>
m it
ch ed</w>
asse ts</w>
syst ems</w>
moder n</w>
ad op
B ra
se ly</w>
pa in</w>
ac ity</w>
G e
econom ists</w>
b an</w>
v al</w>
ti vely</w>
ser v
d an</w>
Afghan istan</w>
sa id</w>
recover y</w>
id enti
elec tions</w>
H am
thin k</w>
exp ected</w>
F e
terr ori
il l</w>
d ate</w>
a w
z ing</w>
w r
grou p</w>
so li
follow ing</w>
u ri
el l</w>
J e
uni on</w>
th ern</w>
power ful</w>
demon str
l li
know n</w>
i ly</w>
ru ption</w>
par ticip
t ory</w>
ro o
er ous</w>
un d</w>
tran sp
p rec
influ ence</w>
high -
ag ed</w>
add ress</w>
a way</w>
i k
go ing</w>
dec line</w>
a id</w>
integr ation</w>
a h</w>
no thing</w>
maj ority</w>
fin ally</w>
ag ing</w>
sum m
stri c
str y</w>
si on
al ter
a verage</w>
prev ent</w>
be ha
Sovie t</w>
lead er</w>
d one</w>
att emp
Israel i</w>
C ong
coun ter
se en</w>
me e
ei ther</w>
cooper ation</w>
spec i
p an
consequ ences</w>
su s</w>
li n</w>
large ly</w>
B rit
tr u
star t</w>
sh e</w>
produc tivity</w>
illi ons</w>
foc us</w>
aliz ed</w>
re a
po st-
effor t</w>
an tly</w>
peri od</w>
de man
sc ale</w>
o s</w>
ar ch
vi s
si c</w>
r un
auth orities</w>
cap acity</w>
Bra z
ol s</w>
are as</w>
annu al</w>
ati vely</w>
negoti ations</w>
gi ve</w>
ful l</w>
particul ar</w>
de fin
clo se</w>
f ri
d ro
al low</w>
F und</w>
tur ing</w>
re fu
fe ar</w>
d y
acti vi
sist ance</w>
emis sions</w>
tal y</w>
buil ding</w>
beha vi
ac tions</w>
I taly</w>
de sig
P ro
ug g
m u
ea si
ar -
struc tion</w>
ex ten
effec ts</w>
c ally</w>
thre at
c ru
t em
m en</w>
ti veness</w>
ma kes</w>
ci r
buil d</w>
ar g
progra ms</w>
c um
advan t
E n
v ol
st re
s kil
lin es</w>
consi der</w>
r ation</w>
ex ports</w>
es tim
sup ply</w>
s olution</w>
s is</w>
pro te
mi se</w>
fun ds</w>
cul ture</w>
a im
Brit ain</w>
vers ity</w>
conf ron
at h</w>
N A
Musli m</w>
s anc
ha pp
f ound</w>
f all
c us
bro ad
al le
dic al</w>
su ff
ic k
1 .
li ving</w>
l d
it al</w>
do ing</w>
l ate</w>
ex ter
deb ate</w>
wor king</w>
in ing</w>
fa v
e y
cul tural</w>
A u
m p
ec ts</w>
collap se</w>
c ity</w>
tar ge
popul ar</w>
our ce</w>
ide a</w>
equ i
beg an</w>
inc enti
equ ality</w>
ab o
P e
under min
ren t</w>
or t</w>
n or</w>
experi ence</w>
br ing</w>
ke ep</w>
jo b</w>
al one</w>
ac e
we alth</w>
nat ural</w>
a sh
N ations</w>
pow ers</w>
for ced</w>
bec ame</w>
rel ation
rec ession</w>
civi li
par liam
ha p
success ful</w>
si b
environ ment</w>
civi l</w>
n ation</w>
ex ic
direc t</w>
M exic
Ge or
reg ar
pa red</w>
cor ruption</w>
a de
S au
ss es</w>
rap id</w>
high ly</w>
pl an</w>
log ical</w>
m em
e f</w>
de li
b ad</w>
str ong
lim ited</w>
k ind</w>
im medi
fun c
f our</w>
cer tain</w>
an d
achi eve</w>
evi dence</w>
a vi
201 0</w>
to p</w>
c al
t ect</w>
se em
alter nati
pla y</w>
m om
he ld</w>
con tr
ent u
Com mission</w>
Ham as</w>
ul tim
hu ge</w>
cred it
val u
l ater</w>
govern ance</w>
bor row
benef it</w>
I I</w>
wor se</w>
terr it
sa fe
d own
b b
t om
some thing</w>
res ol
religi ous</w>
ho od</w>
situ ation</w>
sing le</w>
sh ow
min ister</w>
w ater</w>
su per
re f
go ods</w>
fortun ately</w>
cu t</w>
b ig
stat us</w>
qu ar
li ves</w>
200 9</w>
shi ft</w>
pro duce</w>
defic its</w>
th ings</w>
rec or
lo st</w>
fundament al</w>
en ter
eff ect</w>
ag end
val ues</w>
tra ditional</w>
ste p</w>
li ty</w>
Braz il</w>
wil ling</w>
jec ts</w>
to ok</w>
str ugg
st or
se tt
re ally</w>
p le
neigh b
individu al</w>
deci sion</w>
be h
ar t</w>
ran ts</w>
pur cha
dis cus
di an</w>
I ran
pr ac
ne arly</w>
low s</w>
dat a</w>
M o
tax es</w>
contra st</w>
confi dence</w>
T O</w>
shor t-
prob ably</w>
en s
atten tion</w>
S pain</w>
o ffic
indu stry</w>
hol ds</w>
de s
a -
re by</w>
ex per
ec han
clas s</w>
1 0</w>
to tal</w>
la un
guar an
el li
campaig n</w>
re ven
Cong ress</w>
me dia</w>
h ous
free dom</w>
feren ce</w>
def ense</w>
stan dar
car bon</w>
on e-
olu tions</w>
mon th</w>
li qu
i se</w>
hap pen
exp ec
comm un
com mo
G o
Europe ans</w>
finan cing</w>
de red</w>
avo id</w>
B er
si ze</w>
sanc tions</w>
b ol
ati n</w>
rel atively</w>
imple ment
er a</w>
emo cr
behavi or</w>
Sec urity</w>
L atin</w>
stri bu
re ach</w>
re -
di stribu
D emocr
pro tect</w>
pl es</w>
im mig
under stand</w>
m a</w>
lar ger</w>
guaran te
f oun
dra w
beh ind</w>
Gre ek</w>
s ch
gr ound</w>
tur ned</w>
st ly</w>
sa v
low -
f le
c ro
sub stan
rou ght</w>
ob jec
he alth
ate st</w>
sur pl
ro ad</w>
respon sibility</w>
li ght</w>
c ases</w>
at ory</w>
environ mental</w>
curren tly</w>
b ac
ad ju
p ment</w>
t ren
rou gh
par ts</w>
exter nal</w>
cle arly</w>
st erity</w>
in ation</w>
beg inning</w>
as k</w>
L on
pro pos
u su
throu gh
le -
knowle dge</w>
impro ve</w>
ann oun
M u
sti c</w>
mor al</w>
mat ter</w>
le t</w>
iz ed</w>
ver se</w>
reser ves</w>
reduc ing</w>
manag ement</w>
interven tion</w>
in t</w>
S u
199 0</w>
man u
ev entu
St ate</w>
C am
can di
a y
Lon don</w>
s -
innov ation</w>
busin ess
G az
vo ters</w>
vo te</w>
sto p</w>
out come</w>
h y
fic ation</w>
exp la
Bar ack</w>
A l
terr or
re vi
out side</w>
n er</w>
h er
ca used</w>
ap p
al li
accep t</w>
tran si
de e
standar ds</w>
mo vement</w>
h and</w>
au sterity</w>
att acks</w>
r ing</w>
opport unities</w>
glob alization</w>
conc lu
c at
M ar
J o
m echan
li ve</w>
k o
ing dom</w>
industri al</w>
c all</w>
b ack
am bi
mee ting</w>
fra me
certain ly</w>
b l
agend a</w>
ver s</w>
re ality</w>
pro mise</w>
per for
c ame</w>
abo ve</w>
Gre at</w>
u t
sur vi
so -
concer ns</w>
competi tion</w>
stan d
so on</w>
r ati
la h</w>
ing -
exc es
cu ts</w>
Sau di</w>
F ran
sci ence</w>
invest ments</w>
ex cep
er ve</w>
wor ks</w>
resul ts</w>
establi shed</w>
cri tical</w>
an aly
ac tually</w>
S h
v ul
off er</w>
tu res</w>
sub si
pri me</w>
p on
go al</w>
dang erous</w>
cri min
ad a</w>
st able</w>
man ce</w>
gen cy</w>
Le ban
wor ld
s p</w>
is l
el se
da ys</w>
cre ating</w>
ex t
e z
con om
R es
terror ism</w>
allow ed</w>
E conom
ke p
deci sions</w>
al ong</w>
refu ge
else where</w>
b il
add res
G -
A ss
the reby</w>
x i
tri lli
t ations</w>
cla im</w>
ci ties</w>
Palestini ans</w>
we ak</w>
presid ential</w>
fo re
ati cally</w>
rough ly</w>
K ingdom</w>
z er
vo c
un likely</w>
tion ary</w>
qu ick
form ed</w>
continu ed</w>
boo st</w>
uni st</w>
t yp
suc ce
insur ance</w>
f are</w>
en ded</w>
NA TO</w>
perfor mance</w>
it arian</w>
en ds</w>
commit ment</w>
ti al</w>
so- called</w>
leg isl
di g
gra du
er y</w>
w in
stimul us</w>
regul ation</w>
recogni ze</w>
nor m
elec ted</w>
cris es</w>
stoc k</w>
k er</w>
ep t
cy c
Com m
pat h</w>
fi gh
coll ec
av ail
4 0</w>
sh oc
re port</w>
ne ws</w>
me et</w>
er -
enti re</w>
ast ern</w>
ver si
r in
op en
indepen dence</w>
g ain</w>
direc tly</w>
becom ing</w>
201 2</w>
wor ds</w>
vul ner
the less</w>
manu fac
li er</w>
j ud
every one</w>
1 5</w>
quick ly</w>
pres s</w>
in al</w>
ept ember</w>
S eptember</w>
through out</w>
r ac
inclu de</w>
gener al</w>
fo reign
d ation</w>
ari ly</w>
0 .
ser ve</w>
qu ality</w>
f il
ade qu
wr ong</w>
pro per
develo p</w>
an -
sh e
re pe
provi ded</w>
on es</w>
k -
gener ation</w>
for ward</w>
dra m
ba sic</w>
M one
wel l-
b i</w>
as h</w>
simil arly</w>
cre ation</w>
comp any</w>
ali sts</w>
Mexic o</w>
Li b
in equality</w>
di tion</w>
at or</w>
as soci
ad ditional</w>
201 1</w>
ne t
i ght</w>
fi ght</w>
ex port</w>
ce i
bor der</w>
ati s
ti g
rel ative</w>
ra ise</w>
n ar
g s</w>
ess ential</w>
amoun t</w>
क े</w>
relation ship</w>
produc ts</w>
m illions</w>
k y</w>
id ly</w>
fac ili
ec h</w>
bo dy</w>
a red</w>
S un
Inter net</w>
technolo gies</w>
rev olution</w>
neighb ors</w>
lo gy</w>
elec tor
world wide</w>
technolo g
me an</w>
exp lo
T h
S e
Iran ian</w>
vi r
individu als</w>
ge o
corpor ate</w>
b ed</w>
w ish</w>
requi red</w>
main tain</w>
hel ped</w>
b rought</w>
att ack</w>
an sw
te st</w>
de si
aim ed</w>
Fe deral</w>
vic tory</w>
s ou
pp ed</w>
n u
it able</w>
eventu ally</w>
econom ics</w>
w ed</w>
trans f
sho w</w>
iz e</w>
eas y</w>
n b
nb sp</w>
si onal</w>
sav ings</w>
mat er
liqu id
frame work</w>
de ep</w>
In dian</w>
ultim ately</w>
rap idly</w>
con serv
as set</w>
tal ks</w>
si vely</w>
mean while</w>
dy nam
aliz e</w>
th ous
p ati
m ed</w>
int ro
f ig
ak an</w>
socie ties</w>
posi tive</w>
concer n</w>
c ra
beli ev
as s
s ource</w>
re si
boo k</w>
bas is</w>
who le</w>
trilli on</w>
shi ps</w>
ri ch
prosp erity</w>
in si
hol ders</w>
ffe red</w>
en cies</w>
sid es</w>
enti ally</w>
competi tive</w>
co ali
D ec
shor t
servic e</w>
fam ily</w>
al lies</w>
R o
O r
s af
out put</w>
m acro
inter nal</w>
exist ing</w>
ag ri
Mone tary</w>
ul ar</w>
short- term</w>
sen sus</w>
respon sible</w>
li st</w>
k a</w>
gra ph
a ir</w>
म े
wi de
can c
agre ed</w>
advant age</w>
Gaz a</w>
ve red</w>
re stric
ide o
des cri
dam age</w>
b ru
tr ust</w>
pers onal</w>
pa id</w>
ordin ary</w>
increas es</w>
de fa
contin ues</w>
N ational</w>
terrori st</w>
repres ent
reas ons</w>
pre h
f ron
de ath</w>
al ing</w>
201 3</w>
nat ure</w>
comple x</w>
auth ority</w>
t ac
reduc tion</w>
pro posed</w>
op s</w>
nei ther</w>
ex ec
war ds</w>
pro jects</w>
in ev
g row</w>
exces sive</w>
un less</w>
house holds</w>
emp ha
a i</w>
follow ed</w>
alternati ve</w>
activi ties</w>
F in
thin king</w>
streng th
re in
qu e</w>
g ri
e ts</w>
differen ce</w>
ch e
some times</w>
neg ative</w>
main tain
ing ton</w>
fam ili
claim s</w>
arg ue</w>
2 .
0 ,000</w>
li gh
le ment</w>
la m</w>
in a</w>
consi st
200 7</w>
sove reign
or ig
hous ing</w>
g ent
diplom atic</w>
bi o
are a</w>
agg res
over all</w>
legitim acy</w>
l ing
in i</w>
ev ents</w>
cho ice</w>
b ra
appe ars</w>
tar get</w>
incenti ves</w>
dic t
con stra
1 60</w>
ti an</w>
liber al</w>
im possible</w>
M a
y ers</w>
wide ly</w>
st u
sc en
produc tive</w>
ph y
signific antly</w>
exc lu
establi sh</w>
com mer
M or
Is lam</w>
2 5</w>
w rit
liquid ity</w>
con duc
Afri can</w>
whe re
technolog ical</w>
sa ving</w>
min im
h an</w>
fu el
W ash
w on</w>
un fortunately</w>
su fficient</w>
see k</w>
indepen dent</w>
histor ical</w>
dise ase</w>
char ac
auth or
ac i
war ming</w>
w at
phy si
m al
con ver
co ordin
be low</w>
U K</w>
Leban on</w>
resp ect</w>
rel ated</w>
fac tors</w>
expan sion</w>
disp u
an ds</w>
Wash ington</w>
v ast</w>
reduc ed</w>
im ag
w an
h or
ge st</w>
de p
com par
business es</w>
w ages</w>
under standing</w>
st ment</w>
sh ment</w>
dis ast
competi tiveness</w>
ca re
b om
Sec re
th ought</w>
ta li
like wise</w>
en ab
cri tici
c ore</w>
avail able</w>
S er
w age</w>
sugge sts</w>
spec ts</w>
scho ol</w>
re new
lo ans</w>
lan ds</w>
h om
fu el</w>
ex t</w>
De velo
sur ing</w>
si x</w>
ce -
balan ces</w>
Res erve</w>
provi ding</w>
mor t
me rely</w>
man i
fac ing</w>
doll ars</w>
appe ar</w>
ap er</w>
a head</w>
see king</w>
ques tions</w>
on ed</w>
n ya</w>
af for
R om
transi tion</w>
pre vious</w>
politic ally</w>
ex ac
eth n
argu ed</w>
ar ing</w>
abili ties</w>
v ements</w>
sta ke</w>
ri ed</w>
pri m
prec ed
effec tively</w>
1 00</w>
sec u
organiz ations</w>
oc cur
institu tional</w>
credit ors</w>
bur den</w>
B o
st ag
sim ple</w>
industri es</w>
dest ro
beg in</w>
ap preci
un able</w>
regul atory</w>
mar k</w>
import ance</w>
ev olution</w>
du e</w>
0 -
the refor
therefor e</w>
s low</w>
s i</w>
op ini
n i</w>
ear lier</w>
de fl
0 s</w>
offic e</w>
mort g
mo b
min ist
hou se</w>
fol low</w>
easi ly</w>
certain ty</w>
W h
P oli
Develo pment</w>
tr ying</w>
or ies</w>
fa il</w>
extre me</w>
ch ance</w>
ar a</w>
z y</w>
tic ally</w>
t in
s olutions</w>
re mo
protec tion</w>
o bli
lo sses</w>
fall ing</w>
en ced</w>
eli min
agre e</w>
ac qu
tur ns</w>
shi f
scienti fic</w>
ob vious</w>
mar g
lo ss</w>
l ending</w>
deman ds</w>
contro l
wh at
vi a</w>
un g
re lev
qu anti
M er
y our</w>
un like</w>
reach ed</w>
re por
mat ters</w>
int ell
i gh
b ers</w>
S hi
strong er</w>
st om
ren min
i or</w>
198 0</w>
vari ous</w>
tem por
t y
princi ple</w>
e fficient</w>
bor ders</w>
T re
Ar gent
tw o-
stud ents</w>
recor d</w>
pri se</w>
pres sed</w>
pl ans</w>
mom ent</w>
fun ding</w>
equ ity</w>
direc tion</w>
coali tion</w>
an u
Ara bia</w>
ti ves</w>
surpl us</w>
s on</w>
ide as</w>
for ms</w>
exp ect</w>
com preh
as sistance</w>
sp ace</w>
se par
promo te</w>
pro ject</w>
ba il
thous ands</w>
reas on
m ess
figh ting</w>
ext ent</w>
el er
J un
summ it</w>
ste ps</w>
pre -
f lows</w>
ar ies</w>
G ener
wel fare</w>
justi ce</w>
intell ec
h op
ga p</w>
do c
contr ary</w>
consum er</w>
con struction</w>
No v
ह ै</w>
ro r</w>
refuge es</w>
produc ed</w>
op h
lea ve</w>
immedi ate</w>
enti onal</w>
elec tri
e ks</w>
sove reign</w>
oth er
or m
m eng
int elli
con sensus</w>
st abili
sib ly</w>
re ve
it er
gain s</w>
bil ateral</w>
b it
arm ed</w>
an i</w>
ac ies</w>
G u
what ever</w>
u t</w>
si t</w>
seem ed</w>
pro spects</w>
po ore
le ments</w>
adequ ate</w>
refl ects</w>
re ali
lo t</w>
dri ven</w>
at y</w>
P ol
poli ce</w>
plac ed</w>
per man
b loc
argu ment</w>
ac tive</w>
sec tors</w>
la ws</w>
foc used</w>
ex am
en orm
de gre
com pared</w>
bu y</w>
answ er</w>
Geor ge</w>
renmin bi</w>
poin ts</w>
occu p
multi l
mid dle</w>
j ected</w>
dru g</w>
cu stom
Tre aty</w>
M al
streng then</w>
sha red</w>
safe ty</w>
f er
encoura ge</w>
chan ged</w>
c ement</w>
b s</w>
agre ements</w>
Lib ya</w>
I C
where as</w>
sp ir
partn ers</w>
ou ble</w>
dec lin
cru cial</w>
A be</w>
मे ं</w>
transp a
st y
is ol
consum ers</w>
commit ted</w>
bre ak
O R
En g
Ass ad</w>
vi ously</w>
tra ding</w>
ti ous</w>
sur ve
so ft</w>
pro por
de fe
commo d
P er
un tu
ri gh
inve st</w>
gi ving</w>
fe el</w>
bu l
appro pri
U S
Nov ember</w>
sm all
respon d</w>
regi ons</w>
pe ace
oun ds</w>
norm al</w>
li ed</w>
curren cies</w>
buil t</w>
si l
s er</w>
hun dre
expec tations</w>
cir cum
Gener al</w>
wor k
stan ces</w>
spec ial</w>
sp end</w>
s al
refl ect</w>
prim ary</w>
par tly</w>
Par is</w>
st age</w>
ne ar</w>
mode ls</w>
intro duc
g ame</w>
fa ir</w>
el a</w>
constitu tion</w>
acc eler
untu k</w>
sy m
spe ech</w>
saf e</w>
manufac turing</w>
ent ing</w>
conv entional</w>
ad voc
1 1</w>
re le
hundre ds</w>
ep ing</w>
call s</w>
au tom
as ked</w>
J u
Dec ember</w>
ो ं</w>
vers al</w>
t ou
re m
olu tionary</w>
iz ation</w>
fra g
foreign -
e red</w>
e ffici
cor rec
comp ens
S ar
201 5</w>
wi desp
widesp read</w>
w ants</w>
um ents</w>
po pu
mas s</w>
go als</w>
equ al</w>
d on
con cep
b lo
skil ls</w>
nati ons</w>
macro economic</w>
an im
S ing
201 4</w>
200 1</w>
ta il
sup p
opini on</w>
k in
fac ed</w>
ethn ic</w>
d ates</w>
Musli ms</w>
Isra eli
200 6</w>
ten d</w>
sto od</w>
si ans</w>
sever e</w>
sa ve</w>
pro ce
po st
f arm
el se</w>
commun ic
comm unities</w>
canc er</w>
ap pa
any thing</w>
G lob
D i
Ch ris
200 0</w>
treat ment</w>
the ory</w>
sugge st</w>
stud y</w>
sec ure</w>
p ic
h n</w>
e ld</w>
un certainty</w>
t ment</w>
sp ent</w>
promis es</w>
ob ser
er ci
con trac
air s</w>
a th
C ol
w in</w>
strugg le</w>
st ory</w>
st ance</w>
st ak
r ace</w>
on y</w>
commer cial</w>
ap poin
achiev ed</w>
Islam ist</w>
C old</w>
who m</w>
tri ed</w>
to -
fe deral</w>
vie ws</w>
substan tial</w>
s ac
re mar
provi des</w>
preci sely</w>
other wise</w>
no t
m es</w>
er ation</w>
ad ap
ta kes</w>
show s</w>
pat ter
im self</w>
f f</w>
announ ced</w>
T ha
Syri an</w>
B ro
200 5</w>
st ore</w>
sou thern</w>
s ources</w>
or -
imp lic
com pu
arm y</w>
w ars</w>
public -
pro -
pay ments</w>
ic i
h imself</w>
bri dge</w>
becom es</w>
adop ted</w>
wor th</w>
tro ops</w>
su red</w>
la y</w>
fle xi
ari o</w>
19 6
pro ve</w>
pos sibility</w>
lo se</w>
lan gu
form al</w>
en able</w>
curren t-
at trac
C o
v ital</w>
t ol
syst em
sp i
s mo
p ush</w>
in ts</w>
de ep
current- account</w>
boo m</w>
Y or
Ira q
rup t</w>
relev ant</w>
memb ership</w>
lim its</w>
ke l</w>
ge tting</w>
el t</w>
A b
1 8
w ing</w>
st ate-
reg ard</w>
ran ge</w>
p sy
la u
l ac
fa ster</w>
defa ult</w>
Secre tary</w>
x im
stand ard</w>
rais ing</w>
princi ples</w>
op tim
min d</w>
lim it</w>
he av
f ru
dru gs</w>
ch ing</w>
bre ak</w>
al ed</w>
subsi dies</w>
sp read</w>
resul ting</w>
rais ed</w>
ra dical</w>
pursu e</w>
pos es</w>
con soli
A c
tur ning</w>
thre ats</w>
te dly</w>
s k
run ning</w>
eas ing</w>
Je wish</w>
G- 20</w>
Argent ina</w>
3 .
usu ally</w>
treat y</w>
per cei
m ag
enorm ous</w>
dis co
vulner able</w>
reach ing</w>
en jo
consi dered</w>
any one</w>
Kore an</w>
K ey
scho ols</w>
r he
lea ving</w>
en han
differen ces</w>
ac tivity</w>
T ai
vol ati
star ted</w>
plac es</w>
ir ing</w>
im posed</w>
ex tra
eng ine
Glob al</w>
we ek</w>
vie wed</w>
suppor ted</w>
n one</w>
mo stly</w>
m oun
m it</w>
in comes</w>
dri ve</w>
continu ing</w>
compreh ensive</w>
cent er</w>
ar ms</w>
K o
targe ts</w>
requi re
recogni zed</w>
ko zy</w>
R i
sh own</w>
regim es</w>
ou se</w>
ke t</w>
invol ved</w>
in stability</w>
gu i
comp li
Sar kozy</w>
Mer kel</w>
u se
tw ent
s ought</w>
manag ed</w>
j our
ie f</w>
go ld</w>
fun d</w>
e th</w>
charac ter
b att
I n</w>
F or
te ly</w>
te e</w>
speci fic</w>
s po
s ent</w>
imple ment</w>
finan ci
er o
con cent
borrow ing</w>
ban k
b ble</w>
क ी</w>
uc r
scienti sts</w>
pres ent</w>
n om
in str
hel ping</w>
famili es</w>
comb ined</w>
appropri ate</w>
allow ing</w>
Y OR
YOR K</w>
An g
ti gh
shar ply</w>
ran g
our s</w>
m el
ing ing</w>
ic es</w>
facili t
doub t</w>
conflic ts</w>
y i
v ast
un preced
suff ering</w>
ri es</w>
re b
prof es
prac tic
perman ent</w>
peri ph
it es</w>
g ent</w>
fac es</w>
elector al</w>
desig ned</w>
capit a</w>
c au
Re public</w>
wil ling
willing ness</w>
in ess</w>
h it</w>
form ing</w>
f ying</w>
credi bility</w>
conv inc
Palest ine</w>
H ar
A l</w>
x ed</w>
spec ul
sig n</w>
r ound</w>
p ace</w>
man age</w>
fo rec
exec u
as ser
Uni versity</w>
Tai w
t ari
stan ds</w>
sovereign ty</w>
p ack
main ly</w>
impro ved</w>
exp end
collec tive</w>
ca uses</w>
be l</w>
avo i
ab road</w>
Yor k</w>
Pol and</w>
Jo hn</w>
ten sions</w>
stra li
quar ter</w>
prof its</w>
ori al</w>
m ir</w>
la w
l atest</w>
im balances</w>
gen e
distribu tion</w>
consider able</w>
bac ked</w>
b ing</w>
associ ated</w>
an ces</w>
Comm unist</w>
Au strali
uri ties</w>
sustain ed</w>
su sp
publi can</w>
l ying</w>
i ed</w>
ge ts</w>
asse ss
as p
ad dition</w>
abs ence</w>
S ch
F o
E astern</w>
zer o</w>
tren d</w>
s qu
regul ators</w>
on om
intelli gence</w>
g ran
fav or</w>
every thing</w>
clo ser</w>
bu rea
b ase</w>
al loc
US -
T ra
19 4
w ent</w>
roo m</w>
pro cess
parliam ent</w>
la red</w>
ec tion</w>
cu tting</w>
cro ss
contin ent</w>
S a
ि य
tra ining</w>
qu ite</w>
pon ents</w>
laun ched</w>
exp ensive</w>
ent h</w>
democr acies</w>
contro ls</w>
chil d</w>
Sun ni</w>
viol ent</w>
vic e</w>
ur ban</w>
to ols</w>
to ld</w>
multil ateral</w>
en suring</w>
econom ist</w>
e ded</w>
d ings</w>
as i</w>
T i
M an
C our
wan ted</w>
ven tion</w>
val ent</w>
succe ed</w>
sen ior</w>
oper ations</w>
is ms</w>
house hold</w>
ent ary</w>
circum stances</w>
capit alism</w>
as ed</w>
aff airs</w>
a king</w>
with draw
vic tim
unpreced ented</w>
tan y
sub ject</w>
remain ed</w>
mess age</w>
diffic ul
conserv ative</w>
broad er</w>
ban kers</w>
at ure</w>
Jun e</w>
wor ked</w>
u r</w>
tu red</w>
rhe tor
reven ues</w>
proper ty</w>
pr acti
pers on</w>
n ame</w>
le verage</w>
es cap
bro ad</w>
Q a
t ask</w>
me ly</w>
ke eping</w>
gener ally</w>
emplo ye
control led</w>
K en
H ong</w>
to wards</w>
th -
ser i
one theless</w>
o d
n ical</w>
ju dic
gen u
fin al</w>
ex ce
cont ext</w>
con nec
alli ance</w>
ab or
K rem
sur y</w>
sty le</w>
sec ular</w>
recei ved</w>
n onetheless</w>
minist ers</w>
me dical</w>
im per
fe ars</w>
dise ases</w>
dem ic</w>
ci t</w>
ar rang
al og
ा र
terrori sts</w>
te red</w>
small er</w>
sa w</w>
obli g
ne y</w>
me t</w>
fac tor</w>
enti rely</w>
emer ged</w>
ei j
depen dent</w>
depen d</w>
degre e</w>
d able</w>
contribu te</w>
con tain
attemp t</w>
ah u</w>
C O
tion ing</w>
th o
prosp ect</w>
op pos
m ur
inter pre
fi eld</w>
ex por
dec lared</w>
d less</w>
con n
b ag
ac tors</w>
Qa ed
Ne tany
um ul
op tion</w>
num bers</w>
mea sure</w>
gu n</w>
diplom acy</w>
di ed</w>
dar ity</w>
acc umul
a wa
Re publican</w>
Netany ahu</w>
Econom ic</w>
Cour t</w>
v in
up on</w>
t ap
sup posed</w>
rel and</w>
peace ful</w>
initi ative</w>
depen ds</w>
dee ply</w>
comb ination</w>
author itarian</w>
ac ted</w>
Par liam
Krem lin</w>
न े</w>
t ative</w>
sig ned</w>
particip ation</w>
lif eration</w>
im pe
g one</w>
for cing</w>
expla in</w>
ex erci
chan ging</w>
ast ro
T ali
su d
s si
remar k
promis ed</w>
posi tions</w>
pla yed</w>
on going</w>
me dic
lan tic</w>
it h</w>
imp lies</w>
happen ed</w>
ge -
dang er</w>
c ent</w>
bu st</w>
ag encies</w>
ad ly</w>
I reland</w>
we eks</w>
st op
recei ve</w>
organiz ation</w>
ha m
extre mi
effici ency</w>
disast er</w>
c k</w>
big gest</w>
ag ue</w>
M ay</w>
s ound</w>
rul ing</w>
neigh bor
loo king</w>
legitim ate</w>
immig ration</w>
fav or
equ ally</w>
O c
vi sit</w>
territ ory</w>
tempor ary</w>
st er
resol ve</w>
re store</w>
prote sts</w>
defl ation</w>
constitu tional</w>
candi dates</w>
accoun ts</w>
X i</w>
197 0</w>
& #
&# 9
sha re
promo ting</w>
presid ency</w>
ow ned</w>
mo vements</w>
mid d
mani pul
kil led</w>
j i
happ en</w>
h on
ga ve</w>
dar i</w>
con struc
a ys</w>
E x
B eij
1 2</w>
slow down</w>
rati o</w>
ph il
over come</w>
mi d-
m ach
gener ate</w>
g ing-
en em
deci ded</w>
cri tics</w>
comple te</w>
cal cul
at ures</w>
aci fic</w>
Qaed a</w>
Parliam ent</w>
K ong</w>
D en
स े</w>
ty pe</w>
ti s
t op
popul ations</w>
mo ving</w>
mis si
l er</w>
is tic</w>
est ate</w>
der i
deb ts</w>
commod ity</w>
ch em
burea ucr
Tali ban</w>
P or
M e
200 4</w>
vir tually</w>
un d
tw enti
te le
re sistance</w>
he art</w>
f ell</w>
every where</w>
el ds</w>
an i
R evolution</w>
C an
Beij ing</w>
wh el
tru th</w>
t emp
sur pris
shar p</w>
s atis
res olution</w>
lear n</w>
han ds</w>
estim ated</w>
employ ed</w>
P acific</w>
M arch</w>
In d
De pression</w>
A I
pres ence</w>
inten ded</w>
fir m</w>
emer ging-
ec ting</w>
e ly</w>
desi re</w>
co he
uni versal</w>
twent y-
streng th</w>
sett lement</w>
r ural</w>
over whel
out comes</w>
objec tive</w>
la di
im ports</w>
identi ty</w>
high est</w>
gre atest</w>
dis ci
deli ver</w>
cat astro
ca using</w>
a il</w>
Ju ly</w>
Ind one
B al
se arch</w>
reli ef</w>
re struc
pre pared</w>
o ffered</w>
n ers</w>
m ar</w>
l at
iz ing</w>
impro ving</w>
hol ding</w>
de preci
bu bble</w>
as y
adju stment</w>
M y
I tali
E A
- up</w>
victim s</w>
tax pay
stu dies</w>
s em
inclu des</w>
implement ed</w>
establi shment</w>
el ing</w>
defin ed</w>
d ged</w>
col le
beli ef</w>
bar ri
M ed
8 0</w>
tan e
practi ce</w>
per su
de -
ach es</w>
7 0</w>
sh es</w>
s kep
nor thern</w>
ic ro
dra w</w>
disci pl
dep lo
comp lic
u k
ti tu
star ting</w>
se ven</w>
pol lu
ili ties</w>
h ours</w>
g g
f requ
concer ned</w>
cho ose</w>
affor d</w>
ad ded</w>
accep ted</w>
V en
H o
tal k</w>
seri ously</w>
sec re
re ver
re turns</w>
psy cho
pro ved</w>
moder ni
legisl ation</w>
jo in</w>
experi enced</w>
el ling</w>
easi er</w>
e ding</w>
can d
br inging</w>
bon d</w>
amoun ts</w>
Taiw an</w>
T rea
Or ganiz
w on
tion ally</w>
th ers</w>
summ er</w>
rhetor ic</w>
reven ue</w>
mob ili
h ur
gre en
g en</w>
con ference</w>
c ash</w>
W .</w>
S en
Geor gi
G ul
19 3
we ight</w>
ve -
trans formation</w>
langu age</w>
lab or-
inev itable</w>
guarante e</w>
fir e</w>
exp and</w>
estim ates</w>
divi ded</w>
d eng
co t
believ ed</w>
b ir
ad s</w>
ac u
a ver
a di
Organiz ation</w>
Oc to
J anu
CO 2</w>
typ ically</w>
ti d
shar ing</w>
ren cy</w>
recogni tion</w>
practic es</w>
nation alist</w>
n e</w>
midd le-
im pose</w>
farm ers</w>
deng an</w>
de pos
de a
cri mes</w>
b el
Octo ber</w>
Go vern
B ur
tol er
pres sing</w>
pati ents</w>
occur red</w>
n ings</w>
lear ned</w>
immedi ately</w>
he avi
han d
g al</w>
econom ically</w>
ation ary</w>
addres sing</w>
Shi a</w>
S we
y es</w>
un g</w>
sub sequ
oper ation</w>
ni a</w>
mechan isms</w>
loo ks</w>
gre en</w>
fuel ed</w>
ari a</w>
undermin e</w>
to m</w>
t a</w>
suppor ters</w>
sib ilities</w>
produc t</w>
percei ved</w>
on ic</w>
expan ding</w>
dram atically</w>
civili an</w>
candi date</w>
alog ue</w>
adv ance</w>
Janu ary</w>
B e
औ र</w>
plan et</w>
per cent
pa in
op ponents</w>
lead s</w>
intellec tual</w>
go es</w>
fri ends</w>
fa st</w>
exper ts</w>
establi shing</w>
determin e</w>
bor n</w>
alle n</w>
V ie
C lin
under lying</w>
un sustainable</w>
stak es</w>
re feren
mon it
min ority</w>
m atic</w>
f our
dri ving</w>
comp on
claim ed</w>
aff ected</w>
S in
H ouse</w>
vi g
se tting</w>
re ti
propos al</w>
li fe
less on</w>
in st
f allen</w>
ez u
com for
b ound</w>
b it</w>
Ven ezu
Se a</w>
क ा</w>
z es</w>
suff er</w>
strength ening</w>
quanti tative</w>
poore st</w>
ob st
nation alism</w>
mig rants</w>
geo political</w>
fre e-
fo ssi
determin ed</w>
com promise</w>
c row
al am</w>
ai m</w>
a sion</w>
Fin an
Con stitu
C ha
A d
tra di
th y</w>
purcha ses</w>
physi cal</w>
per spec
ent al</w>
emerging- market</w>
de struction</w>
cent uri
Pak ist
E r
th an
struc tures</w>
sp here</w>
sha pe</w>
regul ations</w>
pa ying</w>
op ening</w>
equi valent</w>
eli te</w>
dynam ic</w>
develop ments</w>
demonstr ated</w>
car ry</w>
ben e
agg reg
af ter
ad o
V ladi
H e
sust ain</w>
survi val</w>
pos sibly</w>
moder ate</w>
maintain ing</w>
il ed</w>
i shed</w>
fu els</w>
ev ent</w>
de vast
ch ief</w>
ad ays</w>
C ar
wor st</w>
w is
ta il</w>
reser ve</w>
pot entially</w>
parliam entary</w>
obst ac
mechan ism</w>
me ant</w>
e ds</w>
do w</w>
credi ble</w>
bo ard</w>
agri cultural</w>
aggres sive</w>
P h
Indone sia</w>
Democr atic</w>
B r
A S
200 3</w>
vo ted</w>
sel l</w>
sec urities</w>
require ments</w>
or ing</w>
necess arily</w>
health -
grow n</w>
ex ist</w>
con ven
commit ments</w>
c en
ag no
ab and
Vladi mir</w>
Vie tn
Trea sury</w>
Por tu
N az
A ug
twenti eth</w>
si on-
sch em
pri ority</w>
pp ing</w>
off ers</w>
objec tives</w>
ne ver
gener ations</w>
er t</w>
ener g
employe es</w>
electri city</w>
bu ying</w>
balan ced</w>
ag ement</w>
Clin ton</w>
Cam bridge</w>
w er</w>
under stood</w>
s la
pu tting</w>
phil os
p uni
over -
m y
initi atives</w>
depen dence</w>
chan ge-
bank rup
appe ared</w>
Tra de</w>
Mu bar
Australi a</w>
1 4</w>
sol ve</w>
s li
s en</w>
reason able</w>
re pu
re comm
pur pose</w>
pers on
periph ery</w>
net works</w>
mig ration</w>
l en
heavi ly</w>
har dly</w>
extre mely</w>
ev ol
ec h
dram atic</w>
ch ec
centuri es</w>
ba han</w>
Gul f</w>
B el
soli darity</w>
pris es</w>
prev ail
ou ts</w>
now adays</w>
ment -
liber alization</w>
immig rants</w>
il -
gain ed</w>
g a</w>
f ar-
enter prises</w>
at tr
ali ties</w>
ad d</w>
Israeli s</w>
Iraq i</w>
Finan cial</w>
B R
- scale</w>
tr oub
shoc ks</w>
sel s</w>
religi on</w>
regar dless</w>
priv ate-
lin ked</w>
fa ir
ez bol
ex change-
di ver
dea ths</w>
con dem
c el
aff ect</w>
achiev ing</w>
accep table</w>
ac ting</w>
S pr
No bel</w>
L a
H ezbol
we st</w>
um -
tar y-
strate gies</w>
scen ario</w>
restruc turing</w>
pla ying</w>
pla yers</w>
occup ation</w>
n ity</w>
jour n
ine te
imag ine</w>
hop es</w>
er b
be s
ar ti
a po
A bb
व ि
s we
ren ts</w>
refl ected</w>
percent age</w>
p ha
on ing</w>
mo tiv
health y</w>
gain ing</w>
f ill</w>
domin ated</w>
dis crimin
di o
defe at</w>
deb t-
T o
Hezbol lah</w>
Democr ats</w>
Aug ust</w>
Abb as</w>
weak ness</w>
un il
t arian</w>
sim ul
ser ved</w>
patter n</w>
n inete
hom es</w>
g l
f lo
exchange- rate</w>
exac erb
ex it</w>
ent re
end ers</w>
ell or</w>
co al</w>
bo t
b loo
क र
v o</w>
use ful</w>
tid ak</w>
t an</w>
sen si
s mar
s at
repres ent</w>
ra g
pro liferation</w>
per sist
or ship</w>
op tions</w>
le y</w>
fig ure</w>
fi f
f low</w>
er ia</w>
emer ge</w>
e m</w>
clo sely</w>
bl ame</w>
bankrup t
Ch ile</w>
A h
y outh</w>
usu al</w>
tech nical</w>
ta hu
rel uc
re ment</w>
pursu ing</w>
per cep
lo gi
kil ling</w>
dro p</w>
dist inc
deep er</w>
de pression</w>
d il
compe te</w>
col on
co -
ch ea
c ue</w>
at titu
assum e</w>
ac compan
Vietn am</w>
St re
Sing ap
A pri
te ach
sol di
ren tly</w>
propos als</w>
pl ying</w>
neg ara</w>
mater i
m ir
m il
gradu ally</w>
fron t</w>
ei ght</w>
declin ing</w>
b illions</w>
analy sis</w>
aliz ing</w>
ac ts</w>
Singap ore</w>
wor ry</w>
taxpay ers</w>
pre ne
oun ding</w>
lo sing</w>
in sul
ig n
h ome
fe wer</w>
entre prene
discus sion</w>
descri bed</w>
cri me</w>
addres sed</w>
W all</w>
Ger man
Apri l</w>
territ orial</w>
t ability</w>
suppor ting</w>
share holders</w>
promis ing</w>
pro vin
pres sures</w>
prac tical</w>
pl ed</w>
p ada</w>
never theless</w>
mi tig
less ons</w>
k o</w>
desig n</w>
cyc le</w>
consist ent</w>
cho ices</w>
ch es</w>
barri ers</w>
Mubar ak</w>
D ef
versi ties</w>
sur prise</w>
stre am</w>
show ed</w>
sa ys</w>
pas sed</w>
lear ning</w>
ex tr
eng age</w>
der ly</w>
d alam</w>
comm unist</w>
ar m</w>
Pe ople</w>
Je ws</w>
we alth
success fully</w>
repres ents</w>
ra dic
nu tri
mis m</w>
li cit</w>
institu tion</w>
human itarian</w>
ho sti
genu ine</w>
g am
finan ced</w>
emer gency</w>
eli tes</w>
dict at
di e</w>
di agno
deci sion-
bor row</w>
an ticip
S D
N ig
K ur
uni versities</w>
strong ly</w>
stag nation</w>
st atis
r a</w>
pl at
p h</w>
oun ded</w>
it ation</w>
issu ed</w>
ex plan
def end</w>
deci de</w>
aggreg ate</w>
H oll
F re
y er</w>
ter ror</w>
p es
o t</w>
net work</w>
mi stake</w>
man date</w>
jo int</w>
inter nation
im peri
il lu
heav y</w>
encoura ging</w>
di alogue</w>
critici sm</w>
cour t</w>
chea p</w>
bu bb
ate dly</w>
ar ity</w>
anc ellor</w>
al u
ac a
Chris tian</w>
Ch ancellor</w>
B as
uc k</w>
simul tane
ro bust</w>
ren ce</w>
prog res
prof it</w>
produc ing</w>
pro p
om ing</w>
mit ted</w>
me th
mater ial</w>
le ver
incenti ve</w>
in adequate</w>
implic ations</w>
ideo logical</w>
histor ic</w>
health- care</w>
fru str
fic ial</w>
agri culture</w>
Spr ing</w>
O s
K im</w>
Itali an</w>
F at
व ा
withdraw al</w>
w o
uni que</w>
under p
tru ly</w>
transpa rency</w>
targe ted</w>
t i</w>
si ght</w>
sc ope</w>
remark able</w>
remain ing</w>
reali stic</w>
mode st</w>
kep t</w>
it ably</w>
hal f-
emer gence</w>
emb ar
d ow
cap able</w>
arrang ements</w>
allow s</w>
J er
H a
tem per
t ance</w>
repor ted</w>
regar ded</w>
r ant</w>
protec tion
prof ound</w>
pen sion</w>
partn er</w>
ou d</w>
not ably</w>
mit tee</w>
ir man</w>
il ing</w>
fail ures</w>
educ ational</w>
du m</w>
contribu ted</w>
conn ected</w>
ce le
bail out</w>
Com mittee</w>
Col om
19 60</w>
. 5</w>
- led</w>
tri b
transf er</w>
ten ing</w>
supp lies</w>
some one</w>
s co
ris ky</w>
ris k-
pu shed</w>
oc ca
min ent</w>
m un
fig ures</w>
eng agement</w>
emb ly</w>
corpor ations</w>
ch ron
abs olu
Tur k
Rus sians</w>
Portu gal</w>
Li ber
B ang
ve h
t ant</w>
subsi di
restric tions</w>
resp ec
resi li
process es</w>
occu r</w>
li e</w>
ho sp
graph ic</w>
ex cess</w>
ess entially</w>
d ap
contrac ts</w>
cont em
concep t</w>
appreci ation</w>
annu ally</w>
and a</w>
M on
D C</w>
19 30</w>
ि ए</w>
ह ै
क ो</w>
u n</w>
to w
st ers</w>
s in</w>
resol ved</w>
publi shed</w>
pro secu
mo ved</w>
manag ers</w>
m ere</w>
g em
fin ding</w>
dist or
deci sive</w>
constra ints</w>
comp la
bankrupt cy</w>
an ge</w>
S cot
Pakist ani</w>
0 0,000</w>
su rely</w>
res cue</w>
re ports</w>
r ational</w>
private- sector</w>
pre me</w>
per f
mon o
laun ch</w>
ent er</w>
empha si
condi tion</w>
co w</w>
bot tom</w>
R ic
C ri
Br us
Ber lin</w>
v ill
rul ers</w>
ro l
perspec tive</w>
n an
large -scale</w>
inten sive</w>
ing u
W e
I t</w>
Georgi a</w>
Brus sels</w>
threat ened</w>
ther hood</w>
ten ed</w>
sig ns</w>
pu shing</w>
pri mar
pos se
popu list</w>
mean ing
li cal</w>
ie ld</w>
gene tic</w>
ex posed</w>
dest abili
de vi
be ar</w>
ati zation</w>
ac compli
M os
L ab
C or
5 00</w>
19 5
wi der</w>
wa ve</w>
vi able</w>
tahu n</w>
seem ingly</w>
repe atedly</w>
rele ased</w>
referen dum</w>
re stor
re ci
open ha
op posed</w>
of -
ne l</w>
har d
e ty</w>
di versity</w>
de liber
char ge</w>
bubb les</w>
aw are</w>
ar ri
S um
Ko so
J ord
Egyp tian</w>
5 -
क ा
v acc
tri al</w>
tre at</w>
transf ers</w>
tr ack</w>
sc ar
s outh</w>
obser vers</w>
li zed</w>
il e
ik a</w>
human -
h ance</w>
func tion</w>
eng aged</w>
en cing</w>
d ness</w>
boo sting</w>
b at
a ks</w>
AS EA
न ा</w>
ver ing</w>
sur p
ra ble</w>
pos ing</w>
openha gen</w>
men tion</w>
i or
human s</w>
gre w</w>
en hance</w>
desp er
der ing</w>
appa rent</w>
an ni
ai ly</w>
acqu i
T e
P au
C openhagen</w>
y ield</w>
wom an</w>
tr ouble</w>
ori ented</w>
oppos ite</w>
oper ate</w>
ma xim
invest ing</w>
integr ated</w>
ey es</w>
dispu tes</w>
be t</w>
abs or
G row
Er do
A t
undermin ing</w>
tren ds</w>
transp ort</w>
te am</w>
surp rising</w>
st e</w>
soldi ers</w>
s oph
pre viously</w>
ex u
escap e</w>
cont ent</w>
compens ation</w>
c s</w>
ar ds</w>
ambi tious</w>
Eng land</w>
Bro therhood</w>
Au th
20 0</w>
v ity</w>
te sts</w>
sub -
su ffered</w>
stitu te</w>
skil led</w>
re sid
re min
primar ily</w>
prev enting</w>
pol ls</w>
organiz ed</w>
occu pi
multi -
ma y
it ting</w>
in ated</w>
g an</w>
func tioning</w>
form ul
fail ing</w>
effec tiveness</w>
consoli dation</w>
coll abor
be gun</w>
balan cing</w>
an t
an a</w>
af i</w>
ad ed</w>
accompan ied</w>
ab an
Stre et</w>
S pan
N ic
Def ense</w>
ASEA N</w>
ि क</w>
wel come</w>
t ell</w>
st ress</w>
spe ak</w>
s ort</w>
rul ed</w>
pain ful</w>
lear -
intere st-
in d
he ar
exp ense</w>
en om
comple tely</w>
an x
adop t</w>
Re public
Mor si</w>
1 7</w>
wa it</w>
volati lity</w>
sustain ability</w>
spe ed</w>
respon sibilities</w>
res ource</w>
r ation
pre mi
per pe
om s</w>
oblig ations</w>
new sp
ne ar-
mean ing</w>
know s</w>
inev itably</w>
head s</w>
ha z
go t</w>
g ro
g ement</w>
foc using</w>
fa ther</w>
f at</w>
crimin al</w>
conduc t</w>
cir c
avi d</w>
am p</w>
ali ke</w>
ac knowle
a side</w>
O l
weak er</w>
us ers</w>
twenty- first</w>
ti ans</w>
rev olutionary</w>
qu ali
produc ers</w>
on line</w>
lu m
lan d
l an</w>
he gem
f elt</w>
educ ated</w>
civili ans</w>
at mo
ambi tions</w>
S ou
M ah
Koso vo</w>
Auth ority</w>
1 8</w>
veh ic
ti ally</w>
surpl uses</w>
ste red</w>
soph is
sig n
re al-
r at
qu o</w>
prote st</w>
po se
p ru
log ic</w>
instr uments</w>
initi al</w>
i er</w>
i -
financi al-
e lements</w>
confron tation</w>
batt le</w>
ba rely</w>
b all</w>
ap s</w>
T ran
C lim
B re
t- wing</w>
sophis tic
s enti
row n</w>
reli able</w>
re jected</w>
r ated</w>
profes sional</w>
pri orities</w>
predic table</w>
nuc lear-
mu tual</w>
lat ter</w>
j e
inv asion</w>
identi fy</w>
gu ard</w>
f la
er on</w>
dis rup
deter ior
d aily</w>
custom ers</w>
counter -
coordin ation</w>
co stly</w>
cha m
car ried</w>
attemp ts</w>
am s</w>
add am</w>
a str
Venezu ela</w>
T uni
S addam</w>
Republic ans</w>
M c
M ad
Erdo ğ
D avid</w>
Ch ar
Cam eron</w>
wa ke</w>
valu ation</w>
un certain</w>
tre ated</w>
threat ening</w>
than ks</w>
stat ement</w>
spec ies</w>
sion ary</w>
ser ies</w>
se a</w>
resul ted</w>
mom ent
mat h</w>
lo y
lin k</w>
kin ds</w>
initi ally</w>
ign ore</w>
ic k</w>
ful l-
exten ded</w>
emb race</w>
emb rac
de tail
compe t
co ver</w>
char ges</w>
call ing</w>
c lin
attrac tive</w>
app lic
R ec
O EC
Fat ah</w>
ur gent</w>
un employed</w>
to cr
state- owned</w>
slow ly</w>
ru s</w>
r ying</w>
protec ting</w>
mortg age</w>
happ y</w>
ha b
gener ated</w>
g ment</w>
extremi sts</w>
excep t</w>
ess or</w>
es sions</w>
den cy</w>
convinc ed</w>
ac cur
OEC D</w>
Mos cow</w>
Mal ay
C u
Bur ma</w>
7 -
198 9</w>
है ं</w>
weak ening</w>
ul ts</w>
the ast</w>
so f
read ing</w>
re placed</w>
r s</w>
pre fer
pol ar</w>
per si
par ado
pack age</w>
negoti ated</w>
nat ur
loo ked</w>
le bi
k i</w>
fir st-
eth ical</w>
enom en
doc tr
discipl ine</w>
d ouble</w>
cor rupt</w>
ac ked</w>
Erdoğ an</w>
we a
un ited</w>
un de
threat en</w>
survi ve</w>
success or</w>
she ets</w>
senti ment</w>
ro te</w>
plan ts</w>
ph enomen
occupi ed</w>
ob viously</w>
new ly</w>
negoti ating</w>
negoti ate</w>
medi um-
l a</w>
introduc ed</w>
inclu ded</w>
impro vement</w>
happen s</w>
h i</w>
gre at
g un
flexi bility</w>
exac tly</w>
depreci ation</w>
dee pen
decision- making</w>
dec lar
cyc lical</w>
ad vis
Swe den</w>
S te
Pau l</w>
Key ne
Grow th</w>
vo tes</w>
valu able</w>
tele vision</w>
t ough</w>
subsequ ent</w>
ss ed</w>
re member</w>
r i</w>
qu a
pu ts</w>
pre dec
par tment</w>
p el
own ers</w>
nu mer
men e
interest- rate</w>
inten si
inclu sive</w>
fa ith</w>
f al
excep tion</w>
en for
confron t</w>
bud gets</w>
an mar</w>
alternati ves</w>
W e</w>
My anmar</w>
I S
German s</w>
F ri
sym bo
st ay</w>
si x
ro ads</w>
nom inal</w>
li ter
innov ative</w>
implement ing</w>
ill en
frag ile</w>
fall s</w>
ev olutionary</w>
enab ling</w>
e astern</w>
consist ently</w>
con tain</w>
borrow ers</w>
bo dies</w>
blo od</w>
म ा
wor d</w>
vo ting</w>
ter -
shoc k</w>
se v
sa ying</w>
ri o
pro hi
plan ning</w>
off ering</w>
o ci
fo ot
facili ties</w>
dist ingu
chan n
b in
ati on-
ali g
ag ues</w>
S ud
S ta
Q add
H um
Clim ate</w>
w rote</w>
us al
tion ed</w>
th u
surpris ingly</w>
suc c
strength ened</w>
sp on
quar ters</w>
pollu tion</w>
mortg ages</w>
mo il</w>
in -
ho st</w>
har m</w>
guarante es</w>
g ir
f ate</w>
exerci se</w>
er up
enab led</w>
en lar
e u
coun t</w>
concer ning</w>
con vic
ci li
at tribu
at an</w>
am ent</w>
accoun ting</w>
Ph ili
Jer usal
E ner
D o
Ang ela</w>
स ा
vers ary</w>
un doub
tu m
tho do
struc tive</w>
par tis
p aper</w>
nar r
m ad
li ved</w>
it y-
im age</w>
ig no
fri end
fa shi
f em
ever -
e k
draw n</w>
dis h</w>
counter parts</w>
contribu tion</w>
conduc ted</w>
conclu ded</w>
an ism</w>
ac tual</w>
M il
K ar
Jord an</w>
Jerusal em</w>
B i
tur moil</w>
t onom
sy n
sugge sted</w>
stre ets</w>
some what</w>
sid ers</w>
sac ri
reve aled</w>
renew ed</w>
ra f</w>
op les</w>
exist ence</w>
execu tive</w>
d ents</w>
cross -
con cei
clo sed</w>
asp ir
S i
त ा</w>
stop ped</w>
speci fic
sacri fic
run s</w>
re place</w>
propor tion</w>
pres sive</w>
pas s</w>
pa rents</w>
p em
leg acy</w>
j um
it ure</w>
ig nor
hel ps</w>
f e</w>
el ed</w>
do z
difficul ties</w>
dap at</w>
contribu tions</w>
con sul
bru tal</w>
ap ply</w>
ang an</w>
Y e
So ci
Qadd afi</w>
P rin
Mu shar
J in
vol un
ver sion</w>
undoub tedly</w>
sup pose
sel ling</w>
rese arch
res sed</w>
predic t</w>
mat ch</w>
la sting</w>
k new</w>
justi fy</w>
jo ined</w>
ine j
ill ance</w>
i ans</w>
human ity</w>
ha r</w>
ex pressed</w>
end or
defin i
con cili
compu ter</w>
b adly</w>
an ci
advant ages</w>
T im
Mushar raf</w>
Islam ists</w>
A gency</w>
200 2</w>
suppose dly</w>
stimul ate</w>
ri d</w>
purcha se</w>
pre f
p al</w>
or ts</w>
inv es
il and</w>
gr ounds</w>
g ar
engine ering</w>
demonstr ate</w>
d a</w>
cre ates</w>
consequ ence</w>
ch i
cen ters</w>
c lu
c li
ba h
b ill</w>
ar re
al ty</w>
after math</w>
advan ces</w>
a an</w>
Span ish</w>
R ob
Q E</w>
C i
9 0</w>
war ned</w>
u sh
tt en</w>
t le</w>
sur ge</w>
stag n
simultane ously</w>
she et</w>
sh owing</w>
re turned</w>
pro mp
pl ant</w>
pay ment</w>
ne o-
n ine</w>
manag ing</w>
lebi h</w>
inves tig
inf lows</w>
inej ad</w>
gi ves</w>
fi xed</w>
ff s</w>
expan ded</w>
e an</w>
dre am</w>
devast ating</w>
coun ter</w>
commun ism</w>
au tonom
appe al</w>
Su preme</w>
Ne ther
K ha
Fe bru
w ind</w>
surve illance</w>
stri ke</w>
se as</w>
reli ance</w>
relation ships</w>
re view</w>
particip ate</w>
one- third</w>
li m</w>
il legal</w>
ideo logy</w>
govern mental</w>
explan ation</w>
down ward</w>
down turn</w>
deman ding</w>
cle an</w>
cap abilities</w>
bra in</w>
b ran
Tuni sia</w>
Nether lands</w>
Febru ary</w>
Can ada</w>
A s
uni ons</w>
tin y</w>
substan tially</w>
so le
sh rin
s end</w>
s cand
ro c
res tim
re stra
re jec
ran ean</w>
presid ents</w>
popu li
me re
mal aria</w>
l ers</w>
iter ranean</w>
isol ation</w>
in duc
har der</w>
govern ing</w>
foreign- exchange</w>
f r
equi pment</w>
di mini
determin ation</w>
destro y</w>
cre te</w>
coura ge</w>
assess ment</w>
arg uments</w>
al d</w>
ag er</w>
adju sted</w>
Pe ace</w>
Med iterranean</w>
Eng li
1 6</w>
weak ened</w>
vig or
tic le</w>
system ic</w>
su n
sha res</w>
rec over</w>
re p
re action</w>
qu i
pris on</w>
partn ership</w>
particip ants</w>
n es</w>
medic ine</w>
le f
ke ts</w>
ide al</w>
ha i</w>
gener ating</w>
extra ordinary</w>
exper im
expend iture</w>
dis appoin
direc ted</w>
depos its</w>
bes ar</w>
atmo sphere</w>
appro aches</w>
an d-
S om
I V</w>
C ali
A R
8 -
ve stment</w>
under stand
tri als</w>
ti sm</w>
ther more</w>
t ack
stoc ks</w>
sp ring</w>
sophistic ated</w>
s cre
ro g
ref used</w>
provi sion</w>
pro long
philos oph
pe ak</w>
no tion</w>
minim um</w>
mi stakes</w>
mar ked</w>
lim iting</w>
lea ves</w>
il s</w>
i on</w>
fur thermore</w>
encoura ged</w>
domin ant</w>
discus sions</w>
dis mis
den ly</w>
d ary</w>
colle agues</w>
cham pi
boo ks</w>
appa rently</w>
ap art</w>
Par tn
B ud
Ac t</w>
4 5</w>
1 3</w>
weak en</w>
vi sible</w>
ve z</w>
tri ght</w>
tra dition</w>
tra dable</w>
t y-
sur r
sud denly</w>
repres ented</w>
re conc
public ly</w>
pre par
ou tright</w>
n a</w>
moderni zation</w>
mili ti
meaning ful</w>
m icro
l acks</w>
it ly</w>
invol ving</w>
infl ationary</w>
go tten</w>
flexi ble</w>
ear nings</w>
divi de</w>
dig ital</w>
cou p</w>
conclu sion</w>
concili ation</w>
cap ture</w>
ang er</w>
accoun tability</w>
So cial</w>
Phili pp
D ar
D S</w>
Colom bia</w>
C z
x on</w>
war ning</w>
thre e-
t el
su nam
stor ies</w>
spec tac
shif ting</w>
sensi tive</w>
sch ol
sal es</w>
s ligh
repres sion</w>
proper ly</w>
pati ent</w>
partis an</w>
own ership</w>
op ened</w>
n ur
moment um</w>
long er-
im port</w>
gen oci
four th</w>
entreprene ur
enti t
empha sis</w>
discrimin ation</w>
chron ic</w>
bo ld</w>
big ger</w>
b oun
b lin
au tocr
ad vice</w>
Tha iland</w>
S ha
N P</w>
Malay sia</w>
Ener gy</w>
D ut
Cali for
BR IC
B la
4 .
स ं
wor ried</w>
trans actions</w>
thir ds</w>
th ri
succe eded</w>
represent atives</w>
rais es</w>
purcha sing</w>
priv ile
plan ned</w>
p it
off set</w>
nar row</w>
n a
im a</w>
head ed</w>
em en</w>
elimin ate</w>
ec o
do cum
deb ates</w>
d ations</w>
cour ts</w>
con crete</w>
assum ed</w>
an de</w>
ad or</w>
aban don</w>
Turk ish</w>
Sud an</w>
Sh ang
Ri ghts</w>
O s</w>
J usti
Holl ande</w>
Afgh an</w>
2 4</w>
1. 5</w>
द े
wis dom</w>
uni versity</w>
transpa rent</w>
tain ed</w>
soci al-
pre sum
pe oples</w>
on to</w>
less ly</w>
la de
influ ential</w>
implement ation</w>
gi ble</w>
g ger</w>
fossi l</w>
expend itu
exam ples</w>
ev alu
es n</w>
do esn</w>
disp lac
di ff
declin ed</w>
cr iter
chem ical</w>
c ars</w>
c ar</w>
b y
argu es</w>
Bang lade
w inning</w>
two- thirds</w>
ter ri
s tic
ro se</w>
reti rement</w>
re conciliation</w>
p tions</w>
ninete enth</w>
mere ka</w>
k it
inte g
fuel ing</w>
expenditu res</w>
ex emp
enhan cing</w>
deli vered</w>
dam aging</w>
cre ative</w>
correc t</w>
contro versi
con g
comm is
bir th</w>
b le
S tr
S har
G en
C E
B ut</w>
3 5</w>
1 7
we red</w>
undermin ed</w>
um b
tra vel</w>
te sted</w>
su ffici
ri t</w>
res sional</w>
regar ding</w>
rec k
prop ag
p he</w>
nutri tion</w>
mob ile</w>
marke t-
ine fficient</w>
in side</w>
happ iness</w>
facilit ate</w>
dispu te</w>
de structive</w>
de la
d ur
cur e</w>
com man
cha os</w>
ce an</w>
believ es</w>
balan ce-
b lam
b -
attr act</w>
ari ties</w>
app lied</w>
al ties</w>
ak h
ad y</w>
aca demic</w>
Nig eria</w>
Dut ch</w>
At lantic</w>
ल िए</w>
u d</w>
tri gge
trigge red</w>
tra -
tax ation</w>
ta lity</w>
s ites</w>
re plac
p rag
open ly</w>
nor ms</w>
neg l
ne sses</w>
mene i</w>
mea sured</w>
ma li
less ness</w>
ir s</w>
deri v
de aling</w>
d den</w>
catastro phe</w>
b lack</w>
ad ing</w>
ac ci
ab les</w>
Kha menei</w>
K yo
Justi ce</w>
H it
De partment</w>
Bla ir</w>
Ass embly</w>
A s</w>
20 20</w>
v ent</w>
tra ge
st ant</w>
research ers</w>
remo ved</w>
re rs</w>
pro per</w>
predic ted</w>
ow ed</w>
overwhel ming</w>
nor th</w>
n on
interven tions</w>
imperi al</w>
histor ically</w>
func tional</w>
fi x
coordin ated</w>
contra dic
comm it</w>
collap sed</w>
c o</w>
bloc k</w>
St ability</w>
Q at
Partn ership</w>
Key nes</w>
Fri ed
z z
won der</w>
ultim ate</w>
trans formed</w>
t sunam
so ld</w>
s ity</w>
ris h</w>
ri g
refuge e</w>
re alize</w>
prolong ed</w>
p un
or ders</w>
moun ting</w>
meth ods</w>
intere sted</w>
in deb
imp ly</w>
frequ ently</w>
fam ous</w>
exten d</w>
enfor cement</w>
e t
di versi
b es</w>
anni versary</w>
all ed</w>
ag u
ad verse</w>
ac tor</w>
Ukra ini
Shang hai</w>
P o
Kyo to</w>
Gre en
Califor nia</w>
wealth y</w>
we igh
vol um
vari ety</w>
ten s</w>
smar t</w>
ser ves</w>
separ ate</w>
roo t</w>
ron t</w>
ri c</w>
obstac les</w>
multi ple</w>
maintain ed</w>
m oud</w>
li hood</w>
lever aging</w>
insi st</w>
ine ly</w>
imper ative</w>
ful fil
feren ces</w>
fe der
extre mism</w>
exec uti
ent ered</w>
el led</w>
e ing</w>
dil em
di verse</w>
di men
demo graphic</w>
de als</w>
complic ated</w>
c op
broad ly</w>
bre aking</w>
ap it
ap ers</w>
am es</w>
ad ver
ab oli
a u</w>
T he
S il
Mah moud</w>
In vestment</w>
5 .
w a</w>
tigh tening</w>
ser ving</w>
ris is</w>
respon ding</w>
re tain</w>
re balancing</w>
ra rely</w>
prosp erous</w>
propor tion
po ly</w>
mo ves</w>
m end
longer- term</w>
li ghts</w>
internation ally</w>
in sist
great ly</w>
gran ted</w>
gra de</w>
en rich
domin ance</w>
doctr ine</w>
dist ur
dictat orship</w>
cra ft</w>
conver gence</w>
cent ra
be it</w>
V i
Ser bia</w>
P lan</w>
N G
M it
Fo reign</w>
F i
D P
vo ice</w>
tw ice</w>
trans form</w>
tradi tionally</w>
s ent
righ tly</w>
respon ded</w>
regul ated</w>
poore r</w>
orig inal</w>
oper ating</w>
min ds</w>
materi als</w>
l enders</w>
kil l</w>
interven e</w>
gui ded</w>
glob ally</w>
gir ls</w>
foun dations</w>
favor able</w>
executi ves</w>
contr act</w>
compon ent</w>
cel ls</w>
avoi ding</w>
al beit</w>
acc used</w>
a sts</w>
a j
Rob ert</w>
N A</w>
M ic
Hit ler</w>
H ung
Engli sh</w>
Ch ur
C A
A le
3 ;</w>
2 2</w>
1 ;</w>
&#9 3;</w>
&#9 1;</w>
क ि</w>
volati le</w>
uni fication</w>
tri gger</w>
statis tics</w>
st al
sig nal</w>
re d
pro vo
po lar
pl um
om ics</w>
neighbor ing</w>
lin ed</w>
in sufficient</w>
impro vements</w>
ik lim</w>
ig h</w>
hun ger</w>
gui de</w>
fun ded</w>
ex pression</w>
evi l</w>
enjo y</w>
enem y</w>
enem ies</w>
emp ire</w>
ear th
de ad</w>
character ized</w>
b a</w>
avoi ded</w>
attemp ting</w>
as si
as king</w>
appro val</w>
an ia</w>
T his</w>
Philipp ines</w>
D ra
B en
Ah mad
3 00</w>
yi elds</w>
y o</w>
sett lements</w>
respon ses</w>
resol ving</w>
renew able</w>
qu est</w>
progres sive</w>
pres ented</w>
po or
percep tion</w>
o le
ment ed</w>
ma p</w>
li abilities</w>
in spi
import antly</w>
im por
illen ni
he ard</w>
h at
foreign ers</w>
fo ld</w>
ex port
employ ers</w>
dy s
consider ably</w>
cha ins</w>
cau ght</w>
bro ken</w>
arch it
anci ent</w>
al a</w>
Scot land</w>
N i
C I
vehic les</w>
u bahan</w>
ten sion</w>
techno cr
st an</w>
sligh tly</w>
sen sible</w>
secre t</w>
rec ru
poor ly</w>
pen sions</w>
numer ous</w>
man ner</w>
li st
journ alists</w>
is o
inde x</w>
in ability</w>
har mon
gen es</w>
finan ces</w>
ess ors</w>
elec tr
e ase</w>
di str
destro yed</w>
desi rable</w>
cy ber</w>
clas si
cele br
ail s</w>
absolu te</w>
Som ali
BRIC S</w>
Ahmad inejad</w>
ye ar-
y an</w>
y al</w>
wr ite</w>
vulner ability</w>
spi rit</w>
specific ally</w>
sovereign -
sol ar</w>
signific ance</w>
se ts</w>
ru g
res ort</w>
r ating</w>
pro ven</w>
pro minent</w>
poin ted</w>
persist ent</w>
par aly
out look</w>
me d
hum ili
happen ing</w>
fe atures</w>
fail s</w>
er al</w>
energ i</w>
el low</w>
ear n</w>
cra sh</w>
compar is
compar able</w>
claim ing</w>
ch er</w>
c k
c ate
big u
all -
W o
Qat ar</w>
P ow
F S
7 5</w>
199 9</w>
199 1</w>
197 9</w>
र ा
ti er</w>
stri kes</w>
sp ur
s an
rou t
restor ing</w>
repu tation</w>
re verse</w>
rati os</w>
pres cri
pref er</w>
pr in
popul arity</w>
pha se</w>
persu ade</w>
our selves</w>
op pose</w>
on ald</w>
ne u
missi le</w>
min orities</w>
manipul ation</w>
l ag
invest ed</w>
gradu al</w>
fundament ally</w>
foun dation</w>
fac ts</w>
er red</w>
enhan ced</w>
divi sions</w>
d ated</w>
contribu ting</w>
comb at</w>
challeng ing</w>
as sa
achiev ement</w>
a ul
T ri
Sta lin</w>
N uc
Ken ya</w>
Den mark</w>
Cha irman</w>
20 30</w>
2 7</w>
199 8</w>
typ es</w>
t ty</w>
suffici ently</w>
st ern</w>
requ iring</w>
reluc tant</w>
re tail</w>
protec ted</w>
pris on
prev ented</w>
policy making</w>
perf ect</w>
men j
jud ges</w>
foreign- policy</w>
divi sion</w>
den ed</w>
d ges</w>
con sci
communic ations</w>
chil d
ce ton</w>
cate g
care fully</w>
b and</w>
analy sts</w>
am bigu
al o
ag ency</w>
ad ding</w>
Prin ceton</w>
P B
K u
J i
In di
C ath
Bel gi
ver sus</w>
tri um
transp or
to ol</w>
territ ories</w>
su peri
strugg ling</w>
st ated</w>
shif ts</w>
s y</w>
roo ts</w>
recogni zing</w>
real- estate</w>
pursu ed</w>
ph one</w>
pes si
o il-
narr ative</w>
mono poly</w>
main stream</w>
k i
invol vement</w>
her o
genoci de</w>
fi elds</w>
fe eling</w>
f ran
f loo
f an
extr a</w>
ep iso
enlar gement</w>
elector ate</w>
de valuation</w>
d ul
d ently</w>
cou ple</w>
benef ited</w>
bac king</w>
as c
anx ie
al leg
ad i</w>
W W
U -
Rom ney</w>
Poli cy</w>
P an
L u
K ing</w>
K er
D el
Ch á
- based</w>
uni a</w>
un it</w>
threat ens</w>
thre sh
targe ting</w>
tan ts</w>
stat ements</w>
star ters</w>
secon d-
se ats</w>
schem e</w>
ru m
righ t-wing</w>
plat form</w>
par alle
ong -
marg in
ko v
k er
innov ations</w>
im men
hous es</w>
har d-
g ently</w>
fo li
fer ti
ex pl
er ships</w>
ei gh
du res</w>
difficul ty</w>
di ties</w>
de par
consider ing</w>
br ings</w>
b ab
argu ing</w>
ar bit
appro ved</w>
anim als</w>
advoc ates</w>
aband oned</w>
Naz i</w>
Mexic an</w>
Ch ange</w>
Banglade sh</w>
2 8</w>
िय ा</w>
v it
v ation</w>
v als</w>
u kan</w>
tow n</w>
thu si
st ation</w>
secon dary</w>
sc ru
s exu
rele ase</w>
ran ging</w>
qua ke</w>
pres er
pl ing</w>
ph arm
or derly</w>
no ted</w>
mar ri
mag n
like lihood</w>
ld n</w>
labor- market</w>
l o</w>
in formed</w>
illenni um</w>
ho ods</w>
h -
ey e</w>
es cal
environ ment
ent y</w>
en thusi
ed -
doc tors</w>
disco vered</w>
contem por
cont ag
cle an
bom b</w>
beg ins</w>
al es</w>
adap t</w>
accor d
Y u
Rom a</w>
Nuc lear</w>
N P
Keyne sian</w>
E S
Bas har</w>
Ara bs</w>
1 6
z a</w>
y at
writ ten</w>
wa iting</w>
t ter</w>
t ings</w>
super vision</w>
stud ent</w>
stabili ze</w>
sha dow</w>
sec tarian</w>
s ky</w>
reduc tions</w>
proce dures</w>
pres erve</w>
port foli
por tra
phenomen on</w>
p ho
n is</w>
mo bility</w>
lo an</w>
inno cent</w>
im pressive</w>
igno red</w>
ici de</w>
i ary</w>
gi ant</w>
fif th</w>
far- reaching</w>
ex ists</w>
er r
e able</w>
dynam ics</w>
den om
controversi al</w>
confron ted</w>
care ful</w>
c ast</w>
b ly</w>
assum ption</w>
am i</w>
activi sts</w>
accoun table</w>
T V</w>
S al
E L
Chá vez</w>
Bo ard</w>
19 50</w>
- year</w>
ह ो
ल ा
क ि
y en</w>
xi de</w>
tri p</w>
tor ies</w>
ti se</w>
th ro
sud den</w>
see ing</w>
se in</w>
scho ol
rich er</w>
re sum
re ness</w>
ra y</w>
princi pal</w>
pri or</w>
pl ur
pic ture</w>
pi pel
per ubahan</w>
nar row
mul tin
mee tings</w>
loc k</w>
lin ks</w>
l ec
judic ial</w>
jud gment</w>
invol ve</w>
in her
in formal</w>
hol der</w>
h ence</w>
expla ined</w>
expan sionary</w>
en -
dre w</w>
don ors</w>
deepen ing</w>
dang ers</w>
d r
conven i
comp ati
capit al-
bin ding</w>
awa reness</w>
ati es</w>
announ cement</w>
Somali a</w>
P P</w>
L o
Israeli -
199 7</w>
we stern</w>
w al
us al</w>
ur ani
tt on</w>
su m</w>
st ering</w>
ris en</w>
repe ated</w>
po is
pla u
orig in
l end</w>
j un
intellec tu
im posing</w>
disast ers</w>
credit or</w>
compe ting</w>
co l</w>
catastro ph
aspir ations</w>
as s</w>
achiev ements</w>
acceler ate</w>
ab use</w>
Sh in
Poli sh</w>
Nic ol
Hum an</w>
Ch i
C al
B u
A gre
199 2</w>
ज ा
x y</w>
wit ne
vic ious</w>
unde restim
ss ing</w>
some how</w>
soli d</w>
se ve
s sion</w>
ri val</w>
pur poses</w>
profes sion
politici an</w>
patter ns</w>
ong side</w>
monit oring</w>
low- carbon</w>
le ts</w>
k yo</w>
is land</w>
indic ators</w>
indic ate</w>
guarante ed</w>
gh ter</w>
fu sion</w>
fo ster</w>
f it</w>
exten sive</w>
exper tise</w>
ear th</w>
deman ded</w>
conv in
con stant</w>
comp elling</w>
comm and</w>
comfor table</w>
chan ces</w>
c ker</w>
bol ster</w>
back ground</w>
b lu
arm ing</w>
appreci ate</w>
al ongside</w>
aim s</w>
Y emen</w>
Q u
Mad rid</w>
&apos ;</w>
wea ther</w>
to col</w>
sp an</w>
shif ted</w>
seve rely</w>
se -
sa ved</w>
s lower</w>
resili ence</w>
ra ge</w>
ra di
public- sector</w>
protection ism</w>
propag anda</w>
prefer red</w>
pl us</w>
missi les</w>
mis sing</w>
min ded</w>
middle- income</w>
mat ure</w>
le n</w>
ji ha
it -
inclu sion</w>
ha u
govern ment-
dis order</w>
defin e</w>
compu ters</w>
co verage</w>
cho o
appe ar
alli ances</w>
adop ting</w>
acti vely</w>
ab uses</w>
To kyo</w>
H us
E th
Ar my</w>
ó n</w>
typ ical</w>
tsunam i</w>
sto red</w>
sp ur</w>
sp orts</w>
sh ou
see ks</w>
represent ative</w>
on gest</w>
ole h</w>
og le</w>
neighb or</w>
nati on-
mur der</w>
mobili ze</w>
it ors</w>
ic -
famili ar</w>
evi dent</w>
dist ant</w>
diplom ats</w>
cross- border</w>
con fir
circ le</w>
c lar
b low
au di
assum ing</w>
ass as
all s</w>
al- Assad</w>
aff ir
Wh ite</w>
Sum mit</w>
Lab our</w>
K y
F ace
Cent er</w>
B os
writ ing</w>
vir tu
v ali
unil ater
un stable</w>
tre aties</w>
tra v
struc k</w>
stric t</w>
st af
sim p
se bag
roo ted</w>
res emb
regul ar</w>
pursu it</w>
pro jected</w>
pl enty</w>
p a</w>
mani fe
k on
k es
k em
interpre tation</w>
inf lic
inc or
identi fied</w>
id ance</w>
hy po
human- rights</w>
green house</w>
gener ous</w>
fair ly</w>
exp lic
erup ted</w>
do or</w>
deriv atives</w>
de lay</w>
contempor ary</w>
con ce
challeng ed</w>
attemp ted</w>
assas sin
ali stic</w>
accep tance</w>
Ol y
Go ogle</w>
Face book</w>
Constitu tion</w>
C risis</w>
Agre ement</w>
2. 5</w>
1 5
1 -
yp rus</w>
weap on</w>
vic es</w>
valu ed</w>
v a</w>
sy mp
susp ici
specul ative</w>
see able</w>
resi st</w>
r are</w>
pres ent
pre p
prep are</w>
pl un
pe ac
partn erships</w>
op ar
ol der</w>
m er</w>
lu m</w>
low ering</w>
jec tions</w>
inter -
imp licit</w>
hy per
friend ly</w>
fore seeable</w>
fal se</w>
fac to</w>
expor ters</w>
en force</w>
el u
dig nity</w>
den y</w>
defini tion</w>
convinc ing</w>
convin ce</w>
constra ined</w>
confi dent</w>
bah wa</w>
any where</w>
am in</w>
ag on
ac king</w>
Y el
T A</w>
P i
La w</w>
Har v
H IV</w>
G ol
Fran c
Con serv
C yprus</w>
C air
C C
B ill</w>
ह ी
wa ste</w>
ur ban
ul ly</w>
to x
th row</w>
tec h</w>
slow ing</w>
situ ations</w>
se es</w>
sco res</w>
re alized</w>
pr int</w>
peri ods</w>
motiv ated</w>
mem ory</w>
me tri
ma d</w>
logi sts</w>
li ve
li t</w>
l ap
je opar
inspi red</w>
in he
high- income</w>
high ligh
free- trade</w>
foun ded</w>
fis h</w>
fin e</w>
ffic e</w>
fam ously</w>
f ought</w>
f at
enthusi as
enrich ment</w>
el -
ef s</w>
dri ver</w>
dis proportion
dem ics</w>
d ging</w>
criter ia</w>
concent rated</w>
arch y</w>
affor dable</w>
W il
Mo di</w>
Ma o</w>
Hus sein</w>
Fran k
F u
Den g</w>
Co operation</w>
Ber nan
A lli
2 1</w>
न ि
क े
work force</w>
vis ited</w>
trib al</w>
tac tics</w>
t less</w>
se g
rein forced</w>
prison ers</w>
p ill
neg ar
natur ally</w>
marg in</w>
lo west</w>
l or
know ing</w>
jud ge</w>
inten se</w>
house -
ho pe
fundament als</w>
foot ball</w>
ex po
en acted</w>
de st</w>
d unia</w>
condi tional</w>
c ab
bene ficial</w>
attitu de</w>
adi ly</w>
Wh en</w>
Sen ate</w>
I P
Green span</w>
Fried man</w>
Cair o</w>
Bernan ke</w>
yi el
wh ite</w>
ur gently</w>
unil ateral</w>
u ght</w>
ten dency</w>
su icide</w>
ste adily</w>
sp il
sp ar
sel ection</w>
rou te</w>
ro ll</w>
rat ings</w>
or row</w>
o is</w>
middle- class</w>
l ash</w>
justi fied</w>
imp lied</w>
ili bri
ful fill</w>
follow ers</w>
fi red</w>
fem ale</w>
fac tion</w>
ear ned</w>
e ager</w>
dro pped</w>
critici zed</w>
commo dities</w>
che aper</w>
chann els</w>
bloo dy</w>
autonom y</w>
ap a</w>
alloc ation</w>
ai se</w>
ad just</w>
ad ic
ace u
ac knowledge</w>
a sive</w>
U N
Pri ze</w>
NP T</w>
I S</w>
F uk
C ity</w>
B oli
A si
20 50</w>
w ater
un willing</w>
u ms</w>
trans at
transat lantic</w>
ti me
thresh old</w>
ten ds</w>
teach ers</w>
tal king</w>
t down</w>
sha ped</w>
sh ore</w>
sexu al</w>
s ite</w>
ris es</w>
ri can
revi val</w>
rev ol
rejec tion</w>
re ject</w>
pec ts</w>
norm ally</w>
n ic
muc h-
marg inal</w>
lo ve</w>
legisl ative</w>
hal t</w>
gr and</w>
expla ins</w>
exce ed</w>
domin ate</w>
dis pos
den ied</w>
def ending</w>
de serve</w>
d is</w>
consider ations</w>
confron ting</w>
compon ents</w>
competi tors</w>
attitu des</w>
as pects</w>
ac le</w>
S an
Ro o
Oly mp
I m
Harv ard</w>
200 8-
wor l
wat ch</w>
wa ves</w>
v ent
urani um</w>
under -
un ch</w>
u pa
trans form
trage dy</w>
tempor arily</w>
te sting</w>
surve y</w>
sup ports</w>
stre et</w>
st one</w>
revi ve</w>
res h</w>
regul arly</w>
ref usal</w>
ran ks</w>
puni shment</w>
provi sions</w>
p t</w>
or gan
ni ght</w>
mar i
mach ines</w>
invol ves</w>
imp ris
im ages</w>
il es</w>
igh t
hop ed</w>
hol dings</w>
h our</w>
h a</w>
f light</w>
experi encing</w>
emphasi zed</w>
earth quake</w>
dio xide</w>
de al
de ad
d red</w>
contag ion</w>
consider ation</w>
conclu de</w>
ati sm</w>
arm ament</w>
a- negara</w>
West er
Sou theast</w>
S em
S ci
M illennium</w>
L is
K rug
I B</w>
Franc is</w>
Fran ç
E ar
Constitu tional</w>
C D
194 5</w>
w all</w>
up coming</w>
u ment</w>
ste ady</w>
stan tly</w>
staf f</w>
spe aking</w>
slow ed</w>
si l</w>
resid ents</w>
res ent
reali ties</w>
re sur
re sist
re pa
re ate</w>
r o</w>
po st</w>
pan ic</w>
ous ness</w>
or thodo
open ness</w>
on er</w>
obser ved</w>
ob se
negar a-negara</w>
mas sac
li fied</w>
kit a</w>
judic iary</w>
itu de</w>
is tics</w>
in sol
in et</w>
hun dred</w>
fri end</w>
follow s</w>
explic itly</w>
e g
dynam ism</w>
doub ts</w>
dis astr
dilem ma</w>
desper ate</w>
demonstr ations</w>
de voted</w>
compet ence</w>
compati ble</w>
cohe rent</w>
co de</w>
clas ses</w>
citiz en
charac ter</w>
c ell</w>
ba i
b ak
at ro
al i</w>
ag h
acu te</w>
a ren
Sin o-
Par k</w>
Leban ese</w>
Le ague</w>
Krug man</w>
Hung ary</w>
He alth</w>
G od</w>
C up</w>
Bro thers</w>
Au stri
Al g
2 3</w>
1 9</w>
x ity</w>
weak nesses</w>
volum e</w>
uni fied</w>
troub led</w>
t am
sh el
se at</w>
ri gi
refu se</w>
refl ecting</w>
recomm end
prevail ing</w>
over seas</w>
ou l</w>
o red</w>
min u
ment ary</w>
may be</w>
marri age</w>
mar ks</w>
mal aise</w>
low- income</w>
long- run</w>
li ers</w>
k no
k ar
invest or</w>
in spir
hosti le</w>
hor iz
head lines</w>
he dge</w>
green house-
gh t
forec ast</w>
f ellow</w>
expo sure</w>
estim ate</w>
er ror</w>
er adic
enter prise</w>
ent ry</w>
el ings</w>
dec re
de em
dar k</w>
con sent</w>
commit tee</w>
comm ent
car b
anticip ated</w>
ach ing</w>
Ric hard</w>
Nicol as</w>
M ario</w>
Israeli- Palestinian</w>
Iraq is</w>
F or</w>
E C</w>
Ch ri
A ben
त े</w>
wor ker</w>
underp in
under take</w>
tic les</w>
th- century</w>
stri king</w>
st ems</w>
rev olutions</w>
rel ying</w>
reduc es</w>
recei ving</w>
pla ys</w>
pla yer</w>
pharm aceu
per form</w>
optim istic</w>
on ia</w>
o ting</w>
no where</w>
no te</w>
ne ts</w>
n av
mach ine</w>
m as</w>
li ft</w>
jeopar di
isol ated</w>
integ rate</w>
infl ation-
ilibri um</w>
hosp it
hon or</w>
hi ke</w>
har m
half- century</w>
govern ed</w>
glob alized</w>
geo graph
g as
f ies</w>
f arm</w>
ex press</w>
ent ren
eng aging</w>
discus s</w>
den ing</w>
de sc
d ol
d ential</w>
comple ted</w>
com mon
cohe sion</w>
cho sen</w>
capit alist</w>
c ope</w>
bud ge
asy lum</w>
associ ation</w>
argu ably</w>
acc ession</w>
Tha k
Str ate
Shar on</w>
R ome</w>
P L
Me dic
Lis bon</w>
K i
Gre eks</w>
E U-
Ara fat</w>
Aben omics</w>
4 -
2 9</w>
2 -
1 ,
इ स
z o</w>
year- old</w>
well- being</w>
under way</w>
un rest</w>
tt om
trac ted</w>
tici sm</w>
ti k</w>
t ally</w>
stre t
st em
sovereign- debt</w>
sev elt</w>
se ize</w>
saf er</w>
s cri
ri vals</w>
reason ably</w>
re turning</w>
re form
r on</w>
r ally</w>
p al
ob tain</w>
minim ize</w>
kil ome
jo ining</w>
it i</w>
introduc tion</w>
ing k
inf ec
induc ed</w>
in security</w>
in cur
h ing
greenhouse- gas</w>
for d</w>
fe ature</w>
fe a
exclu sively</w>
displac ed</w>
contr action</w>
clin ical</w>
ca su
c amp
b ling</w>
ar sen
ar is
Ye ar</w>
Th ir
Roo sevelt</w>
R ou
L an
I F
D EL
Cu ba</w>
Con ference</w>
Belgi um</w>
199 0s</w>
ह ा
ल े
wor sen
with draw</w>
v is</w>
tor ture</w>
temper atures</w>
tal ent</w>
tack le</w>
surr ounding</w>
so oner</w>
si s-
rever sed</w>
pu rely</w>
per forming</w>
negoti ation</w>
mone tary-
mi x</w>
magn itude</w>
low er-
ke ley</w>
ir on
intro duce</w>
insur gency</w>
in effective</w>
im pover
i op
hist ori
h man</w>
forec asts</w>
figh ters</w>
f resh</w>
extremi st</w>
ev a</w>
entrepreneur s</w>
enjo yed</w>
con i</w>
communic ation</w>
co inci
char ged</w>
cha in</w>
buil dings</w>
ber g</w>
bail outs</w>
anxie ty</w>
an em
ag e-
ac commo
a uc
WW II</w>
Ti bet</w>
Thak sin</w>
Sun nis</w>
R a
Ker ry</w>
H I</w>
G s</w>
For um</w>
DEL HI</w>
D NA</w>
Ber keley</w>
र ो
tw are</w>
transpor tation</w>
tou gh
ti m</w>
the -
stra ight
schem es</w>
respec tively</w>
represent ation</w>
re r</w>
qu ick</w>
newsp aper</w>
mor tality</w>
min d
ma them
m ly</w>
k in</w>
immen se</w>
i a
he at</w>
experi ences</w>
exp licit</w>
ep i
energ y-
en ses</w>
emp i
embrac ed</w>
di d
defic i
dam aged</w>
cul tures</w>
concent ration</w>
conc essions</w>
civili zation</w>
ce as
c er</w>
c enter
blo c</w>
bi an</w>
air craft</w>
acknowle dged</w>
accep ting</w>
absor b</w>
Y a
Ukraini an</w>
St an
R en
P en
Le ad
Kur ds</w>
G rou
Franç ois</w>
Con vention</w>
C C</w>
A V
3 -
2 7
y n
v able</w>
un its</w>
ul tra-
toler ance</w>
sur face</w>
super vis
sof tware</w>
s wa
reli es</w>
re stored</w>
pre- crisis</w>
plau sible</w>
ori ous</w>
obstac le</w>
ob s
mo di
loc ked</w>
liber ty</w>
li c</w>
l us
integr ity</w>
i um</w>
ho u</w>
h ire</w>
gro ss</w>
gener als</w>
free- market</w>
fin ds</w>
fi x</w>
fashi on</w>
exist ential</w>
equ ilibrium</w>
dys functional</w>
dra ft</w>
dow ns</w>
destabili zing</w>
descri be</w>
dec lines</w>
de leg
de gra
constitu te</w>
bureaucr acy</w>
blam ed</w>
bas s
autom atic</w>
ari se</w>
anti- Sem
anim al</w>
W ar
Th at
Sa har
M D
I rish</w>
H u</w>
E mp
Chris tians</w>
B hu
Ar men
A m
6 .
. .
र ह
य ा</w>
भ ी</w>
un acceptable</w>
ul ed</w>
tom orrow</w>
tion -
th ering</w>
th en-
ter se
su it</w>
sta ke
st uck</w>
sec uring</w>
s wit
reg ain</w>
reci pi
prepar ing</w>
po wered</w>
par tial</w>
p in
p act</w>
loc au
locau st</w>
k el
ir relevant</w>
indic ates</w>
inde fin
he ar</w>
gen der</w>
enter ing</w>
eng ine</w>
end uring</w>
en th-century</w>
empha size</w>
em be
elimin ating</w>
electri c</w>
democr atization</w>
d ded</w>
cu se</w>
cooper ate</w>
colon ial</w>
collabor ation</w>
clo sing</w>
cho ol</w>
catastroph ic</w>
att acked</w>
asse ss</w>
arre sted</w>
anem ic</w>
ambi tion</w>
aggres sion</w>
advoc ate</w>
X ia
Wo ods</w>
S qu
Ni xon</w>
M ay
Le e</w>
Jin ping</w>
Iran ians</w>
Gen eva</w>
G- 8</w>
Fin ance</w>
D is
Cz ech</w>
Bre tton</w>
Ber lus
Al i</w>
AI DS</w>
199 5</w>
0 0
क र</w>
y ak</w>
w ou
vic tim</w>
ven cy</w>
tra ffic
the ore
t elling</w>
sym pa
sup ple
succ ession</w>
straight forward</w>
str ongest</w>
st un
specul ation</w>
soci alist</w>
sen ding</w>
sat elli
s ale</w>
rich est</w>
ri val
remo te</w>
regul ate</w>
rec ur
reb els</w>
re in</w>
priv atization</w>
pri de</w>
pri cing</w>
persi st</w>
offic ers</w>
nam ely</w>
militi as</w>
m ers</w>
lac king</w>
iron ically</w>
inter medi
inten tions</w>
initi ated</w>
incor por
inc umb
i red</w>
gu il
fr action</w>
fil m</w>
fi ve-
fea sible</w>
euro -
ent ation</w>
ed ge</w>
draw ing</w>
don or</w>
deem ed</w>
de v</w>
cred ited</w>
construc tive</w>
coll ateral</w>
cab inet</w>
bi as</w>
appear ance</w>
ag an</w>
accur ate</w>
accumul ation</w>
acceler ating</w>
ab und
Pow er</w>
P act</w>
Le hman</w>
Je an-
In stitute</w>
In de
Berlus coni</w>
1 ,000</w>
स म
ब ा
à -
z ones</w>
vo red</w>
vis -
ver n</w>
v an
un expected</w>
trium ph</w>
tra de-
the red</w>
tain s</w>
t ent
t arily</w>
stabili zing</w>
spir al</w>
sec ara</w>
ris m</w>
reve al</w>
re pay</w>
proble matic</w>
predec essors</w>
pre vention</w>
pre ferences</w>
post war</w>
pi vo
nor mali
n -
multin ational</w>
monetary- policy</w>
mo ther</w>
mis sions</w>
m ale</w>
lo v
life -
it ely</w>
inter n
indeb ted</w>
in tim
im plying</w>
illu str
ic ago</w>
ho li
hegem ony</w>
har sh</w>
h es
gra ve</w>
go vern</w>
go sla
gen ous</w>
foun ding</w>
exacerb ated</w>
er ring</w>
d ling</w>
cri sis-
co st-
cent ri
br in
borrow ed</w>
avo s</w>
as ci
appoin ted</w>
anti-Sem i
al ter</w>
al ah</w>
ag a</w>
Yu gosla
Shin zo</w>
Ho locaust</w>
Gre en</w>
Econom y</w>
Dra gh
DP J</w>
D avos</w>
Ch icago</w>
Ch ech
Cath oli
4 00</w>
2 ,000</w>
198 0s</w>
à- vis</w>
wel l
vis- à-vis</w>
ve to</w>
v il-
v ac
ung an</w>
understand able</w>
un conventional</w>
ti n</w>
terri ble</w>
tan cy</w>
success es</w>
sub stitu
spectac ular</w>
skep ticism</w>
sho t</w>
s our
s lu
ren der</w>
refl ection</w>
rec all</w>
re la
pu ty</w>
psycho logical</w>
prof essor</w>
preci pit
per v
parado x</w>
oun ced</w>
om ed</w>
mi red</w>
mel tdown</w>
medi um</w>
me a</w>
mathem ati
l eng
inter im</w>
instr ument</w>
inc ap
har us</w>
gra m</w>
g ni
fulfil ling</w>
frustr ation</w>
el derly</w>
distingu ish</w>
distinc tion</w>
discus sed</w>
dis coura
detail s</w>
deb tor</w>
dar ies</w>
connec tion</w>
comple xity</w>
com ed</w>
ci vil-
child hood</w>
chan nel</w>
ch ose</w>
cap tured</w>
c ens
ba i</w>
avail ability</w>
assum ptions</w>
a pe
T w
Squ are</w>
SD R</w>
Per u</w>
P u
I A
F TA</w>
Eth iop
Econom ics</w>
Dragh i</w>
Do ha</w>
Di rec
Cri mea</w>
Alli ance</w>
Ab dul
youn ger</w>
wi fe</w>
wel comed</w>
ve dev</w>
vacc ines</w>
ther ap
t ments</w>
star ts</w>
stabili zation</w>
sole ly</w>
ro les</w>
rein force</w>
promo ted</w>
produc es</w>
pro of</w>
prag matic</w>
post- crisis</w>
philosoph y</w>
pa ys</w>
p rou
no ti
newsp apers</w>
n an</w>
mitig ate</w>
mili tants</w>
lu x
leg ally</w>
l y-
justi fication</w>
ju ris
intere sting</w>
ill ness</w>
hospit als</w>
hel p
free ly</w>
fore most</w>
fla wed</w>
fl uc
fa vored</w>
exces sively</w>
ex agg
ex -
em ul
doub led</w>
disastr ous</w>
dis armament</w>
dic tion</w>
di re</w>
destro ying</w>
desper ately</w>
denom inated</w>
degre es</w>
connec tions</w>
co smo
co gni
co ast</w>
boun daries</w>
bor ne</w>
blin d</w>
b ought</w>
b low</w>
b acks</w>
appe aling</w>
aff lu
ach ed</w>
acceler ated</w>
W ol
T PP</w>
S C
Re present
Med vedev</w>
Indi ans</w>
I f</w>
Govern or</w>
Go als</w>
Fre e</w>
Cam bo
B en</w>
AI IB</w>
2008- 2009</w>
2 6</w>
196 7</w>
ि त</w>
treat ments</w>
tox ic</w>
ti ble</w>
tain ment</w>
stagn ant</w>
sp reading</w>
sol ving</w>
short fall</w>
schol ars</w>
safe guar
resp ected</w>
rein forcing</w>
ra in</w>
ple dged</w>
pharmaceu tical</w>
pat rio
parado x
oun d
oppos ing</w>
occur s</w>
oblig ation</w>
o logical</w>
neighbor hood</w>
mu tually</w>
mo od</w>
man eu
m ud
lo oming</w>
law yers</w>
inten tion</w>
insi sted</w>
indic ated</w>
in avi
imper f
im pression</w>
ho t</w>
ha bit
gran d
g ged</w>
fossi l-
for get</w>
fic ations</w>
fe ed</w>
explo it</w>
el ect</w>
ec ho
did n</w>
deter rence</w>
democr atically</w>
deli vering</w>
defl ationary</w>
crimin als</w>
contain ed</w>
condem ned</w>
con stantly</w>
con fin
cl er
citiz en</w>
ce iling</w>
cand inavi
campaig ns</w>
bil ls</w>
be have</w>
bb ed</w>
bag i</w>
au g
atten d</w>
asy m
as an</w>
an o
an ge
aff ecting</w>
administr ative</w>
acqu ire</w>
Z i
Sahar an</w>
S candinavi
Pro tocol</w>
O cean</w>
Nor way</w>
Ken ne
In du
Cor por
Braz ili
Ale x
य ह</w>
zer land</w>
wit zerland</w>
wat ers</w>
volun tary</w>
up ward</w>
underpin ned</w>
tre mend
tra p</w>
tra jec
ti l
ter ly</w>
te ams</w>
t ons</w>
sustain ing</w>
super power</w>
si de
short ages</w>
se x</w>
s cap
pul l</w>
prote sters</w>
profession als</w>
per formed</w>
over sight</w>
orig in</w>
n y</w>
lo gies</w>
k om
intellectu als</w>
insul a</w>
hor ri
govern or</w>
g lo
g ers</w>
fluc tu
fair ness</w>
f low
eth ics</w>
enti ve</w>
en ever</w>
emo tional</w>
elimin ated</w>
ef ully</w>
ec ture</w>
dis integration</w>
depen ding</w>
de leveraging</w>
d or
comparis on</w>
co ld</w>
citizen ship</w>
center -
cat aly
care er</w>
carb on-
c ard</w>
bureaucr ats</w>
budge tary</w>
bon d
benef iting</w>
autom atically</w>
ar ray</w>
ap ar
alle y</w>
ali en
ak ed</w>
adju st
ad vi
accor d</w>
abs ent</w>
a o</w>
W ith</w>
Tim es</w>
Sing h</w>
S witzerland</w>
Mor oc
M el
H os
F D
E bol
Bi g</w>
- of-
प र</w>
win ners</w>
wi dening</w>
wat ching</w>
urban ization</w>
tradi tions</w>
tra ders</w>
tr um
ta ke
t ably</w>
stic k</w>
short com
shortcom ings</w>
sett led</w>
require ment</w>
read s</w>
re ward</w>
prof itable</w>
pro voc
po ll</w>
ph ones</w>
pack ages</w>
p es</w>
or al</w>
optim ism</w>
offici ally</w>
ob serv
o m</w>
o cr
medium- term</w>
loc ation</w>
li ability</w>
lau reate</w>
is lands</w>
in vo
in disp
hosti lity</w>
high er-
han i</w>
g aps</w>
func tions</w>
fl ou
fe ared</w>
fac tory</w>
fac ility</w>
el ations</w>
e lev
doz ens</w>
distribu ted</w>
diagno sis</w>
di c</w>
detail ed</w>
dela yed</w>
cro p</w>
convic tion</w>
confir med</w>
compens ate</w>
choo sing</w>
break through</w>
bi d</w>
autom ob
as ks</w>
arch ing</w>
ad mit</w>
a stri
a p</w>
Vi en
M icro
K az
H u
H er
Grou p</w>
F ront</w>
7 .
5 ,000</w>
1 0
र ू
uni qu
un lea
un fair</w>
two- state</w>
tur bul
tre ating</w>
trans national</w>
tra um
tra in</w>
terse but</w>
tain ing</w>
t ext</w>
sp lit</w>
sol ved</w>
sign als</w>
short age</w>
se ttle</w>
se as
scand al</w>
s lum
requ est</w>
recogni zes</w>
rec o
rec apit
re move</w>
re mit
re fra
provin ce</w>
predec essor</w>
post- war</w>
physi ci
pas sing</w>
ou tra
op ing</w>
mo vi
minim al</w>
mid able</w>
medi an</w>
mea su
m us
loc ated</w>
k ings</w>
issu ing</w>
in spec
in hi
hy dro
han ded</w>
h iring</w>
g ases</w>
for midable</w>
for gotten</w>
fac tories</w>
exten ding</w>
expec tation</w>
equi pped</w>
en ko</w>
econom ic-
distinc t</w>
deliber ately</w>
defe ated</w>
declar ation</w>
conserv atives</w>
compar ative</w>
comp as
comment ators</w>
co vered</w>
co ast
clim ate-
centra lized</w>
cent r
calcul ations</w>
bureaucr atic</w>
bur st</w>
bond holders</w>
asp ect</w>
arti ficial</w>
app lies</w>
answ ers</w>
adop tion</w>
accord ingly</w>
a is
Yugosla via</w>
Yel t
Vien na</w>
V ic
T ony</w>
T a
S chool</w>
Gaz pro
G or
Ebol a</w>
Char les</w>
CE O</w>
C y
Boli via</w>
B o</w>
B a
Asi a-
Afric ans</w>
A g
199 4</w>
&apos; t</w>
ही ं</w>
य ा
न े
न ा
क ार
wh enever</w>
viol ations</w>
up gra
un predictable</w>
tur n
tra ined</w>
tiz ation</w>
t to</w>
t elec
suspici on</w>
sub- prime</w>
so aring</w>
skil l</w>
si gh
shrin king</w>
sh ut</w>
sh -
sacrific e</w>
restric ted</w>
resili ent</w>
re l</w>
re e</w>
re distribution</w>
re act</w>
pu m
pru dential</w>
populi sts</w>
paralle l</w>
over coming</w>
on y
ol er
negoti ators</w>
nam ed</w>
mari time</w>
loy alty</w>
li z
len der</w>
impover ished</w>
id es</w>
hat red</w>
g ol
g ate</w>
for ge</w>
fil led</w>
ff ic</w>
facilit ating</w>
exam ine</w>
er ial</w>
equi ties</w>
e lement</w>
du ty</w>
du bi
dist ance</w>
disp arities</w>
dimini shed</w>
determin ing</w>
den ial</w>
defa ults</w>
deep en</w>
dec l
d au
cyc les</w>
compli ance</w>
clas sic</w>
centr al-
cau tious</w>
car rying</w>
car ries</w>
bu yers</w>
bass ador</w>
ati vity</w>
arrang ement</w>
ar ticul
ar ticle</w>
ar rest</w>
appro xim
applic ation</w>
an ch
am id</w>
adjust ments</w>
acqui red</w>
accoun ted</w>
aband oning</w>
Yelt sin</w>
Wh at</w>
Thir d</w>
T here</w>
Se oul</w>
O ne</w>
O ffice</w>
L ast</w>
K e
J ong-
Gazpro m</w>
Cal der
C ro
As soci
र ी
त ा
wor thy</w>
valu e-
v acu
tra ffic</w>
tol l</w>
temper ature</w>
temp ted</w>
t ex
super -
stor m</w>
sing le-
sha ping</w>
sh r
safe guard</w>
sa ke</w>
rel ent
re forming</w>
re ference</w>
ra c</w>
po c
pi one
par ity</w>
par a
olu tion
mo on</w>
ministr y</w>
mi stak
lu sion</w>
kilome ters</w>
inter ference</w>
im balance</w>
ide lines</w>
hur t</w>
ham mad</w>
frequ ent</w>
form ally</w>
fore sts</w>
financi ally</w>
entren ched</w>
dro ve</w>
dis man
deb tors</w>
de pri
da h</w>
cooper ative</w>
control ling</w>
char is
cap ability</w>
bl un
balance- sheet</w>
astri ch
assa ult</w>
alloc ated</w>
alleg ed</w>
alle vi
ali ve</w>
advan cing</w>
adequ ately</w>
accumul ated</w>
That cher</w>
Pre mi
P ope</w>
Nor thern</w>
Micro soft</w>
Ma astrich
Kur dish</w>
Fuk ush
F oun
E A</w>
Catholi c</w>
C ap
Abdul lah</w>
ह ु
स क
vo ices</w>
vill ages</w>
vill age</w>
un ting</w>
tran sc
ti st</w>
the tic</w>
th rown</w>
te dness</w>
tary- General</w>
ta h</w>
sub stitute</w>
sub jects</w>
strugg les</w>
stoc k-
so ared</w>
si veness</w>
sem i-
se per
scienti st</w>
scar ce</w>
s lau
run -up</w>
rac ial</w>
ra w</w>
ra v
prof ession</w>
premi um</w>
prec au
periph eral</w>
pe tro
pas s
parliam ents</w>
off ensive</w>
monit or</w>
mid st</w>
lif f</w>
j a</w>
inten sity</w>
ing ent</w>
imp ul
high- quality</w>
hes it
haz ard</w>
gri p</w>
g ically</w>
fossil- fuel</w>
fi er
f laws</w>
export -led</w>
exper t</w>
eventu al</w>
er ously</w>
enti ty</w>
ens able</w>
embe dded</w>
dubi ous</w>
doub le-
dom s</w>
disproportion ate</w>
dimen sion</w>
di r
decl are</w>
de ple
de mise</w>
d ens</w>
coun tless</w>
contem pl
contain ment</w>
character istics</w>
camp s</w>
bo ards</w>
bar u</w>
at au</w>
ak er</w>
aggres sively</w>
ag ents</w>
V alley</w>
Secre tary-General</w>
S ad
Re agan</w>
Premi er</w>
O C</w>
NG Os</w>
Democr acy</w>
D om
Ci vi
Chri st
Chi rac</w>
र ि
न ी</w>
wor rying</w>
ve sted</w>
t z</w>
surpris ed</w>
superi or</w>
stat es
st ations</w>
skep tics</w>
sen tim
se st</w>
scap e</w>
resent ment</w>
reluc tance</w>
pu n</w>
prou d</w>
protection ist</w>
preced ent</w>
prac tically</w>
pp er</w>
plat forms</w>
pl as
percep tions</w>
over ly</w>
onom i</w>
o be
multil ater
mis sed</w>
mi xed</w>
lob b
lif ting</w>
it ability</w>
int oler
indic ation</w>
identi ties</w>
he igh
h in
gu idance</w>
fu r</w>
free ze</w>
fi re
f asci
exagg er
evol ved</w>
ent ra
electr onic</w>
e ps</w>
down side</w>
disp lay</w>
dis credited</w>
dis cre
dec reas
dang erously</w>
cul tiv
cru de</w>
consoli date</w>
com plac
cogni tive</w>
bul k</w>
bu ff
bre aks</w>
bom bs</w>
bo y
bo oming</w>
back lash</w>
b is
aw a</w>
aver aged</w>
at ri
arbit r
an alo
am end
al together</w>
We b</w>
Rec ession</w>
Pro gram</w>
O M
Maastrich t</w>
M ol
Li u</w>
I P</w>
G ates</w>
G NP</w>
Fukush ima</w>
Emp ire</w>
Ear th</w>
E l
D ay</w>
Associ ation</w>
Asia- Pacific</w>
A K
न ी
wo od</w>
win ner</w>
win dow</w>
war fare</w>
tra ded</w>
thous and</w>
th or
ter ing</w>
t ext
sugge sting</w>
subsequ ently</w>
st ain
so red</w>
so le</w>
so c
sec ul
sch ed
s le
repor ting</w>
reconc ile</w>
recommend ations</w>
reco vered</w>
ra se</w>
quali fied</w>
psycho logy</w>
prevail ed</w>
prev ail</w>
pp le</w>
post pon
populi sm</w>
plum me
pl y-
philos op
person nel</w>
perpe tu
op ho
o u</w>
multi p
min ish</w>
indisp ensable</w>
hur rican
hosp ital</w>
home owners</w>
head ing</w>
fore ver</w>
fo rest</w>
fir mly</w>
f ar
exter n
exc ell
ent ails</w>
engine ers</w>
doz en</w>
di minish</w>
deplo y
de ter</w>
d am</w>
cro ps</w>
conn ect</w>
cong ressional</w>
comfor t</w>
cha irman</w>
bur g</w>
bom bing</w>
bloo d
ba il</w>
b in</w>
asse t-
archit ecture</w>
activi st</w>
acci dent</w>
S tra
Os lo</w>
Lib yan</w>
L DP</w>
Ha iti</w>
Egyp tians</w>
Con sensus</w>
B agh
1 50</w>
1 00,000</w>
ु न
yat ol
whe reby</w>
un popular</w>
un known</w>
un ite</w>
tri gg
tremend ous</w>
trans l
tr um</w>
tou rism</w>
to s</w>
tion ality</w>
ti le</w>
temp tation</w>
tan ces</w>
surve ys</w>
supp liers</w>
sup ply-
sp ort</w>
soci ally</w>
sat u</w>
s a</w>
ri cal</w>
represent ing</w>
ref using</w>
recor ded</w>
re build</w>
re actions</w>
ran king</w>
ra id</w>
promo tion</w>
prob ability</w>
pro jections</w>
presum ably</w>
preser ving</w>
pr one</w>
ple dge</w>
pi ece</w>
peri o
pen ding</w>
o x
ne uro
nav al</w>
mis leading</w>
men y
lux ury</w>
liber als</w>
legisl ators</w>
le tting</w>
l ings</w>
incap able</w>
in sp
ill -
hon est</w>
hi kes</w>
gu er
grow s</w>
genu inely</w>
fo rese
fe els</w>
fe elings</w>
ex cess
ent -
encoura ges</w>
ek onomi</w>
distribu te</w>
distor tions</w>
dismis sed</w>
disco very</w>
differen tly</w>
differen ti
deplo yed</w>
dec entra
de pressed</w>
d led</w>
d ding</w>
d ad</w>
con vers
comp are</w>
comb ine</w>
collec tively</w>
bro ke</w>
bene fic
ben ch
audi ence</w>
at o
ari os</w>
appro aching</w>
alli ed</w>
adap tation</w>
ad he
Zi on
W en</w>
S an</w>
N o</w>
Mo ha
Mal i</w>
M un
Kaz akh
Indu stri
Hos ni</w>
Corpor ation</w>
Ch ief</w>
Calder ón</w>
Bel ar
Austri a</w>
A yatol
8 00</w>
199 3</w>
197 3</w>
1 0-
0. 5</w>
भ ा
न हीं</w>
work ing-
wor ries</w>
well being</w>
war ded</w>
vir tual</w>
tu i
trans forming</w>
trajec tory</w>
th al</w>
system atic</w>
symp tom
su s
st ro
spo ke</w>
soc cer</w>
sion ed</w>
see kers</w>
sc ore</w>
s wi
risk- taking</w>
rev olution
renew al</w>
remark ably</w>
reli ed</w>
re medi
re di
qui et</w>
quar ter-
qu es</w>
prohi bi
prev entive</w>
pot ent</w>
por tion</w>
poin ting</w>
pipel ine</w>
per mit</w>
p ron
p il
oun ce</w>
or dered</w>
occur ring</w>
o th</w>
no body</w>
mit ting</w>
mis guided</w>
min or</w>
mer it</w>
me tap
long- standing</w>
lo ts</w>
lo -
list en</w>
liqu id</w>
lif ted</w>
liber alism</w>
la id</w>
l uck</w>
ke eps</w>
ke en</w>
k an
insist ing</w>
influ enced</w>
in y
ignor ing</w>
high lights</w>
harm ful</w>
gu idelines</w>
grow th-
g n
fi res</w>
exten sion</w>
exce eds</w>
ex changes</w>
environment ally</w>
en ligh
emer ges</w>
e sts</w>
du p</w>
du k
direc tor</w>
depar ture</w>
def ensive</w>
deci sively</w>
de vices</w>
de ser
dat ory</w>
d rin
d ity</w>
cy ber
cre ativity</w>
contin ental</w>
con test</w>
compet ent</w>
com promises</w>
chec k</w>
ce re
cam p</w>
c liff</w>
bo x</w>
bio logical</w>
beli efs</w>
be at</w>
bak ar</w>
attrac ted</w>
ap plying</w>
ak in</w>
acc o</w>
V ol
P EC</w>
P A</w>
O n</w>
M ik
Kazakh stan</w>
Jo se
Is lands</w>
H en
G aul
Ethiop ia</w>
De b
D u
Comm unity</w>
Bal tic</w>
B un
ह ी</w>
ओ ं</w>
इ स</w>
zer o-
x ing</w>
writ e-
undermin es</w>
under stands</w>
under ground</w>
tri c
tra gic</w>
ti te</w>
ti ght</w>
ti de</w>
tari ffs</w>
ta o</w>
suc cum
st y</w>
st ages</w>
sk i</w>
seper ti</w>
sebag ai</w>
scru tiny</w>
scen arios</w>
rec essions</w>
re construction</w>
prof ile</w>
pro tracted</w>
post p
postp one</w>
posi t</w>
po ol</w>
para dig
os ity</w>
no tic
no table</w>
n avi
manufac tu
live li
jum lah</w>
ju an</w>
ir responsible</w>
int ent</w>
industri alization</w>
in ner</w>
in equ
im m
ig n</w>
highligh ted</w>
hi dden</w>
g rants</w>
fron tier</w>
fri c
for -
fin dings</w>
fi shing</w>
favor ite</w>
f ted</w>
experi ment</w>
excess es</w>
entit led</w>
enab les</w>
em ate</w>
dra g</w>
distur bing</w>
dis course</w>
de tec
de duc
d ying</w>
cr ack
consum e</w>
clo sest</w>
ch ur
categ ory</w>
bloc ked</w>
bio logy</w>
bel ong
be red</w>
bar gaining</w>
at kan</w>
applic ations</w>
an cy</w>
al- Qaeda</w>
afflu ent</w>
aff ects</w>
ad ults</w>
W TO</w>
Strate gy</w>
S pec
Rou hani</w>
Ro ad</w>
Moha med</w>
Mc C
M is
Lead er</w>
Lab or</w>
K G
Jose ph</w>
Fre e
Fo od</w>
E m
E N</w>
Cong ressional</w>
C lau
Bud d
Brazili an</w>
B an</w>
Ayatol lah</w>
Alg eria</w>
AK P</w>
A sians</w>
0 th</w>
कर ने</w>
we igh</w>
vent ure</w>
value- added</w>
v ar
u an</w>
u 00
trans late</w>
tough er</w>
ti ed</w>
the sis</w>
tel ah</w>
t abo
suff ers</w>
stor age</w>
stem ming</w>
st en
so il</w>
she er</w>
sh all</w>
separ ation</w>
se t
sched uled</w>
s log
rol l
reve als</w>
restra int</w>
respec tive</w>
res cu
repe at</w>
re treat</w>
provi ders</w>
prohi b
privile ged</w>
pres ti
pre tty</w>
portfoli o</w>
perpe tr
particip ating</w>
occa sion</w>
ni ti
negl ect</w>
m its</w>
m es
log ically</w>
liveli hoods</w>
lan ding</w>
intim id
inst inc
infec tious</w>
inc lined</w>
in y</w>
in puts</w>
impe de</w>
immig rant</w>
imag in
ignor ance</w>
i shing</w>
high- tech</w>
high- level</w>
help ful</w>
hab its</w>
gra vity</w>
frame works</w>
fra ud</w>
f li
f led</w>
expor ting</w>
exclu sive</w>
excep tions</w>
exacerb ate</w>
er i
el and</w>
e ast</w>
du al</w>
di ly</w>
demonstr ates</w>
deliber ate</w>
decre ase</w>
constitu tes</w>
con spir
coali tions</w>
chec ks</w>
cens orship</w>
cal m</w>
be half</w>
be aring</w>
bas es</w>
bar rel</w>
auth ors</w>
ati st</w>
accompli shed</w>
Soci alist</w>
R w
R u
Pre sid
Pan el</w>
O p
Mar ket</w>
M ac
M I
Liber al</w>
Kore ans</w>
J ames</w>
I niti
G ü
Foun dation</w>
E duc
Bagh dad</w>
5 0,000</w>
199 6</w>
ज ि
च ा
अ प
अ ध
ं त
war nings</w>
vi de
vast ly</w>
vacu um</w>
up hold</w>
up heav
un usual</w>
u00 27
u0027 s</w>
tre a
top -
to b
tob acco</w>
tech ni
tari ff</w>
sw ing</w>
st ar</w>
slum p</w>
six -
si z
sh ale</w>
scen e</w>
rio ts</w>
ri ad</w>
revi ved</w>
remin der</w>
ques tion
provin ces</w>
pro claimed</w>
prin ting</w>
pre mature</w>
pivo t</w>
per mitted</w>
pe red</w>
par at
overwhel m
overwhelm ingly</w>
ord on</w>
or an</w>
op ping</w>
ol ing</w>
noti ce</w>
non- proliferation</w>
nam es</w>
mun ici
massac re</w>
m al</w>
lo ose</w>
l l
ir rational</w>
indic ator</w>
incumb ent</w>
in direct</w>
in di
im minent</w>
hi de</w>
g ul
frustr ated</w>
five- year</w>
fi sh
fac tions</w>
f rac
exclu ded</w>
ex pe
ex cuse</w>
enthusias m</w>
emo tions</w>
e e
dri vers</w>
distr ust</w>
disrup tive</w>
dimini shing</w>
dict ators</w>
dep th</w>
custom s</w>
coun tr
corpor ate-
construc t</w>
collec tion</w>
ce d-
c on</w>
bur dens</w>
blow n</w>
behavi oral</w>
bas ket</w>
bar gain</w>
ath le
assum es</w>
aren a</w>
approxim ately</w>
ap parat
an nex
am ed</w>
ak ia</w>
ach ment</w>
acc us
Sy stem</w>
S tu
Re search</w>
R evolutionary</w>
N on-
N ep
Mun ich</w>
M anu
KG B</w>
K at
Initi ative</w>
G- 7</w>
G ordon</w>
G i
Euro zone</w>
Cambo dia</w>
B us
Ang lo-
Ab u</w>
A t</w>
6 5</w>
200 7-
1. 3</w>
िय ों</w>
प ा
त ी</w>
witne ssed</w>
win ds</w>
war ran
ver i
unilater ally</w>
un resolved</w>
un necessary</w>
un fol
to tali
ti tion</w>
ti a</w>
tel ls</w>
te ach</w>
tan ks</w>
tac tical</w>
ta ught</w>
stock- market</w>
ste el</w>
sta ur
sion ally</w>
sigh ted</w>
secu tive</w>
satis faction</w>
satelli te</w>
revi sed</w>
resist ant</w>
resi sted</w>
res ha
repor tedly</w>
remo ving</w>
remit tances</w>
reg re
recor ds</w>
recomm ended</w>
re wards</w>
re versal</w>
re staur
re actors</w>
preci se</w>
persi sts</w>
pan -
origin ally</w>
or ation</w>
ninete enth-century</w>
mi str
menj adi</w>
mem per
medium- size</w>
mean time</w>
man ship</w>
low- cost</w>
lov akia</w>
land scape</w>
it as</w>
invest ment-
insp ire</w>
inhe rent</w>
ine ffici
in tui
ili con</w>
hi j
har t</w>
ha ven</w>
gra v
gen e</w>
ga thering</w>
g al
fo ods</w>
fav ors</w>
f lu
explo sion</w>
expec tancy</w>
ero sion</w>
enti ties</w>
enti oned</w>
ec tly</w>
docum ented</w>
den ying</w>
da unting</w>
concei ved</w>
con secutive</w>
co erci
cle are
cl out</w>
civil- society</w>
chil l</w>
b our
b ic</w>
attribu ted</w>
att le</w>
asser t</w>
as sur
ar kan</w>
ar i</w>
ant agon
ang k
am an</w>
all ing</w>
al arming</w>
ak u</w>
ag grav
adver ti
ab e
a dian</w>
Ti bet
T Y</w>
T C</w>
S wis
S ilicon</w>
Rw anda</w>
Ri o</w>
PB OC</w>
Naz is</w>
Mol do
M i
Ku wait</w>
Jun cker</w>
Jin tao</w>
J acqu
IP CC</w>
I s</w>
Fu ture</w>
Fin land</w>
FS F</w>
F is
E ro
E M
Chur ch</w>
CI A</w>
Bos nia</w>
Bal k
B rown</w>
A th
1. 4</w>
worsen ing</w>
wa sted</w>
w ary</w>
vi br
val ence</w>
v ary</w>
un clear</w>
u pper</w>
tim ing</w>
the ories</w>
te enth</w>
t ling</w>
succ es
sub sid
stu died</w>
sp reads</w>
sig ning</w>
sha dow
sh al
satis fied</w>
s itting</w>
s ers</w>
ro bo
ri d
replac ing</w>
replac ement</w>
rein vigor
re building</w>
quarter- century</w>
quanti ties</w>
pu zz
provin cial</w>
promp ted</w>
prof itability</w>
pri ze</w>
prev ents</w>
posse ss</w>
pon ent</w>
plac ing</w>
philosop her</w>
pem ban
out siders</w>
om mun
ommun ic
occa sionally</w>
o tic</w>
neu tra
mind set</w>
mi sts</w>
mem ories</w>
medic ines</w>
me ga
k id
ir on</w>
interpre ted</w>
implic ation</w>
imp lo
ill ary</w>
id able</w>
horiz on</w>
he ating</w>
ha sil
ha il</w>
gam es</w>
g lu
fu tures</w>
fri gh
frag mented</w>
fortun ate</w>
foc uses</w>
ex hau
ent ail</w>
enligh tened</w>
end less</w>
embrac ing</w>
ec tive</w>
dur able</w>
do g
deli very</w>
dec ade
d ating</w>
cou pled</w>
constitu encies</w>
consci ous</w>
com prise</w>
cir cul
central- bank</w>
c tic</w>
bur ning</w>
brin k</w>
boo sted</w>
bit ter</w>
ben ign</w>
be au
ban ned</w>
bal lot</w>
author it
att acking</w>
atro cities</w>
asser tive</w>
ang ry</w>
an thro
ak i
ail ed</w>
advis ers</w>
a sus</w>
US- led</w>
S am
S A</w>
R onald</w>
P s</w>
M ur
L i</w>
K h
Jacqu es</w>
H i
F ir
Euro bonds</w>
E uro</w>
E ur
E s</w>
E d
Direc tor</w>
D onald</w>
C auc
Bun des
Balk ans</w>
B or
A ge</w>
8 5</w>
8 .
ह ो</w>
का र</w>
z e
vie wing</w>
vibr ant</w>
v y</w>
upgra ding</w>
und its</w>
un anim
um bai</w>
trans mission</w>
toler ate</w>
thir d-
th ou
t asks</w>
susp ect</w>
su its</w>
statis tical</w>
stal emate</w>
st ressed</w>
st ate
specul ators</w>
shrin k</w>
sec uri
satis fy</w>
s or
s ke
rout ine</w>
res our
relev ance</w>
regar ds</w>
re mind</w>
ran k</w>
ra il
r ush</w>
per secu
paraly sis</w>
p ound</w>
p emer
over throw</w>
orig ins</w>
oli g
ol d-
ob ject</w>
o v</w>
non- state</w>
no vel</w>
ner v
n as
multilater alism</w>
mu sic</w>
ment ation</w>
marke ting</w>
maintain s</w>
lever aged</w>
le tter</w>
laun ching</w>
k it</w>
inter act</w>
inher ited</w>
inflic ted</w>
inequ alities</w>
indi genous</w>
in directly</w>
hi er
he ight</w>
han g</w>
ha w
gi ous</w>
ge st
formul a</w>
financial- market</w>
f ed</w>
experim ents</w>
exp ects</w>
episo de</w>
endor sed</w>
en su
en e
dist ress</w>
diff er</w>
devi se</w>
deploy ment</w>
depen dency</w>
defin ing</w>
de dic
cu ri
cro ss</w>
cri p
continu ous</w>
co c
cli ents</w>
clar i
ch ess</w>
cent ered</w>
casu alties</w>
bio diversity</w>
be ings</w>
assassin ation</w>
arbitr ary</w>
appe tite</w>
ann ya</w>
ail ing</w>
advoc ated</w>
ad alah</w>
acc es
a ya</w>
War saw</w>
Su u</w>
Su stain
Sci ence</w>
S el
P A
O x
Moroc co</w>
McC ain</w>
M umbai</w>
Ky i</w>
Industri al</w>
H illary</w>
H AV
HAV EN</w>
Gol d
Free dom</w>
Frank lin</w>
Educ ation</w>
Dar fur</w>
Clau de</w>
Cauc asus</w>
C ur
Ara b-
0 0-
with standing</w>
vers y</w>
v ague</w>
upa ya</w>
un realistic</w>
um i</w>
u li
traffic king</w>
through s</w>
theore tical</w>
th row
ter ha
terha da
terhada p</w>
telec ommunic
tax -
t u</w>
t els</w>
symptom s</w>
sup pose</w>
succes sive</w>
sub ordin
su k
strate gically</w>
star k</w>
stake holders</w>
slu gg
slugg ish</w>
sil ent</w>
sil ence</w>
secu red</w>
se y</w>
sco red</w>
s ounds</w>
reform ers</w>
ration ale</w>
ra mp
ra m
process ing</w>
poli tik</w>
pois ed</w>
pic k</w>
physi cs</w>
pemer in
pat ri
out break</w>
oper ational</w>
on ment</w>
mor ally</w>
maxim ize</w>
mar ine</w>
m ess</w>
lin ers</w>
li zation</w>
k u
inv ited</w>
introduc ing</w>
insi ght</w>
inflation- adjusted</w>
indefin itely</w>
in ju
in e-
impor ted</w>
ic h
ic a</w>
i ties</w>
forec ast
fe es</w>
fa i
f ab
exclu sion</w>
et c</w>
er ies</w>
epi demic</w>
empi rical</w>
embar ra
e at</w>
dist ressed</w>
disrup tions</w>
dispu ted</w>
dis courage</w>
dic t</w>
depos itors</w>
degra dation</w>
de puty</w>
cur b</w>
crack down</w>
cosmo poli
contro versy</w>
cont ex
concei vable</w>
con siders</w>
commis sion</w>
cat ch</w>
c le</w>
bl ack
balance- of-
avo idable</w>
at a</w>
at -
an j
an e
adv ent
ac commod
a than</w>
Tran s-
Te h
Swis s</w>
Swe dish</w>
S ur
S econ
Man de
J P
H el
Govern ment</w>
Gaul le</w>
Ero pa</w>
E FSF</w>
De al</w>
C B
Bus iness</w>
Bundes bank</w>
Australi an</w>
6 -
201 6</w>
197 1</w>
क ो
yiel ding</w>
wat ched</w>
warran ted</w>
ve y</w>
uni verse</w>
uni sts</w>
ug o</w>
tra pped</w>
thin kers</w>
ter min
t ang
susp ended</w>
sum ber</w>
stor ms</w>
spon s
spec trum</w>
soci o
skep tical</w>
sk y
shal e-
sentim ents</w>
scen es</w>
scand als</w>
s tically</w>
rout inely</w>
ro ad
revi ving</w>
recor d-
reck less</w>
re alism</w>
radic ally</w>
r .</w>
pun ish</w>
prec eded</w>
perv asive</w>
pen e
p ar</w>
optim al</w>
ony m
o ve
no -
nati ve</w>
mono poli
mobili zed</w>
mit h</w>
mir acle</w>
mat urity</w>
life time</w>
li stic</w>
jiha di
inv ari
invari ably</w>
inter action</w>
illu sion</w>
histori ans</w>
high light</w>
health ier</w>
he v</w>
h il
h ang
gu es</w>
gr ant</w>
foun der</w>
fin ished</w>
fa st-
exten ds</w>
excep tional</w>
evalu ate</w>
ero ded</w>
episo des</w>
emis sion</w>
dr one</w>
disco ver</w>
dis appear</w>
demo graph
declar ing</w>
counter productive</w>
coun ts</w>
conveni ent</w>
consi sts</w>
concep ts</w>
clas h</w>
chem ic
champi on</w>
ceas e
bur dened</w>
bri ef</w>
break throughs</w>
ber apa</w>
be ars</w>
ban g</w>
b ar</w>
as ing</w>
arsen al</w>
ar d
an e</w>
alter ing</w>
al an</w>
aff lic
ad mitted</w>
accumul ate</w>
a x
Venezu el
Tw o</w>
Teh ran</w>
Scot tish</w>
Sau dis</w>
S ri</w>
S mith</w>
O SC
L at
IS IS</w>
IA EA</w>
Hen ry</w>
Gu ard</w>
For ces</w>
Chur chill</w>
Ch en</w>
Af ter</w>
A tom
9 -
3. 5</w>
3 8</w>
3 1</w>
2 50</w>
1 20</w>
प ू
y ch</w>
war m</w>
vern ight</w>
v il
un limited</w>
un intended</w>
un -
ul a</w>
twenty- first-
twenty-first- century</w>
troub les</w>
tro ika</w>
to- GDP</w>
th r
t ful</w>
symbo lic</w>
symbo l</w>
su g
str ang
spur red</w>
spon sored</w>
sig nat
sho p</w>
sh at
sent ence</w>
se ized</w>
scre ening</w>
regul ating</w>
re tali
quanti ty</w>
progra m
pro xy</w>
pro pose</w>
predic tions</w>
pl agu
ph rase</w>
percei ve</w>
pemerin tah</w>
paradig m</w>
p ure</w>
p undits</w>
od ds</w>
o vernight</w>
o cean</w>
ni ght
natur al-
my riad</w>
mor ality</w>
moder ates</w>
minist ries</w>
mili tarily</w>
mil es</w>
metri c</w>
meth od</w>
me ters</w>
maxim um</w>
l as
kov ych</w>
k ok</w>
ji ang</w>
iz es</w>
ir i</w>
iny amin</w>
imperf ect</w>
im pa
im mun
hear ts</w>
har b
gri ev
gradu ates</w>
ge dly</w>
gas ol
financial- sector</w>
feder ation</w>
fe t
f ty</w>
ex or
euro s</w>
es p
ero de</w>
envi s
emul ate</w>
em bo
effici ently</w>
dispos al</w>
disappoin ting</w>
dis content</w>
di abe
dec ent</w>
de regulation</w>
de posit</w>
de adly</w>
cy nical</w>
cu ment</w>
contain s</w>
condi tionality</w>
con qu
communic ate</w>
comb ating</w>
com position</w>
colle ge</w>
cere mon
car ds</w>
calcul ation</w>
br and</w>
bo oms</w>
be tra
bac hev</w>
autocr atic</w>
attrac ting</w>
assess ing</w>
ass embly</w>
ass emb
ari ans</w>
anu kovych</w>
an ya</w>
ambigu ous</w>
alle gedly</w>
ak ukan</w>
agend as</w>
aff air</w>
addres ses</w>
acqui si
accompli sh</w>
accommo date</w>
a ha
Z hou</w>
Z e
Y anukovych</w>
X in
V ik
Te a</w>
Spec ial</w>
Sen ator</w>
Secon d</w>
S pe
Ro yal</w>
Pro liferation</w>
Poli tical</w>
Olymp ic</w>
Nep al</w>
Moldo va</w>
Medic are</w>
L e</w>
I II</w>
H igh</w>
Gor bachev</w>
Fir st</w>
Conserv ative</w>
CC P</w>
Ban king</w>
B inyamin</w>
Atom ic</w>
Ac cor
4 4</w>
3 0-
1. 2</w>
स ी</w>
ल े</w>
त ि
w ins</w>
v or
ur ged</w>
u h</w>
tigh ter</w>
th in</w>
ter y</w>
ten tion</w>
telecommunic ations</w>
technocr ats</w>
swa p</w>
st alled</w>
squ ee
spec ter</w>
shou l
sel ama</w>
se l</w>
sa vers</w>
rigi d</w>
rev elations</w>
res olutions</w>
repres sive</w>
remo val</w>
read y-
produc er</w>
proce ed</w>
precau tionary</w>
out set</w>
ob sole
nuclear- armed</w>
not withstanding</w>
no tes</w>
nation alists</w>
n it
n ard</w>
mo squ
mis ery</w>
mi st</w>
market- based</w>
margin alized</w>
manufactu rers</w>
maneu ver</w>
le thal</w>
le ash</w>
lar ation</w>
lac ked</w>
l uc
kil lings</w>
ju ga</w>
j an</w>
insi ghts</w>
inc ar
in hart</w>
gun an</w>
fluctu ations</w>
flo ating</w>
expor ter</w>
ex pres
evi dently</w>
ess ence</w>
enti ous</w>
enti on
en ly</w>
em powered</w>
em or
ec u
e le
du bbed</w>
doub ling</w>
divi den
dividen ds</w>
dis ruption</w>
dict ator</w>
der -
den ce-
cul min
crow d</w>
coordin ate</w>
construc ted</w>
compla ints</w>
co vering</w>
cal am
c ited</w>
c ali
ban d
b les</w>
b led</w>
and hi</w>
am m
alig ned</w>
aff ili
ad here</w>
acces sible</w>
ab sur
ab duc
Xia oping</w>
W at
Vik tor</w>
The y</w>
Tha i</w>
Su b-
Rus si
Re inhart</w>
Re form</w>
OSC E</w>
N TC</w>
Mik hail</w>
Mic ha
Lan ka</w>
Jean- Claude</w>
H ugo</w>
G andhi</w>
F ac
Dec laration</w>
Belar us</w>
B eng
An d</w>
Al an</w>
Ad ministr
A ff
2 ,
1. 8</w>
- minded</w>
द ा
á nam
ánam o</w>
z en</w>
wor sen</w>
vi ron
var ying</w>
vacc ine</w>
v es
under taking</w>
un al</w>
ty ran
to tally</w>
tis su
ti e</w>
thin ks</w>
teach ing</w>
te en</w>
system atically</w>
subsidi zed</w>
su mer
strugg led</w>
str ange</w>
stimul ating</w>
spo ken</w>
soci alism</w>
smo oth</w>
sli de</w>
sil ver</w>
si ck</w>
ri ched</w>
respon sive</w>
resp ects</w>
reason ing</w>
rea dily</w>
re alization</w>
re acted</w>
ramp ant</w>
psy chi
pro xim
prag m
pos sibilities</w>
perman ently</w>
perf ectly</w>
pas sive</w>
par a</w>
pa tho
p emb
over looked</w>
out sour
ordin arily</w>
or ships</w>
offic es</w>
o sten
nor m</w>
much- needed</w>
mom ents</w>
mistr ust</w>
mis s</w>
mini stered</w>
militi a</w>
mili tari
metap h
me t
mas ses</w>
mar ch</w>
ma il</w>
m are</w>
loc ations</w>
lic ate</w>
la ying</w>
k ly</w>
it u</w>
is n</w>
intensi fied</w>
insist ence</w>
indu ce</w>
inci dent</w>
in complete</w>
in action</w>
i aries</w>
humili ation</w>
hing ga</w>
heigh tened</w>
ha ir
fundament alists</w>
free doms</w>
fortun e</w>
fo sil</w>
flo od</w>
fall out</w>
exemp lified</w>
exagger ated</w>
ex hi
evol ving</w>
er ian</w>
eng ines</w>
en sures</w>
en riched</w>
en forced</w>
emp ty</w>
do ors</w>
distor ted</w>
disp er
dis agreements</w>
dictat orships</w>
di per
destabili ze</w>
deal t</w>
de k
correc tly</w>
correc tion</w>
confin ed</w>
collap sing</w>
clo sure</w>
climate- change</w>
cha ir</w>
certain ties</w>
cele b
bre ast</w>
be st-
be berapa</w>
bank rupt</w>
aver t</w>
ast y</w>
appoin tment</w>
ant ánamo</w>
amoun ted</w>
af raid</w>
Trans- Pacific</w>
Ti an
T ru
T o</w>
T el</w>
Sustain able</w>
Sub- Saharan</w>
So li
S R</w>
Mor gan</w>
Mil ton</w>
Micha el</w>
Mar x
Manu el</w>
La den</w>
K ho
Inde x</w>
H ist
Gu antánamo</w>
G han
FD I</w>
F ra
En viron
D am
Ath ens</w>
Amer ika</w>
9 .
3 9</w>
3 ,000</w>
198 1</w>
19 14</w>
म ि
y ans</w>
wr ong
win ter</w>
w re
vi rus</w>
vi c</w>
ver ies</w>
valu ations</w>
unlea shed</w>
un willingness</w>
u red</w>
trigg ering</w>
tra its</w>
th ly</w>
technocr atic</w>
sur render</w>
sup press</w>
stop ping</w>
safe ly</w>
s ons</w>
rel ation</w>
reig ns</w>
refra in</w>
re unification</w>
re tro
re affir
re actor</w>
r ors</w>
ques tioned</w>
qu o
qu ie
propos ing</w>
pre judic
popul ated</w>
polar ization</w>
pill ar</w>
per or</w>
pe st</w>
par ticles</w>
pan el</w>
ow e</w>
out standing</w>
out flows</w>
osten sibly</w>
off shore</w>
obli ged</w>
n ou
n ai
motiv ation</w>
moder nity</w>
mo tives</w>
mo tion</w>
materi alize</w>
man datory</w>
liter ally</w>
lef t-wing</w>
k en
it ems</w>
is ed</w>
investig ation</w>
inv ented</w>
inter rup
insol vent</w>
industri alized</w>
imp as
imag ined</w>
imag ination</w>
illi ber
gre ed</w>
gra ss
gra sp</w>
gr ound
go ff</w>
g -
fu se</w>
floo ds</w>
fan ati
facilit ated</w>
f ly</w>
f it
explo sive</w>
exhau sted</w>
end ants</w>
en ters</w>
employe e</w>
emplo y</w>
em power</w>
elu sive</w>
eco logical</w>
ear ning</w>
e ption</w>
domes tically</w>
do cument</w>
dis gu
dir ty</w>
dig it</w>
deplo y</w>
demonstr ating</w>
deci ding</w>
de serves</w>
cum ul
critici ze</w>
cris y</w>
cor ner</w>
consum ed</w>
conclu sions</w>
co al-
civi c</w>
bu at</w>
bri lli
break down</w>
bloc king</w>
benefic iaries</w>
believ ing</w>
at om
ar rog
an ce
al ready-
al co
ag ers</w>
advis er</w>
advan ced-
ad ministered</w>
accur ately</w>
aca demics</w>
Th at</w>
Sum mers</w>
Soli darity</w>
Ro goff</w>
PL O</w>
Nor theast</w>
Non- Proliferation</w>
Mon ti</w>
Mo vement</w>
MD Gs</w>
M ag
Liber ation</w>
L ula</w>
F er
Eur a
D re
C F
Bhu tto</w>
Administr ation</w>
A zer
197 0s</w>
0. 7</w>
.. .</w>
- to-
- 2.
ो ं
वा स</w>
ल ा</w>
रू प</w>
त ि</w>
writ er</w>
wit ness</w>
w ak
vo ter</w>
viol ated</w>
vig il
vi vi
ur ation</w>
turn out</w>
therap y</w>
ten ded</w>
tan gible</w>
swe pt</w>
su spec
st on</w>
squ are</w>
spe ech
some where</w>
share holder</w>
see ds</w>
sal aries</w>
rou ghts</w>
ro oms</w>
restric t</w>
res on
requ is
ren dered</w>
reg ain
reb elli
re think</w>
re me
re bel</w>
rap pro
rappro ch
rapproch ement</w>
pro pri
priv ati
poc kets</w>
plur alism</w>
pi ec
per mits</w>
pen alties</w>
pe as
p lot</w>
out la
ori entation</w>
obsole te</w>
o ch
o ce
neu tr
movi e</w>
mo thers</w>
mi x
me at</w>
marg ins</w>
manag eable</w>
mag az
long standing</w>
lo sers</w>
lin king</w>
le m
langu ages</w>
labor- intensive</w>
l ack
k able</w>
j akan</w>
it ous</w>
it ement</w>
inv ent
intensi fying</w>
in qu
in difference</w>
in com
incom e-
impe di
imp unity</w>
immun e</w>
ik at</w>
ide als</w>
hegem onic</w>
han dle</w>
fundament alist</w>
frag mentation</w>
fra structure</w>
for th</w>
fl ag
fic ially</w>
fe et</w>
fe ed
explo ited</w>
explo itation</w>
exist ed</w>
exerci ses</w>
es tion</w>
entrepreneur ship</w>
enti als</w>
ent e
ecu tive</w>
docum ents</w>
desp air</w>
demonstr ation</w>
deb ated</w>
d roughts</w>
d rought</w>
contribu tes</w>
cont entious</w>
concent rate</w>
comple mentary</w>
comp elled</w>
commit ting</w>
che str
cease fire</w>
capit als</w>
business men</w>
bu l</w>
blu e
bi partisan</w>
bi o-
bel ong</w>
ban ker</w>
ba si
ari anism</w>
appe als</w>
apparat us</w>
an men</w>
am bassador</w>
alig n</w>
adverti sing</w>
absolu tely</w>
ab y
ab str
Tian anmen</w>
T ay
T am
Sou thern</w>
Sin ai</w>
Shi ite</w>
S to
Pen insula</w>
O ttom
N a
Mar tin</w>
In frastructure</w>
I R
H or
Ex ecutive</w>
En d</w>
Comm un
Char ter</w>
Can adian</w>
B ay</w>
B ah
B C</w>
An nan</w>
A ir
4 8</w>
- seekers</w>
श ा
ज ी
क ी
ye k</w>
wor th
wo es</w>
witne ssing</w>
well- known</w>
war d-
w are</w>
vi o</w>
under taken</w>
um ental</w>
transi tions</w>
tou ch</w>
ten -year</w>
t ab
swit ch</w>
sus cep
sub stance</w>
stra in</w>
stoc k
st ors</w>
st ars</w>
spe aks</w>
sp in</w>
sp ends</w>
sm ugg
si ded</w>
sh ments</w>
sel ected</w>
seem ing</w>
se j
rival ry</w>
rich et</w>
restor ation</w>
res ses</w>
res or
recei ves</w>
re tren
re sts</w>
re payment</w>
re financing</w>
re fin
re al
radi o</w>
question able</w>
pru dent</w>
provo ked</w>
promo tes</w>
pro ving</w>
pro ponents</w>
presti ge</w>
posi tioned</w>
portfoli os</w>
persist ently</w>
peac efully</w>
paradox ically</w>
p ac
ow s</w>
or chestr
op ponent</w>
on a</w>
necess ity</w>
na sional</w>
n ically</w>
mon thly</w>
moderni ze</w>
mig rant</w>
mer its</w>
mem ili
li kes</w>
lab or
l ou
ji had</w>
inter dependence</w>
inter connected</w>
inter actions</w>
integr ating</w>
insur g
insurg ents</w>
inst all
inspir ation</w>
inci dents</w>
in su
in justice</w>
in gh
il ai</w>
hop ing</w>
ho stage</w>
ho ly</w>
her o</w>
hasil kan</w>
hand ful</w>
guer ri
gri m</w>
ga ther</w>
fron t-
for th
fa ult</w>
execu ted</w>
excell ent</w>
ex pressing</w>
ex as</w>
evol ve</w>
en shr
em in
dro pping</w>
domin ation</w>
do omed</w>
dis orders</w>
diabe tes</w>
deterior ation</w>
den cies</w>
decentra lized</w>
de v
dau ghter</w>
coun ted</w>
consum ing</w>
conflic ting</w>
con sumer
compla ined</w>
comp rising</w>
classi cal</w>
clar ity</w>
civili zed</w>
cat ch
broad band</w>
bran ch</w>
bom b
bis a</w>
be sides</w>
batt le
b ent</w>
auth or</w>
asy lum
ast on
as por
arri val</w>
ap point</w>
am mar</w>
ad ult</w>
ad ds</w>
acci dents</w>
ab i
W i
Tibet an</w>
Th om
T u
T richet</w>
T exas</w>
Sun ni
Ser ikat</w>
S he
P la
Os ama</w>
O ld</w>
O PEC</w>
Mu ammar</w>
M ili
M echan
L im
L en
K ash
Fran k</w>
Ex change</w>
Del hi</w>
Deb t</w>
D ru
Civi l</w>
B ul
Armen ia</w>
Argent ine</w>
7 00</w>
20 -
197 2</w>
िय ा
वि का
त र
z ations</w>
z ai</w>
worl d-
wit z</w>
we b</w>
viol ation</w>
vers aries</w>
up rising</w>
uni vers
underestim ated</w>
under going</w>
u ble</w>
ter j
ten -
techni ques</w>
tap i</w>
t ating</w>
suspec ted</w>
supply- side</w>
su ms</w>
sti g
spo ts</w>
speech es</w>
sign aled</w>
sel ect</w>
se arching</w>
s am
ru th
rever sible</w>
resour ce-
repa ir</w>
relent less</w>
reach es</w>
re a</w>
publi sh</w>
priv acy</w>
prevail s</w>
pre occupied</w>
pre ference</w>
pic ked</w>
perpetr ators</w>
pen alty</w>
p light</w>
p age</w>
p -
outra ge</w>
orthodo xy</w>
organiz e</w>
opini ons</w>
obs cure</w>
nur ture</w>
notic ed</w>
night mare</w>
mortg age-
min e</w>
min al</w>
mili tant</w>
men ingk
mal nutrition</w>
luc ky</w>
logi st</w>
lo wered</w>
lo ved</w>
ling u
lif y</w>
liber ties</w>
lea sure</w>
le um</w>
k aku</w>
interpre t</w>
intern ally</w>
intelli gent</w>
ini stry</w>
indeb tedness</w>
incre mental</w>
in j
in competence</w>
in ations</w>
illiber al</w>
illi on
i ghts</w>
hun gr
hungr y</w>
he l</w>
han ya</w>
gradu ate</w>
go od
gasol ine</w>
for gi
fle dged</w>
fl ation</w>
feed back</w>
far- right</w>
f ting</w>
export -
escal ating</w>
entreprene uri
elimin ation</w>
du ties</w>
do g</w>
dis rupt</w>
dis count</w>
dis appeared</w>
dis agreement</w>
di et</w>
di am
dest iny</w>
def en
de vote</w>
de tention</w>
cul ar</w>
cru m
crow ds</w>
credit -
countr y
coun tered</w>
contain ing</w>
cont act</w>
conserv ation</w>
complac ency</w>
comp act</w>
commer ce</w>
comm ents</w>
cleare r</w>
centri st</w>
ca p</w>
bro ker</w>
bri dges</w>
break up</w>
bl at
batt les</w>
balance-of- payments</w>
aw ak
attr action</w>
asylum -seekers</w>
as sured</w>
arri ved</w>
arri ve</w>
appreci ated</w>
appe aring</w>
anx ious</w>
acknowle dging</w>
ach s</w>
ab ad</w>
Xin jiang</w>
Th ree</w>
Taiw anese</w>
St at
S O
Represent atives</w>
R is
Or thodo
Mande la</w>
M inistry</w>
Kenne dy</w>
K ir
I cel
I C</w>
Ghan a</w>
G il
G am
C apit
Bas el</w>
Aff airs</w>
9 5</w>
6 00</w>
3 6</w>
3 4</w>
196 8</w>
1. 1</w>
1 5-
- denominated</w>
ल ो
ल ग
दे श
थ ा</w>
ं ग
wou ldn</w>
worl ds</w>
wor ris
wil l
wi shes</w>
weak ens</w>
ve ge
understand ably</w>
under scores</w>
un changed</w>
twent y</w>
tru sted</w>
tow ns</w>
tou ri
top ic</w>
ti mely</w>
ti ful</w>
three- quarters</w>
ten ance</w>
te es</w>
t ables</w>
supervis ory</w>
sup pression</w>
subsidi aries</w>
sto res</w>
state hood</w>
stan do
smo king</w>
si zed</w>
si us</w>
self- interest</w>
safeguar ds</w>
s burg</w>
s ab
ri c
revol t</w>
resum e</w>
restric ting</w>
ref erred</w>
recover ing</w>
reas suring</w>
re jects</w>
ran dom
radic als</w>
preci ous</w>
power ment</w>
post- Soviet</w>
pipel ines</w>
paraly zed</w>
orthodo x</w>
or ous</w>
off s</w>
oce ans</w>
o v
neutr al</w>
mu tu
minu tes</w>
main land</w>
lin ing</w>
liber ation</w>
less er</w>
juris diction</w>
jo in
it ations</w>
invest asi</w>
insi sts</w>
ini st</w>
inf ected</w>
ind u</w>
in tru
in tra-
in struc
in stance</w>
id en
hy bri
hom eland</w>
ha m</w>
glo be</w>
gi an</w>
g ue</w>
g er
g ans</w>
fu ci
for ce
fo o
fe ld</w>
fe ar
fat al</w>
euro- zone</w>
entrepreneuri al</w>
entit lement</w>
enjo ying</w>
en sion</w>
en du
endu red</w>
em powerment</w>
em it
e ted</w>
du ci
devi sed</w>
dest ination</w>
desig n
deri ved</w>
demonstr ators</w>
defe ating</w>
debt- to-GDP</w>
d ry</w>
cu shi
corporate- tax</w>
conduc ting</w>
cle ar
cau tion</w>
c ite</w>
c ements</w>
bur ned</w>
boy cot
bench mark</w>
be ar
b y-
b less
assi st</w>
assess ments</w>
ari ous</w>
ari b
anti-Semi tism</w>
alloc ate</w>
adap ted</w>
ac ious</w>
a b</w>
Y ou</w>
Wester n-
Vol cker</w>
Sil vio</w>
SD R
S achs</w>
S W
Re port</w>
R ound</w>
R M
Pro tec
No w</w>
Mil o
Mil an</w>
Mechan ism</w>
Ma o
H ome</w>
H indu</w>
Fac ility</w>
D il
Con fuci
Chech nya</w>
Ch il
Ch all
C ul
Bud get</w>
Bah rain</w>
Arab- Israeli</w>
Anglo- Sa
A ll</w>
3. 2</w>
. e
- 0.
र े
द ी</w>
थ ा
ए क</w>
z h
x it</w>
worris ome</w>
with stand</w>
wit ter</w>
vulner abilities</w>
vis iting</w>
vie w
vi an</w>
vehic le</w>
ve ter
ve iled</w>
vali d</w>
ut terly</w>
use less</w>
up side</w>
underestim ate</w>
un thin
turbul ence</w>
tri vi
trea sury</w>
tr action</w>
totali tarian</w>
thri ving</w>
th war
ter o
te l</w>
t place</w>
t ational</w>
sympa thy</w>
survi ved</w>
success ors</w>
subsid y</w>
su pre
su ited</w>
stra ins</w>
sti l
sti f
sion ist</w>
sion ers</w>
short- run</w>
sh ops</w>
sh i</w>
serv ants</w>
s cor
roll ment</w>
ri ding</w>
ri de</w>
respon ds</w>
reme dy</w>
ref ront</w>
recipi ent</w>
rec y
re alizing</w>
ra ft</w>
puni shed</w>
public- health</w>
proxim ity</w>
protec tions</w>
propos es</w>
proce eds</w>
pro position</w>
priv ately</w>
pres ents</w>
pre valence</w>
posse ssion</w>
plun ge</w>
plumme ted</w>
ple dges</w>
pa k
p able</w>
oun dly</w>
organ ic</w>
or gans</w>
on ce-
om in
ol ding</w>
occup y</w>
o logy</w>
normali zation</w>
no stal
nerv ous</w>
neighbor hoods</w>
near- zero</w>
nation al-
nan o
mon arch
moder ation</w>
mo lec
mitig ation</w>
mistak en</w>
maxim izing</w>
m entioned</w>
m -
li stri
li sm</w>
kov sky</w>
ke bi
k ur
jour ney</w>
j ail</w>
iz umi</w>
inter view</w>
insol vency</w>
indic ating</w>
in sured</w>
in compatible</w>
impris onment</w>
impris oned</w>
imp in</w>
im position</w>
ik i
iden tical</w>
i .e
i.e .</w>
hu ge
huge ly</w>
horri fic</w>
hero ic</w>
hau l</w>
hard liners</w>
har ga</w>
hand led</w>
h al</w>
guil ty</w>
griev ances</w>
graph y</w>
gra ms</w>
ge l</w>
g y
g ments</w>
fro zen</w>
frag ility</w>
forgi veness</w>
fo refront</w>
fil ms</w>
fe aring</w>
fa ste
f ts</w>
f its</w>
extra ordinarily</w>
ex pose</w>
every body</w>
ever s</w>
err ors</w>
equi vo
enter tainment</w>
enorm ously</w>
en rollment</w>
en opho
emphasi zes</w>
ef ly</w>
ed it
ec c
e rec
dri ves</w>
dre ams</w>
double- digit</w>
dor kovsky</w>
di sil
di aspor
descri bes</w>
des po
der ous</w>
democr ats</w>
defici encies</w>
dec ou
d- up</w>
custom ed</w>
cu ador</w>
cred its</w>
counter part</w>
consul tation</w>
conspir acy</w>
commun al</w>
common ly</w>
colon i
coll ect</w>
col or</w>
coast al</w>
clear ingh
ci ally</w>
chec ked</w>
ce ly</w>
bru tality</w>
bir th
bi polar</w>
bi al</w>
b right</w>
autonom ous</w>
ate ful</w>
apo le
anticip ate</w>
anti- corruption</w>
ac customed</w>
ab ao</w>
Y uk
W iki
W ah
V ice</w>
US- China</w>
Thom as</w>
T witter</w>
T si
T er
Sen kaku</w>
Sch um
Rom ania</w>
Per sian</w>
Ottom an</w>
Olymp ics</w>
N ation
N apole
Mit t</w>
Mar shall</w>
Ko izumi</w>
Kho dorkovsky</w>
K is
Ji abao</w>
In stitu
IC C</w>
Hist ory</w>
Fren ch
Frank fur
Fran co-
For ce</w>
E cuador</w>
Christ mas</w>
Chin a-
C el
Budd hi
Bar ro
5 5</w>
3. 6</w>
3 7</w>
193 0s</w>
1. 7</w>
क िया</w>
y wood</w>
x enopho
war n</w>
volun te
virtu e</w>
viol ate</w>
uti lity</w>
unthin kable</w>
un leash</w>
un equivo
un conditional</w>
u ph
tu juan</w>
troub ling</w>
trilli ons</w>
trans action</w>
tra des</w>
tr a</w>
tor n</w>
tiz ed</w>
ten se</w>
tari anism</w>
take over</w>
ta p</w>
t ted</w>
swe red</w>
suscep tible</w>
sur g
su dah</w>
st aged</w>
spo t</w>
spil lo
sove reigns</w>
simultane ous</w>
si stem</w>
si -
shou ldn</w>
sho oting</w>
self- defense</w>
school ing</w>
sac red</w>
s ement</w>
s ance</w>
s adly</w>
ris king</w>
ri ce</w>
religi ons</w>
rejec ting</w>
recipi ents</w>
reci pe</w>
re- election</w>
re structure</w>
re per
rati fied</w>
ra i
r is</w>
proce d
prescri ption</w>
pr as</w>
portra y</w>
plagu ed</w>
pic king</w>
pessi mism</w>
pemban gunan</w>
peace keeping</w>
pati ence</w>
pat ent</w>
out going</w>
ous se
organiz ing</w>
one- party</w>
one- fifth</w>
o bes
now den</w>
non- tradable</w>
neg li
ne ar
mul ticul
moun t</w>
mix ture</w>
mem bered</w>
mega -
marke tplace</w>
manufac tured</w>
loy al</w>
lobb ying</w>
lin k
le an
la ut</w>
k ap
jun ta</w>
jud gments</w>
ju tan</w>
itu al</w>
ir o</w>
inter f
inten ds</w>
integ ral</w>
innov ate</w>
initi ate</w>
ing redi
inf er
in ya</w>
in er
in consistent</w>
ide ally</w>
hypo crisy</w>
har dest</w>
h ate</w>
glu t</w>
gen ome</w>
g lim
g ang
fundament alism</w>
fru its</w>
fre er</w>
four -
fi able</w>
expl oration</w>
end a</w>
emis i</w>
embo died</w>
emb ass
embass y</w>
e era</w>
du a</w>
dra ma</w>
dol lar
diversi fication</w>
dispos able</w>
disappoin ted</w>
def enders</w>
de tect</w>
de fore
d as
cur tail
cost- effective</w>
convers ation</w>
comparis ons</w>
comp ly</w>
comm emor
cla shes</w>
che ap
ch ment</w>
canc ers</w>
bu sy</w>
bon uses</w>
bomb ings</w>
bo ttom
blue print</w>
bai k</w>
az eera</w>
author ized</w>
au d
at ric</w>
aris es</w>
appro ve</w>
an swered</w>
an der</w>
allevi ate</w>
ais sance</w>
advi sed</w>
Ze al
Wol f
V al
US SR</w>
U p</w>
Tur ks</w>
Tsi pras</w>
Syri za</w>
Syri ans</w>
Stan ford</w>
Scandinavi an</w>
S nowden</w>
S M
R ight</w>
R ed</w>
Pe ter</w>
Orthodo x</w>
O il</w>
N ext</w>
Mor ales</w>
M ul
Li k
Kash mir</w>
J azeera</w>
J P</w>
Icel and</w>
H y
Govern ing</w>
Frankfur t</w>
FS B</w>
F ro
D mit
Cel sius</w>
C at
Barro so</w>
Azer bai
Ar ticle</w>
Ar ctic</w>
An war</w>
Ac tion</w>
A pple</w>
7 .5</w>
201 7</w>
199 7-
198 2</w>
1. 6</w>
1 2
- wide</w>
चा ह
á n</w>
z i</w>
weap on
war time</w>
w an</w>
us i</w>
ur gency</w>
un i</w>
un equal</w>
un balanced</w>
u te</w>
u ps</w>
u a</w>
tu m</w>
tissu e</w>
ti ka</w>
throw ing</w>
thri ve</w>
ten aga</w>
te eth</w>
te en
tal ented</w>
system ically</w>
suk uni</w>
su n</w>
su gg
sty les</w>
stu b
struc tured</w>
streng ths</w>
st all</w>
sp aw
sin s</w>
si e
sett ling</w>
self- fulfilling</w>
seg ments</w>
ro yal</w>
ri ft</w>
ri be</w>
resid ential</w>
rel atives</w>
ref uses</w>
rea p</w>
re vision</w>
re tains</w>
re paid</w>
re membered</w>
re formed</w>
radi ation</w>
ra il</w>
ra dio
provo ke</w>
pro lif
pro duk
premi ums</w>
pre emp
post- World</w>
plun ged</w>
plan es</w>
pill ars</w>
pessi mis
pessimis tic</w>
pay roll</w>
particip ated</w>
par ano
pa th
over hang</w>
out lets</w>
oper ates</w>
op ium</w>
ol ds</w>
occup ying</w>
occa sions</w>
obes ity</w>
ob tained</w>
o y
o p</w>
nation- states</w>
nation- state</w>
nam un</w>
n asty</w>
multi polar</w>
mil d</w>
mess ages</w>
mer t</w>
memili ki</w>
mee ts</w>
main tenance</w>
m ac
listri k</w>
le st</w>
labor- force</w>
l d-
l ately</w>
l ance</w>
it age</w>
impas se</w>
il ls</w>
igno res</w>
i e</w>
hu d</w>
hom o
hol es</w>
ho l</w>
hi dup</w>
health care</w>
harmon y</w>
ha k</w>
ha bi</w>
h itting</w>
g ru
fron ts</w>
fortun es</w>
for bi
fo stering</w>
flow ing</w>
fle eing</w>
fir ing</w>
ferti liz
ferti lity</w>
f ati
expor ted</w>
experim ental</w>
excep tionally</w>
exce eding</w>
ex ile</w>
ent ang
engine er</w>
emphasi zing</w>
embar ked</w>
el- Qaddafi</w>
el son</w>
doc tor</w>
diversi fied</w>
distingu ished</w>
dis cer
dis agree</w>
direc tors</w>
descri bing</w>
den ounced</w>
den i
de fi
d al</w>
cri tically</w>
cri c
coura ge
conver sion</w>
connec tivity</w>
condem nation</w>
con ferences</w>
compens ated</w>
comp ounded</w>
coll ected</w>
chemic als</w>
cha p
celeb rate</w>
calcul ated</w>
c ents</w>
c as
brilli ant</w>
br is</w>
bol stering</w>
bene ath</w>
beli evers</w>
beau tiful</w>
bar ukan</w>
at as</w>
anch or</w>
al arm</w>
ai kan</w>
advoc ating</w>
activi sm</w>
Z ed
Ya sukuni</w>
Y es</w>
Venezuel an</w>
U ribe</w>
Tim e</w>
T ar
Sunni -
Sil k</w>
Sh i</w>
Sel f-
Sad at</w>
R am
Pro ject</w>
Pol es</w>
P en</w>
P a
Ox ford</w>
Ol mert</w>
Ne w
Mar k</w>
M ali
L ar
K i-
Israel -
In dependence</w>
G ames</w>
ES M</w>
Cy pri
Ci ti
CE Os</w>
Anglo-Sa xon</w>
A ri
4 2</w>
3 0,000</w>
193 3</w>
1 0,000</w>
- and-
ज ो</w>
y our
y ou
y ama</w>
wou ld-
would- be</w>
war -
wal k</w>
vo c</w>
vis its</w>
vide o</w>
vi sions</w>
ver t</w>
ver dict</w>
underp in</w>
un comfortable</w>
un certainties</w>
tyran ny</w>
tur ally</w>
tro p
tin d
thre w</w>
ter barukan</w>
ten dencies</w>
te p
tal ents</w>
tain e
survi v
sur ging</w>
suppor tive</w>
superi ority</w>
super vi
summ its</w>
subsidi ze</w>
sub mitted</w>
stan bul</w>
spur ring</w>
spi ke</w>
spe aker</w>
sp or
sol vency</w>
social- welfare</w>
slog an</w>
shoc king</w>
shoc ked</w>
sensi tivity</w>
sem in
secre tary</w>
seas on</w>
s lo
s ama</w>
rum p</w>
rul er</w>
rol ling</w>
rin a</w>
ri cul
res sing</w>
remin is
reli eve</w>
regi stered</w>
reb ound</w>
reas sure</w>
read ers</w>
re sig
rati fy</w>
ran ked</w>
r ounds</w>
quot as</w>
public ation</w>
plan e</w>
pla in
per verse</w>
pec uli
over due</w>
om er
negl ected</w>
near by</w>
nation alization</w>
mit tedly</w>
mili tar
mi gh
mem ban
me g
mat ched</w>
manipul ate</w>
log i</w>
loc al-
lif el
li able</w>
law yer</w>
la sted</w>
kin an</w>
kebi jakan</w>
kar bon</w>
jun c
jud ging</w>
ir ony</w>
inv aded</w>
interven ing</w>
inter ior</w>
inhe rently</w>
in visible</w>
in habit
in form
ic ity</w>
ic ious</w>
i est</w>
hu bris</w>
ho sts</w>
he ated</w>
ha voc</w>
gun s</w>
gest ure</w>
gener ates</w>
fric tion</w>
fra me</w>
fl ying</w>
fix ed-
fier ce</w>
farm ing</w>
expla ining</w>
execu tion</w>
exclu de</w>
eradic ation</w>
equ itable</w>
em an
educ ate</w>
ear ly-
e tary</w>
e ating</w>
du m
dru g-
don ations</w>
do se</w>
dis orderly</w>
dimen sions</w>
deterior ating</w>
desig ning</w>
deplo ying</w>
depen ded</w>
def ended</w>
de taine
de pres
cumul ative</w>
cross ing</w>
cross ed</w>
coun ting</w>
contradic tory</w>
consequ ential</w>
concer ted</w>
compla in</w>
circ les</w>
center- left</w>
care ers</w>
c enti
bro thers</w>
bre a
bo ys</w>
bo y</w>
be an</w>
b ols</w>
ax is</w>
atten ded</w>
athle tes</w>
associ ations</w>
ar row</w>
apo logi
ap kan</w>
anti bio
annex ation</w>
ad mittedly</w>
ad mission</w>
absur d</w>
ab u
W al
V er
Ukraini ans</w>
T y
T ig
St .</w>
Se as</w>
Res olution</w>
R ousse
P lan
P R
P C</w>
N ai
May nard</w>
Mar x</w>
Lu x
Lik ud</w>
Li thu
L or
Ki- moon</w>
Keyne sians</w>
Kat rina</w>
IF A</w>
I stanbul</w>
H e</w>
E mer
E hud</w>
Dar win</w>
D an
Cri minal</w>
C O</w>
Bo E</w>
B ac
An tar
Ad am</w>
3 3</w>
3 2</w>
20 ,000</w>
- sharing</w>
,0 00-
ु र
ले कि
ध ार
त क</w>
चाह िए</w>
é s</w>
ä uble</w>
yiel ded</w>
win d
wh ani</w>
we ek
wat ch
w n</w>
w alls</w>
vigor ous</w>
ve st</w>
us aha
ur ge</w>
upa kan</w>
un t</w>
un avoidable</w>
ug ly</w>
tw in</w>
tum n</w>
transform ative</w>
transf erred</w>
to o-
tigh ten</w>
ti s</w>
temp ting</w>
tal ked</w>
t s
t one</w>
t on
t ing
sw aps</w>
surr ounded</w>
sur passed</w>
sug ar</w>
sub tle</w>
stri ve</w>
str ation</w>
stando ff</w>
st a</w>
speci alized</w>
side lines</w>
sid ents</w>
sh ut
sh opping</w>
sev ente
se vic</w>
se a-
sci ences</w>
san itation</w>
sacrific es</w>
s ang
row s</w>
retren chment</w>
resur gence</w>
restric tive</w>
reminis cent</w>
ref er</w>
recover ies</w>
re signed</w>
re balance</w>
quie tly</w>
pul ling</w>
publi ci
prosecu tor</w>
prosecu tion</w>
propor tions</w>
prolif er
prohib ited</w>
pro ves</w>
privile ges</w>
pre domin
pho to
persu aded</w>
persecu tion</w>
pe t</w>
patrio tic</w>
pa res</w>
p in</w>
p apers</w>
out size</w>
op a
on able</w>
od d-
obse ssed</w>
o ts</w>
nou ri
new com
narrow ly</w>
n ly</w>
mur derous</w>
mon archy</w>
mitig ating</w>
min ing</w>
metaph or</w>
mer upakan</w>
mea suring</w>
man n</w>
m ire</w>
low- wage</w>
lo cu
liter ature</w>
li ties</w>
li sted</w>
lag ging</w>
la x</w>
kil lers</w>
jeopardi ze</w>
j ika</w>
ir rig
ir reversible</w>
interven ed</w>
inhabit ants</w>
ing kan</w>
influ x</w>
incur red</w>
impe ded</w>
im poses</w>
im pending</w>
id a</w>
head winds</w>
head quarters</w>
he ed</w>
he aling</w>
h us
h u</w>
h kan</w>
gener ational</w>
ga h</w>
g ang</w>
for um</w>
fl at</w>
financi ers</w>
f ans</w>
explo iting</w>
expe di
exam ined</w>
exacerb ating</w>
ev acu
environ ments</w>
ensu ing</w>
en ess</w>
em e
elev ated</w>
e ties</w>
du p
dro ps</w>
dra stic</w>
dra in</w>
diver t</w>
dismis s</w>
discoura ging</w>
disco veries</w>
dis sidents</w>
dis en
diagno sed</w>
deterior ated</w>
descri ption</w>
depri ved</w>
defa ul
dee ds</w>
dedic ated</w>
de l</w>
d lock</w>
custom er</w>
cu red</w>
cor responding</w>
conver t</w>
continu ity</w>
cont end</w>
constra int</w>
con sp
comple ment</w>
compas sion</w>
comb ining</w>
com promising</w>
charis matic</w>
chann eled</w>
center- right</w>
c ad
bur n</w>
buff er</w>
bu m
bra him</w>
bo tt
ble ak</w>
bar ring</w>
bah kan</w>
bac ter
b log
automob iles</w>
automob ile</w>
autom ation</w>
authorit arianism</w>
asym metric</w>
asser tion</w>
asser ting</w>
arti ficially</w>
ar an</w>
anti-Semi tic</w>
announ ce</w>
ange red</w>
an onym
ad versaries</w>
accord ance</w>
Z ha
Soci ety</w>
Sin ce</w>
Si er
Sch äuble</w>
Ro whani</w>
Pro ble
Pe ter
PL A</w>
P rag
P aul
No t</w>
Ne ws</w>
N u
N D
Mo hammad</w>
Milo sevic</w>
Lux emb
Kir ch
Kar zai</w>
Jong- un</w>
Jo h
IC TY</w>
I T
G las
F IFA</w>
Euro -
Chin e
C arib
C P
B O
Americ an-
Alex ander</w>
AR C</w>
A l-
A L
2007- 2008</w>
2 5-
19 29</w>
ल ी</w>
य ू
ब ढ</w>
त े
ग ा</w>
कर ना</w>
उ न
अध िक</w>
ye ar
y ard</w>
writ ers</w>
withdraw ing</w>
wi sely</w>
who le
weigh ed</w>
w as
ver ge</w>
vari eties</w>
v an</w>
ur uh</w>
u sion</w>
tri ple</w>
tra de
tor tured</w>
top- down</w>
top pled</w>
time -
the id</w>
technolog ically</w>
tack ling</w>
tac it</w>
t our</w>
t led</w>
symp tom</w>
susp icious</w>
supp lied</w>
su k</w>
ste ep</w>
st up
squ an
speci fied</w>
sp ill</w>
slau ghter</w>
sk in</w>
sing er</w>
short- lived</w>
sang at</w>
s .</w>
roc ket</w>
respon dents</w>
resemb les</w>
requis ite</w>
reper cus
repercus sions</w>
repe al</w>
red ress</w>
re distribu
qua si-
qu alities</w>
puni tive</w>
public s</w>
proper ties</w>
pro min
predomin antly</w>
pl er</w>
perspec tives</w>
per usaha
pene tr
par am
pa thy</w>
p leasure</w>
organiz ational</w>
optim ists</w>
one- quarter</w>
om po
olig arch
not orious</w>
nom ination</w>
narr atives</w>
nano technology</w>
my th</w>
mo han</w>
minu te</w>
minist erial</w>
minim izing</w>
min yak</w>
mili tary-
micro -
measu rable</w>
mathemati cs</w>
market- oriented</w>
lob by</w>
lo ses</w>
lo aded</w>
lin e
la in</w>
la g</w>
l un
kel an
kelan jutan</w>
k ingly</w>
join tly</w>
isol ation
isol ate</w>
intensi fy</w>
indu str
in trac
in sure</w>
in aug
impe ding</w>
hope ful</w>
holi day</w>
ho sted</w>
highligh ting</w>
head line</w>
he tero
he m</w>
hard line</w>
happ ily</w>
h ec
gri d</w>
good will</w>
gol den</w>
gn ant</w>
gi a</w>
geograph y</w>
geograph ical</w>
gen cies</w>
ga thered</w>
g ging</w>
fra ught</w>
flo or</w>
fla g</w>
fix ing</w>
f asc
exc iting</w>
eu ph
equ als</w>
end ow
embar go</w>
ed y</w>
e gre
dur ation</w>
divi ding</w>
dict ate</w>
desi red</w>
deleg ation</w>
defin es</w>
def enses</w>
decreas ed</w>
dec ides</w>
cyber space</w>
cur ricul
convic ted</w>
conveni ence</w>
consequ ently</w>
condem ning</w>
concep tion</w>
con science</w>
con fusion</w>
compe l</w>
commit tees</w>
comb at
com posed</w>
coloni alism</w>
coinci dence</w>
coal- fired</w>
clu b</w>
cle ver</w>
clas s
cl ou
cir cu
car ri
can -
c ling</w>
bu tu
bra ve</w>
bra ins</w>
bloc k
basi cally</w>
barri er</w>
bail ed</w>
b o</w>
atom ic</w>
as -
are t</w>
any time</w>
any more</w>
analo gy</w>
an ced</w>
amend ment</w>
am ne
alleg ations</w>
aliz es</w>
al u</w>
ak es</w>
ak ers</w>
ain e</w>
agre eing</w>
ag e
ag ar</w>
acqui es
aci ties</w>
accus ations</w>
Zeal and</w>
V e
T ro
T B</w>
Ser vices</w>
Sec urities</w>
SDR s</w>
S lo
Rousse ff</w>
Ri ver</w>
Re view</w>
R um
Pu bli
Prag ue</w>
P op
NA FTA</w>
Mur do
Man mohan</w>
Mali ki</w>
Le one</w>
L ama</w>
L ag
I l
I brahim</w>
Ho w</w>
H ur
H an
Georgi an</w>
E S</w>
Cu ban</w>
Cro ati
Conserv atives</w>
Commun ism</w>
Carib bean</w>
Bos ni
Azerbai jan</w>
6 4</w>
4 3</w>
4 .5</w>
19 20</w>
स े
म ह
ब ी
द ुन
x es</w>
worth while</w>
working- age</w>
wor n</w>
withdraw n</w>
where ver</w>
water shed</w>
virtu es</w>
upheav al</w>
uph olding</w>
unfol ding</w>
under scored</w>
under cut</w>
un happy</w>
un fortunate</w>
un ci
ul arly</w>
ucr ative</w>
u ous</w>
tu de</w>
transi tional</w>
to tal
text book</w>
ten able</w>
tap e</w>
tan t
t wi
surviv ors</w>
su preme</w>
su al</w>
stud ying</w>
stric ts</w>
ste pped</w>
stat ure</w>
star tu
st ery</w>
spon tane
spe ar
spar ked</w>
shale- gas</w>
sh er</w>
second- largest</w>
scar city</w>
s pot
ro bi</w>
rever sing</w>
reve aling</w>
resum ption</w>
respon sibly</w>
res olu
rep lic
re tail
qu id</w>
protec ts</w>
pro t
privile ge</w>
predic tion</w>
po sts</w>
plas tics</w>
person ally</w>
per cent</w>
pen ge
p lo
p ile</w>
p ages</w>
ox id
ove restim
out weigh</w>
out -
on set</w>
odd- Frank</w>
observ ation</w>
ne ur
national- security</w>
moun tain</w>
mone y-
modi fied</w>
me se</w>
manipul ating</w>
man -
ma sters</w>
ma ster</w>
ma ker</w>
m ung
link ages</w>
lic op
lic ense</w>
li t
li sts</w>
lef tist</w>
le t
l ucrative</w>
ke tika</w>
ke st</w>
journ alist</w>
jec tion</w>
j u</w>
it ary</w>
inv itation</w>
internation alization</w>
int act</w>
institu tion
ing an</w>
inc ite</w>
in o</w>
in jections</w>
in coming</w>
in appropriate</w>
imperi alism</w>
il a</w>
ho le</w>
ho c</w>
he licop
gui ding</w>
grass roots</w>
govern ors</w>
geo graphic</w>
g ag
full- blown</w>
fulfil led</w>
formul ate</w>
forese e</w>
for ged</w>
fo ot</w>
flou rish</w>
floo ding</w>
fear ful</w>
extre mes</w>
extr act</w>
every day</w>
escap ing</w>
es -
er to</w>
en forcing</w>
en demic</w>
egre gious</w>
e ffic
dro me</w>
drin king</w>
dra ws</w>
diver gence</w>
dis sent</w>
dis regard</w>
diplom at</w>
di ri</w>
di k
di band
diband ingkan</w>
devast ation</w>
depreci ate</w>
dep ic
defore station</w>
def y</w>
dead line</w>
de vo
de tail</w>
de licate</w>
d les</w>
d g
cu rement</w>
crow ded</w>
cred entials</w>
country side</w>
cont ingent</w>
constra in</w>
consp ic
com promised</w>
col um
clearingh ouse</w>
cla use</w>
civili zations</w>
cheap ly</w>
cha e
car tels</w>
business -
bu tt
bro a
broa den</w>
bour ne</w>
bo sses</w>
blood shed</w>
bloc ks</w>
blo ated</w>
bi ome
ban yak</w>
b at</w>
at ur
assur ances</w>
asset- price</w>
arg aret</w>
ant as
ang ka</w>
analy tical</w>
an an</w>
alu i</w>
alco hol</w>
al legi
ai ded</w>
agre es</w>
advanced- country</w>
accumul ating</w>
a ward</w>
Wil son</w>
W illi
Tay yi
Sier ra</w>
S tig
Rom an</w>
R aj
O kin
N I
Mili tary</w>
Mel bourne</w>
M ass
M argaret</w>
Lat via</w>
L ou
L os</w>
L ef
K an</w>
J os
H om
Gold man</w>
Fis cal</w>
F ide
Europe -wide</w>
Dre am</w>
D odd-Frank</w>
Cap ital</w>
C l
Bur mese</w>
Buddhi st</w>
Bor is</w>
Ag enda</w>
6 .5</w>
5 7</w>
4 9</w>
2. 2</w>
198 8</w>
198 7</w>
197 4</w>
194 8</w>
0. 3</w>
ार ी</w>
स मा
र ी</w>
म ु
ं त</w>
ö der</w>
ye ster
wh it
we aring</w>
water -
volum es</w>
v ag
ur un
ur a</w>
under water</w>
un veiled</w>
un skilled</w>
ul sion</w>
trib es</w>
tri l
tre es</w>
transc end</w>
toler ant</w>
tic a</w>
ti tle</w>
ti f</w>
thou ght
the me</w>
the irs</w>
th ful</w>
terr and</w>
ter nal</w>
tech nically</w>
te kno
tekno logi</w>
tax ing</w>
tabo o</w>
t es
substan tive</w>
su spects</w>
stup id</w>
stric tly</w>
stri p</w>
stret ched</w>
st agg
spir itual</w>
sli ding</w>
skil l
six th</w>
sin king</w>
shi pping</w>
sh ly</w>
sh che
shche v</w>
separ ated</w>
securi tization</w>
secul ari
sec tion</w>
se um</w>
s- Ste
s-Ste ag
s orts</w>
s feld</w>
rum ors</w>
ru shchev</w>
ri dden</w>
revi se</w>
rev it
remin ded</w>
rein forces</w>
regul ator</w>
refor mist</w>
re warded</w>
re productive</w>
radic alization</w>
radic alism</w>
r öder</w>
prote ins</w>
prosecu tors</w>
pron oun
prohibi tion</w>
prof oundly</w>
prof essors</w>
pro active</w>
pris ons</w>
pri ori
pri ce-
prefer able</w>
predic ting</w>
politici zed</w>
persist ence</w>
perio dic</w>
per j
per -
pe ti
pat ron
pas ses</w>
pa ths</w>
pa k</w>
p y</w>
over ha
outsour cing</w>
outla ys</w>
our g</w>
or able</w>
open -
on ian</w>
ol ed</w>
offic er</w>
obse ssion</w>
my self</w>
munici pal</w>
mung kin</w>
multip lier</w>
mobili zing</w>
mo de</w>
min eral</w>
men ye
mel alui</w>
mar ried</w>
man tra</w>
lob by
lic s</w>
lic en
li ver</w>
li tz</w>
less -
la st-
kep ada</w>
kar ang</w>
k kan</w>
jud ged</w>
job lessness</w>
j ar
it a</w>
is en
irrig ation</w>
intrac table</w>
interf ere</w>
inten d</w>
infer ior</w>
ineffici ency</w>
indic es</w>
ideo logies</w>
i z</w>
i kan</w>
hybri d</w>
hurrican es</w>
hol d
her self</w>
hat ami</w>
ha ble</w>
guil t</w>
guarante eing</w>
gri dlock</w>
g i</w>
full- fledged</w>
friend ship</w>
fra med</w>
fo oting</w>
fo oli
extr action</w>
explan ations</w>
expl oring</w>
expec ting</w>
exclu ding</w>
exce eded</w>
ex ert</w>
evalu ation</w>
ev asion</w>
eth -
est er</w>
escap ed</w>
engine ered</w>
endor sement</w>
encoura gement</w>
en sible</w>
en counter</w>
en act</w>
eman ating</w>
em ig
em an</w>
el ty</w>
eco system</w>
du k</w>
dra gged</w>
do gs</w>
differenti als</w>
dic tions</w>
diaspor a</w>
di stricts</w>
develop s</w>
design ated</w>
desig ns</w>
de lu
d amp
cy -
cur tail</w>
criter ion</w>
cr unch</w>
coun cil</w>
conver ge</w>
conven ed</w>
contempl ate</w>
consum p
construc ting</w>
confron ts</w>
con firm</w>
compar ing</w>
comp rises</w>
com bu
colle ague</w>
clu bs</w>
classi fied</w>
ci sm</w>
charis ma</w>
character istic</w>
champi ons</w>
cha otic</w>
c lam
c iting</w>
c al-
bur den
bul an</w>
broad cast</w>
bre ach</w>
bom bers</w>
be ts</w>
battle field</w>
back drop</w>
b yp
au tumn</w>
attribu table</w>
astr o</w>
asc us</w>
as pi
arm ies</w>
ar ose</w>
ar ism</w>
apar theid</w>
ap ing</w>
adequ acy</w>
achiev able</w>
accommo dation</w>
accep ts</w>
ac tiv
ac kers</w>
Zion ism</w>
Zha o</w>
Wester ners</w>
V o
V ati
Tran s
Tayyi p</w>
T T
Ser bian</w>
Sch röder</w>
SD Gs</w>
Rum sfeld</w>
Represent ative</w>
Rec ep</w>
Protec tion</w>
Pro te
Pri ce</w>
Poli tics</w>
P r
O N
Nai robi</w>
Mu hammad</w>
Mo z
Mit terrand</w>
Mar kets</w>
Mar ine</w>
Man aging</w>
M ore</w>
M at
Luxemb ourg</w>
Liber ia</w>
L and</w>
Kh rushchev</w>
K hatami</w>
Jos é</w>
Jong- il</w>
Joh n
J an
Har am</w>
H ai
Glas s-Steag
G ore</w>
Franco- German</w>
ES DP</w>
E F</w>
Dam ascus</w>
Cor by
Chine se-
Chall enge</w>
C astro</w>
Bul g
Bo ston</w>
B e</w>
An drew</w>
Ab k
A ung</w>
4 1</w>
200 ,000</w>
194 7</w>
0. 2</w>
ह म</w>
व े</w>
य ो
न ों</w>
z o
z ers</w>
z be
wel coming</w>
ward- looking</w>
war ding</w>
w rought</w>
w aged</w>
vo y</w>
v owed</w>
unilater alism</w>
under go</w>
twenti eth-
twentieth- century</w>
tur alism</w>
tun e</w>
tu s</w>
trivi al</w>
tri ck
trac ks</w>
tic es</w>
ti f
the re
the ori
text books</w>
tan k</w>
ta ste</w>
t t</w>
sym bols</w>
swi ft</w>
swe eping</w>
sun der
succe eding</w>
str ingent</w>
stil l-
ste am</w>
star vation</w>
st resses</w>
st ops</w>
st atic</w>
some time</w>
sion ate</w>
sim pler</w>
shoul der</w>
shor tly</w>
shor ter</w>
shel ter</w>
sett lers</w>
sequ encing</w>
sel uruh</w>
sec ession</w>
s- based</w>
s n
s inc
run k</w>
ru le
ris k
rig orous</w>
ri vers</w>
ri ver</w>
reven ge</w>
resist ing</w>
resig nation</w>
repu di
ren dering</w>
remedi es</w>
real m</w>
read iness</w>
re y</w>
re n</w>
re memb
re iter
re consider</w>
rac ist</w>
r and</w>
public- debt</w>
prof li
pro curement</w>
prec lu
prec eding</w>
pre- emp
pre valent</w>
postpon ed</w>
pol y
philosoph ical</w>
ph ate</w>
pes tici
per il
per ation</w>
pen g
pat ents</w>
pass age</w>
pan- European</w>
own er</w>
ow es</w>
over look</w>
opa que</w>
op pression</w>
ompo k</w>
objec tions</w>
ob struc
non- governmental</w>
newcom ers</w>
ne s
ne o
navi gate</w>
mortgage- backed</w>
moderni zing</w>
mini -
mil est
met aboli
ment ing</w>
ment ality</w>
men gh
mem buat</w>
mathemati cal</w>
man dates</w>
magaz ine</w>
mach in
machin ery</w>
mac ro</w>
ma suk</w>
m illen
m ener
loo m</w>
long ev
longev ity</w>
loc ally</w>
lo s</w>
lo fty</w>
ll as</w>
lingu istic</w>
li est</w>
leng th</w>
le i
l ad
kil o
k ick
jeopardi zing</w>
inv ent</w>
inter locu
inst alled</w>
inju red</w>
influ ences</w>
iner tia</w>
in ward</w>
in vention</w>
impul se</w>
implo sion</w>
illustr ates</w>
illu sions</w>
il ton</w>
ik h</w>
identi fying</w>
hurrican e</w>
human e</w>
hor se</w>
hor rors</w>
high- speed</w>
harmon ization</w>
hand ling</w>
ha sil</w>
h r
gri ds</w>
gran ting</w>
gi ants</w>
g res
full- time</w>
fu tile</w>
forth coming</w>
for ging</w>
fis cal-
fe e</w>
fati gue</w>
fasci st</w>
fab ric</w>
f antas
extern alities</w>
exerci sed</w>
exam ination</w>
escal ation</w>
ent able</w>
enshr ined</w>
en sured</w>
emplo ying</w>
electr on
el abor
effic acy</w>
eco systems</w>
eas ed</w>
dru m</w>
dis advantage</w>
direc tions</w>
dilem mas</w>
develop ing-
deple ted</w>
decade -
de vice</w>
das arkan</w>
d or</w>
d ge
cu sto
cr y</w>
cosmopoli tan</w>
cor ner
continu ation</w>
consist ency</w>
conf used</w>
conce de</w>
comman der</w>
coc aine</w>
co m</w>
co lo
clean er</w>
cha u
ce ase</w>
cap acities</w>
bro ther</w>
bi aya</w>
ber t</w>
ber dasarkan</w>
be ating</w>
back ward</w>
bab y</w>
aw an</w>
att achment</w>
at em
assemb led</w>
arsen als</w>
aris ing</w>
archit ects</w>
ar agu
ap ping</w>
ang i</w>
an ian</w>
an alog
analog ous</w>
ambigu ity</w>
all- time</w>
al lu
aki bat
air ports</w>
aim ing</w>
ag ent</w>
adju sting</w>
adap ting</w>
ac a</w>
abund ant</w>
a ven
Zed ong</w>
Yuk os</w>
U zbe
Stig litz</w>
Sam u
R ud
R ab
Pu erto</w>
Proble m</w>
Pe tro
Os borne</w>
Op en</w>
O ur</w>
Nic aragu
Napole on</w>
Murdo ch</w>
Ma j
MI T</w>
M az
M ari
Lithu ania</w>
Lib yans</w>
Lef t</w>
Kar l</w>
K in
Itali ans</w>
Inter governmental</w>
In flation</w>
I ron</w>
I r
I B
Holl ywood</w>
Gü len</w>
Gu atem
Glass-Steag all</w>
G ra
Fi ve-
Econom ist</w>
E st
E l</w>
Cypri ot</w>
Croati a</w>
Ch o
Cath o
Bo ko</w>
Bhu tan</w>
BO J</w>
B ash
B JP</w>
An ti
Abk haz
A vi
A la
5 1</w>
5 0-
3 50</w>
3 00,000</w>
2. 3</w>
2 P</w>
2 100</w>
196 2</w>
196 0s</w>
193 1</w>
19 0
विका स</w>
व े
मे ं
दे श</w>
दुन िया</w>
त ो</w>
त ी
कार ण</w>
उ स
अ फ</w>
zero- sum</w>
your self</w>
y ar
work able</w>
wi dened</w>
wh ol
was n</w>
war ri
wan ing</w>
vi ability</w>
vari ed</w>
uniqu ely</w>
un drum</w>
trib unal</w>
transi t</w>
tif ada</w>
ti ze</w>
ti bility</w>
taxpay er</w>
tan ah</w>
supre m
sup poses</w>
succe eds</w>
su ic
sti ble</w>
star t-
stand point</w>
stagg ering</w>
stabili zed</w>
squee ze</w>
spons ors</w>
speci alists</w>
so ber</w>
slow s</w>
six- party</w>
sion er</w>
signat ories</w>
si ko</w>
shut down</w>
sh u
sent enced</w>
sel dom</w>
sec rec
secrec y</w>
sc are</w>
ron es</w>
roc kets</w>
ri dic
resemb le</w>
rescu ed</w>
requ ests</w>
rep lied</w>
rela xed</w>
ref erring</w>
recru it</w>
recru it
reci pro
re views</w>
re viewed</w>
re tained</w>
re hab
rehab ili
ration ality</w>
ra pe</w>
ques tioning</w>
purcha sed</w>
pul led</w>
public- private</w>
pru dence</w>
prosp er</w>
promp tly</w>
prof it-
proced ure</w>
prob able</w>
pro to
prim acy</w>
pri ced</w>
pr inc
portra yed</w>
popul ous</w>
poli c
physici sts</w>
phil anthro
pessi mists</w>
pe tty</w>
pe re
pe ers</w>
patrio tism</w>
pas sion</w>
pan demic</w>
overwhel med</w>
over haul</w>
op ted</w>
ong kok</w>
one- child</w>
on ies</w>
nostal gia</w>
no ting</w>
negli gible</w>
nation ality</w>
mobili zation</w>
mis management</w>
mi sunder
mes ki
meski pun</w>
me work</w>
me as
mas s-
mag ic</w>
m emo
m aps</w>
m amp
mamp u</w>
m am
lower- income</w>
lor ida</w>
lor ds</w>
loo sen
lo oms</w>
life style</w>
lic ity</w>
lic ally</w>
liber alizing</w>
li p</w>
l alu</w>
interrup ted</w>
ing en
inf ection</w>
inf am
in ism</w>
impro ves</w>
imagin able</w>
im on</w>
im bab
hyper -
human- induced</w>
hon est
histori an</w>
high way</w>
hero es</w>
her itage</w>
her al
hel m</w>
heav y-
he aring</w>
hard ship</w>
ha mp
h ind
h all
guerri llas</w>
gl aci
geo politics</w>
gen i
ge o-
gam ble</w>
ful ness</w>
frequ ency</w>
fo reg
flou ri
fa thers</w>
fa k
f arms</w>
expl ore</w>
ex posing</w>
environment alists</w>
end ure</w>
end angered</w>
en der</w>
en de
ed ings</w>
echo s
e leg
dri ft</w>
do ses</w>
divi sive</w>
diversi fy</w>
disp ar
discus sing</w>
discrimin ate</w>
disappoin tment</w>
dis closure</w>
dic ally</w>
di vor
di ous</w>
developing- country</w>
devast ated</w>
deter rent</w>
desc endants</w>
deepen ed</w>
de tained</w>
d row
d it
cric ket</w>
cri ti
cr y
coordin ating</w>
contex ts</w>
constitu ency</w>
consoli dated</w>
conserv atism</w>
con vention</w>
con firms</w>
complic ating</w>
comple tion</w>
commod ity-
comm en
col li
coerci on</w>
co o
co ff
circum vent</w>
chap ter</w>
cent ric</w>
can a</w>
broad ening</w>
bri bes</w>
bless ing</w>
behavi ors</w>
beg g
bb ing</w>
b ars</w>
ay an</w>
avo idance</w>
at tainment</w>
at ch</w>
assess ed</w>
asser tiveness</w>
ass er</w>
asp ire</w>
ar ts</w>
app li
anticip ation</w>
antibio tics</w>
anti ago</w>
ani mo
an om
amend ments</w>
alien ated</w>
al lah</w>
akh ir</w>
advan cement</w>
accompli shments</w>
accommod ating</w>
ac es</w>
ab rupt</w>
ab e</w>
a warded</w>
a ire</w>
a es
Z imbab
Y ou
Wh y</w>
Wah habi</w>
Vati can</w>
Ti ongkok</w>
T rump</w>
T err
T ech
T AR
S trip</w>
S antiago</w>
Russi an-
Re gul
R os
Publi c</w>
Or b
Okin awa</w>
Nor dic</w>
Kenne th</w>
JP M</w>
J ob
Israel- Palestine</w>
Inde ed</w>
In t
Hi ro
Ham ilton</w>
H ou
H im
H ig
Gu ang
Gre xit</w>
Ger hard</w>
Fra mework</w>
Fo x</w>
Five- Year</w>
Fe der
F lorida</w>
F le
F .</w>
D aw
D al
Cz echos
Cul tural</w>
Chris ti
Catho lics</w>
CC S</w>
CB O</w>
C anc
C DS</w>
Be ar</w>
BR CA
B on
B ol
B lack</w>
B M
B EA
Ala wit
Al ban
AI G</w>
A gri
8 ,000</w>
197 5</w>
195 7</w>
19 40</w>
0. 1</w>
- 3.
सक ता</w>
लेकि न</w>
र ण
म ो
ब हु
ध ा
ग या</w>
क ु
yo ffs</w>
yester day</w>
x ation</w>
world- class</w>
world view</w>
working- class</w>
wi el
whol ly</w>
weigh ted</w>
war rant</w>
w rec
vigor ously</w>
us an</w>
ur ging</w>
under investment</w>
tum or</w>
trop ical</w>
trav eled</w>
traum atic</w>
traum a</w>
transform ational</w>
transf erring</w>
trans mitted</w>
tind akan</w>
ti sts</w>
thought ful</w>
thir ty</w>
thin ess</w>
therap ies</w>
the astern</w>
th west</w>
ten ure</w>
te aches</w>
tac tic</w>
t estim
t enth</w>
sur pass</w>
sur ate</w>
suprem acy</w>
sup plying</w>
sub scri
sub du
stric ter</w>
stret ch</w>
strength ens</w>
stra ined</w>
sto len</w>
standar di
st es</w>
sou l</w>
sof t-
soci o-
smar ter</w>
ske wed</w>
siz eable</w>
sie ge</w>
shat tered</w>
sha ky</w>
sever ity</w>
self- determination</w>
se ssion</w>
sc ram
sc ant</w>
safeguar ding</w>
sab ot
s light</w>
s lack</w>
s ad</w>
ru ble</w>
rou gh</w>
rol led</w>
rog ue</w>
ro v</w>
rin ge</w>
righ te
ri min
restra in</w>
restaur ant</w>
requ est
repor ters</w>
remar ked</w>
red und
record- high</w>
reali stically</w>
re sign</w>
re public</w>
re finance</w>
rav aged</w>
ran kings</w>
ran dom</w>
radio active</w>
rac ism</w>
ra mi
r y
r ations</w>
quot a</w>
pursu es</w>
pur ge</w>
pu t
provo king</w>
pro ver
pres enting</w>
predic tably</w>
predic ament</w>
prec arious</w>
pre supposes</w>
pragm atism</w>
pover ty-
policy -
pl enti
plenti ful</w>
petro leum</w>
persu ading</w>
pem impin</w>
pe g</w>
parliam ent
par k</w>
pa rent</w>
oun cing</w>
ou gh
orig inated</w>
or gan</w>
or ate</w>
or ang</w>
op t</w>
ol dest</w>
off -
ni shed</w>
nation wide</w>
nation alistic</w>
mutu alization</w>
millen nia</w>
mer ly</w>
meng ur
meng hasilkan</w>
memb er
mel awan</w>
me als</w>
manipul ated</w>
man kind</w>
legitim ize</w>
leg ality</w>
la in
l u</w>
l ent</w>
kel ompok</w>
k ini</w>
k arena</w>
j ang</w>
ir y</w>
inter nasional</w>
inste in</w>
inspir ing</w>
inflic t</w>
infam ous</w>
individu ally</w>
income- tax</w>
in exor
in conceivable</w>
impor ting</w>
implic itly</w>
im er</w>
illi ter
id al</w>
humili ating</w>
home ini</w>
haz i</w>
hal ted</w>
ha iled</w>
h s</w>
guar ds</w>
gu ess</w>
gra vit
gl ance</w>
gene tically</w>
gene ous</w>
gal van
g lar
full- scale</w>
fru it</w>
fran c</w>
foreign- currency</w>
for- profit</w>
for merly</w>
fashi oned</w>
fasci sm</w>
far ther</w>
f itting</w>
f ence</w>
extra pol
exc itement</w>
ex ha
ev ed</w>
ev ange
establi shes</w>
ero ding</w>
enthusias tic</w>
en cla
embarra ssing</w>
embar k</w>
ell ation</w>
e di
duci ve</w>
down grade</w>
divi d
disproportion ately</w>
displac ement</w>
discipl ines</w>
diff usion</w>
diagno stic</w>
determin ant</w>
deter red</w>
democr ati
dela ying</w>
defic it-
deep -
deb acle</w>
de tri
damp en</w>
dam pak</w>
d are</w>
cru cially</w>
courage ous</w>
cour ses</w>
counter ing</w>
conven tions</w>
contradic tion</w>
continu ally</w>
cont am
cont acts</w>
conf ig
con sen
con ducive</w>
compreh end</w>
commen surate</w>
comb ines</w>
co vert</w>
clin ics</w>
clim b</w>
clari fy</w>
circul ation</w>
ci sc
choo ses</w>
che ating</w>
celebr ation</w>
celebr ated</w>
catch -up</w>
cataly ze</w>
calam ity</w>
c it
c ation</w>
bu s</w>
bu ried</w>
broad -based</w>
bri gh
bon d-
bet ter-
bar a</w>
ban ning</w>
back stop</w>
b iting</w>
b ic
b ans</w>
au to</w>
atten ding</w>
as sure</w>
arti sts</w>
ap an</w>
any way</w>
anti- Western</w>
analy ze</w>
adv ent</w>
administr ations</w>
ad am
abstr act</w>
a c</w>
Zimbab we</w>
Y un
Wil ders</w>
W ill</w>
W el
W a
T est</w>
T ah
Sovie ts</w>
Sovie t-
Si ber
Sch ro
Scandinavi a</w>
SO Es</w>
S w
S lovakia</w>
R ice</w>
Prin ce</w>
Po or</w>
Orb án</w>
NG O</w>
NA SA</w>
Mass ac
M en
M P</w>
Lim its</w>
Kis singer</w>
K homeini</w>
In no
Him al
H al
Go od</w>
Fro m</w>
Fran cisc
Fide l</w>
F un
F ARC</w>
EU- wide</w>
E lec
Dom ini
Dmit ri</w>
Dal ai</w>
D .</w>
Czechos lovakia</w>
Cong o</w>
Con tin
Chech en</w>
Ch ile
C arm
C L
C H</w>
BEA CH</w>
B is
B C
Ad vis
A sh
A ca
8 6</w>
6 7</w>
6 ,000</w>
- country</w>
े ं</w>
व ा</w>
प ह
दे ख
जि स
z ar
with drew</w>
well- functioning</w>
wealth iest</w>
wealth ier</w>
volun tarily</w>
vill agers</w>
vic t
vict orious</w>
vi athan</w>
ve il</w>
vari able</w>
v ani
underp inning</w>
under valued</w>
under gone</w>
un usually</w>
ul es</w>
turbul ent</w>
tro poli
transl ated</w>
tran sig
tion alism</w>
tigh tly</w>
ti fy</w>
ti ers</w>
ter masuk</w>
ten ment</w>
tele phone</w>
teach er</w>
tap kan</w>
tan i</w>
sur ya</w>
sur ance</w>
substitu tes</w>
subdu ed</w>
sub jected</w>
sub jec
states men</w>
stagn ating</w>
sta ying</w>
st en</w>
st aff
ss ment</w>
ss ly</w>
ss -
spo kes
spar k</w>
some day</w>
social- security</w>
smo oth
sm en</w>
si de-
sh enko</w>
sh al</w>
servic ing</w>
sequ ence</w>
separ atist</w>
sent ences</w>
sel ective</w>
secul arism</w>
se karang</w>
satis factory</w>
sa at</w>
s ory</w>
rican e</w>
rhetor ical</w>
reti re
restaur ants</w>
resi dual</w>
regre t</w>
ref ers</w>
reconc iling</w>
recomm end</w>
rebelli on</w>
re- elected</w>
protec tive</w>
proce edings</w>
pre gnant</w>
pre condition</w>
practi tion
poli o</w>
ple as
plan ting</w>
phenomen a</w>
perusaha an</w>
per mitting</w>
pen insula</w>
pe tani</w>
patron age</w>
paralle ls</w>
p ir
p enting</w>
ow ning</w>
over heating</w>
over arching</w>
ous ed</w>
our ing</w>
os exu
ori a</w>
or ph
oper ated</w>
ol a</w>
off ense</w>
of ten-
of i</w>
od d</w>
ob taining</w>
navi g
mur de
monopoli es</w>
molec ular</w>
mir ror</w>
mir ac
mi su
meg aban
meaning less</w>
mat ching</w>
mas sively</w>
marke dly</w>
man a</w>
mag ni
loc ate</w>
lo sis</w>
lim itations</w>
life styles</w>
li ze</w>
li min
li br
li a</w>
legisl ature</w>
lean ing</w>
lap oran</w>
lain nya</w>
la vi
l unch</w>
ke ep
k ali</w>
juris dictions</w>
jihadi sts</w>
intoler able</w>
institu te</w>
indic ations</w>
indefin ite</w>
ind ul
in transig
in tr
in fin
in ating</w>
imm unity</w>
illi cit</w>
ide mi
id le</w>
ic king</w>
hier archy</w>
haw ks</w>
har i</w>
gh o
gener osity</w>
g in</w>
forese en</w>
forecast ing</w>
forec lo
fle e</w>
fis cally</w>
feder alism</w>
favor ably</w>
fam ine</w>
fa ul
f altering</w>
extra vag
exclu des</w>
eradic ate</w>
ent ally</w>
enjo ys</w>
eng en</w>
ene y</w>
en countered</w>
en compas
eli gible</w>
electron ics</w>
elector ates</w>
eg gs</w>
ecc a</w>
e less</w>
e h</w>
e der</w>
dys function</w>
dom ain</w>
dollar -denominated</w>
divid end</w>
diver sion</w>
distribu tional</w>
discoura ged</w>
dis mal</w>
dis appearance</w>
dil akukan</w>
di p</w>
deser t</w>
demograph ics</w>
dee pest</w>
deb ili
dead lock</w>
dat a-
d iter
d ge-
d ang</w>
cushi on</w>
cu losis</w>
connec ting</w>
condem n</w>
con tested</w>
collap ses</w>
co oling</w>
co ol</w>
co ined</w>
cle ar-
ci g
ci ans</w>
character ize</w>
char ity</w>
ch enko</w>
ch ell</w>
celebr ating</w>
ceas e-
car to
cap turing</w>
candi d
campaig ning</w>
cali phate</w>
calcul ate</w>
broad ca
bri efly</w>
bran ches</w>
bottom -up</w>
bo ast
blat ant</w>
ber si
ber culosis</w>
ber -
b one</w>
b lan
b ind</w>
awa ited</w>
aver aging</w>
autocr acy</w>
attr acti
attracti veness</w>
at ra</w>
astr onom
as ement</w>
articul ated</w>
arre n</w>
ar ticles</w>
ar rows</w>
apo logy</w>
ap p</w>
anti- American</w>
antagon ism</w>
ance stors</w>
am eli
alloc ations</w>
al tru
acquisi tion</w>
accompan ying</w>
acc ru
ac tionary</w>
abund ance</w>
Ye ars</w>
W arren</w>
U ru
T an
St al
Shar if</w>
Ser vice</w>
Ser ge
Schro eder</w>
Sch engen</w>
S ol
S en</w>
Peter sburg</w>
P y
P ra
P over
P len
P es
Ob am
OM T</w>
OM C</w>
O ver
O ut
O range</w>
Nig erian</w>
Nicaragu a</w>
N ik
Mus lim
Mit chell</w>
Mc Kin
McKin sey</w>
Man ch
M ir
M any</w>
Le viathan</w>
Lar ry</w>
L ong</w>
L ess
L A
Ky r
Kirch ner</w>
K ofi</w>
K an
J our
In te
Hur ricane</w>
Hum ala</w>
H ope</w>
F OMC</w>
El ection</w>
E instein</w>
E R
Dan ish</w>
D ig
D es
D B</w>
Con sum
Comm unists</w>
Comm on</w>
Colom bian</w>
Citi group</w>
Ch eney</w>
Carm en</w>
C N
Beng hazi</w>
Bash ir</w>
Bal kan</w>
Bal i</w>
B ack</w>
B T</w>
Avi v</w>
Anti -
Americ as</w>
Abkhaz ia</w>
A S</w>
4 7</w>
198 6</w>
198 5</w>
198 4</w>
197 8</w>
10- 15</w>
1. 9</w>
स ि
स ा</w>
स र
लो ग
म ौ
पू र</w>
ज ा</w>
अ ंत
ñ era</w>
ñ a</w>
y ak
wor thiness</w>
wi sh
we b
wa ste
w ounded</w>
vo ic
viol ates</w>
ver sions</w>
vent ures</w>
ven s</w>
v ention
v ain</w>
us tices</w>
us kan</w>
uni or</w>
underp ins</w>
un tenable</w>
un surprisingly</w>
un ju
un expec
unexpec tedly</w>
un deni
un checked</w>
tw ard</w>
tu r</w>
tu ous</w>
tri pled</w>
tra ins</w>
to ol
tigh tened</w>
ti p</w>
th es</w>
tex ts</w>
ten gah</w>
te tapi</w>
tan pa</w>
tain ted</w>
tail ored</w>
t at</w>
syn thetic</w>
supp lier</w>
sup pressed</w>
sum mar
sub sist
subsist ence</w>
su spend</w>
su itable</w>
su ffice</w>
stre am
str ing</w>
st ating</w>
spectac ularly</w>
sp he
socio economic</w>
socie tal</w>
sle ep</w>
simp listic</w>
simil arities</w>
sh y</w>
self- defeating</w>
sebag ian</w>
se gment</w>
se di
schol ar</w>
sc ape
scape go
s way</w>
s oun
s ms</w>
s emb
s ati
roc k-
resur rec
rememb ering</w>
recur ring</w>
recapit alization</w>
rec our
recour se</w>
rec es
reas se
re thinking</w>
re publics</w>
re patri
random ized</w>
r ings</w>
r ing-
quali fy</w>
qu e
pu s</w>
pu p
prot agon
produk si</w>
pro tocol</w>
pro ph
prejudic es</w>
pre limin
pow ering</w>
post- communist</w>
posi tively</w>
pleas ant</w>
person ality</w>
pen sioners</w>
pen gg
pen du
pen dek
peculi ar</w>
pe d
par amount</w>
pan demics</w>
p raise</w>
p ra
p aling</w>
or a</w>
op pressive</w>
oligarch s</w>
nuclear- power</w>
non sense</w>
no ble</w>
ni al</w>
neur ons</w>
natural- resource</w>
nai ve</w>
na ï
mur dered</w>
munici p
multin ation
multination als</w>
mor ning</w>
metri cal</w>
mer chan
mel ting</w>
medi ocr
me tropoli
may or</w>
mat ches</w>
maj orities</w>
macro -
ma z
ma ke
lu kan</w>
lobby ists</w>
lobb ies</w>
lo ad</w>
ling k
lingk ungan</w>
ling ering</w>
le vers</w>
le ge</w>
le an</w>
lag s</w>
labor atory</w>
l oud</w>
l ling</w>
l ant</w>
ko v</w>
kilo grams</w>
ke red</w>
k al</w>
j unior</w>
isolation ism</w>
ir re
invo ked</w>
investig ations</w>
interpre tations</w>
intermedi ation</w>
insul ate</w>
inspec tors</w>
infl ated</w>
inf ant</w>
incre di
inc lin
in siders</w>
in form</w>
impedi ment</w>
impa ired</w>
im moral</w>
illi quid</w>
identi fication</w>
id -
ic ked</w>
hus band</w>
ho tel</w>
high- profile</w>
hegem on</w>
hear ings</w>
head scar
he let</w>
he imer</w>
hang ing</w>
ha ya</w>
gu ese</w>
gra b</w>
glim p
ge tic</w>
frac king</w>
foo d-
fe eding</w>
fe at
fashi onable</w>
farm land</w>
f law</w>
f ile</w>
f i</w>
exp on
ex propri
ex act</w>
erup t</w>
equ ation</w>
en rich</w>
en cro
em it</w>
eigh teenth</w>
ed ly</w>
echo ed</w>
doub tful</w>
disrup ted</w>
disp la
disman tling</w>
disman tle</w>
dis d
dis advant
direc tives</w>
dict ates</w>
di ets</w>
di ar
di ans</w>
develop ers</w>
detec tion</w>
detaine es</w>
deri ve</w>
dem y</w>
de valuations</w>
de pressing</w>
da ya</w>
d win
d rones</w>
d ra</w>
d in
curren cy-
crip pling</w>
counter cyclical</w>
cou ps</w>
cont ing
cont emp
consul tations</w>
consci ousness</w>
conflic t-
confi dence-
con ve
coll ar</w>
cohe sive</w>
coff ers</w>
coerci ve</w>
co des</w>
cig are
ch er
cel ona</w>
categ ories</w>
capital- account</w>
canc eled</w>
bur ge
bul lets</w>
buil d-up</w>
bru tally</w>
bro kers</w>
bre ath
bran ds</w>
bor ing</w>
blam ing</w>
ber kelanjutan</w>
belong s</w>
be st
be at
bar red</w>
bar bar
bal lo
bal listic</w>
b its</w>
b illion
b elt</w>
b elli
avoi ds</w>
aver sion</w>
attribu te</w>
at asi</w>
asser ted</w>
articul ate</w>
are n</w>
ar ns</w>
ar do</w>
appropri ately</w>
analo gies</w>
an ity</w>
an is</w>
an ic</w>
amm uni
ambi que</w>
am az
alig n
al ami</w>
aggrav ated</w>
advoc acy</w>
ad diction</w>
a g</w>
Willi am</w>
Uru gu
Turk men
To day</w>
TT IP</w>
T or
Ste arns</w>
Soci alists</w>
Si x
San tos</w>
Res pon
Rec over
R C</w>
Pover ty</w>
Portu guese</w>
Pi ñera</w>
Nor we
N ie
N C</w>
Moz ambique</w>
Min ist
M r.</w>
M em
M ecca</w>
M au
M Ps</w>
J ud
Inter -
In formation</w>
IS A</w>
H on
Gu ine
Francisc o</w>
Fi f
Est onia</w>
EM U</w>
E mir
Dru g</w>
Dra wing</w>
Domini que</w>
Di et</w>
D ani
Col um
Col lege</w>
Cha ir</w>
Bar celona</w>
Bac helet</w>
B ec
A qu
A maz
A li
9 8</w>
9 00</w>
7 6</w>
5 6</w>
5 3</w>
2. 1</w>
-of- GDP</w>
स ी
व र</w>
रह ा</w>
प रि
थ ी</w>
ज ै
z stan</w>
z heimer</w>
z er</w>
year ning</w>
won ders</w>
wil d</w>
wi eld</w>
whole sale</w>
wh i
we ar</w>
w w
voc ational</w>
vivi d</w>
vis a</w>
virtu ous</w>
ven ge
vari ation</w>
vari ant</w>
vac ation</w>
v on</w>
upheav als</w>
up grade</w>
univers ally</w>
under score</w>
un ted</w>
un reliable</w>
un regulated</w>
un healthy</w>
un fet
unfet tered</w>
un aan</w>
ultra- low</w>
uc h
u -
tril ateral</w>
touri sts</w>
tor -
titu de</w>
ti red</w>
ti fied</w>
thor ough</w>
there after</w>
theori sts</w>
tent ang</w>
te -
tar nished</w>
t ingk
sw ings</w>
sub- Saharan</w>
sub prime</w>
stun ning</w>
stub bor
str uk
sti pul
ster ling</w>
ster ili
ste er</w>
sta yed</w>
sta di
st ina</w>
spontane ous</w>
sphe res</w>
sol vent</w>
smooth ly</w>
sign aling</w>
si ties</w>
si es</w>
short sighted</w>
short falls</w>
sh runk</w>
sh ell</w>
separ ately</w>
se ven
se duc
se ated</w>
s or</w>
s ang</w>
ruth less</w>
rup tly</w>
ru in</w>
rou tes</w>
revolution aries</w>
reser ved</w>
renew ables</w>
reinvigor ate</w>
regain ing</w>
recur rence</w>
recruit ment</w>
recapit alize</w>
reas sured</w>
real- world</w>
re ne
re leg
re b</w>
ration ally</w>
ra sh</w>
ra inf
rainf all</w>
quo ted</w>
provoc ations</w>
proph ec
pron ounced</w>
promp ting</w>
promp t</w>
prohi bit</w>
pro- democracy</w>
pro p</w>
premi er</w>
prelimin ary</w>
practic ed</w>
posse ssed</w>
poli ty</w>
pol i</w>
pla in</w>
pil gri
piec es</w>
pi on
ph ere</w>
ph ed</w>
pers ons</w>
perio dically</w>
pengg unaan</w>
pendu duk</w>
peas ants</w>
pe er</w>
pe er-
pass eng
parano id</w>
pan jang</w>
pa ve</w>
pa ren
p ts</w>
p ig
p aci
ox y
over valued</w>
out pac
ou ster</w>
ou red</w>
or ated</w>
on el</w>
om y</w>
old- fashioned</w>
oc curren
obser ver</w>
ob jects</w>
non- profit</w>
no tions</w>
no t-
nee dless</w>
ne ys</w>
nas cent</w>
multicul turalism</w>
mul ai</w>
mu si
monarch ies</w>
mis sible</w>
mis match</w>
mis er
meningk atkan</w>
mengur angi</w>
megaban ks</w>
med als</w>
me tic</w>
me than
me ager</w>
manife st</w>
ma fi
m ation</w>
low -</w>
loo sen</w>
local- government</w>
lo qu
life- saving</w>
li ked</w>
lei sure</w>
lea p</w>
l y
l i</w>
ke se
k istan</w>
journ alism</w>
jo ke</w>
jihadi st</w>
j a
issu ance</w>
ir ut</w>
inve sts</w>
intui tive</w>
inter vention
inter rog
instr umental</w>
innov ators</w>
inhi bit
ingredi ents</w>
inform ation-
indepen dently</w>
incar cer
inc ited</w>
in stances</w>
in put</w>
in dig
in competent</w>
in adver
inadver t
impe tus</w>
immen sely</w>
im pressed</w>
ill nesses</w>
hy ster
home grown</w>
hom osexu
hetero do
hear t
he t</w>
ham med</w>
gro ssly</w>
gr ounded</w>
gr ace</w>
fu ri
fru it
fre ed</w>
fol ly</w>
fo stered</w>
fli r
flag s</w>
fish eries</w>
fil ed</w>
fi si
ffe e</w>
ferti le</w>
fac e-
f es
f er</w>
f ading</w>
ext inc
experim entation</w>
exp ire</w>
exist ent</w>
exam ining</w>
ev es</w>
ev enly</w>
es -led</w>
er als</w>
ep idemi
ep ic</w>
ent rants</w>
eng ul
endow ments</w>
en vy</w>
en os</w>
employ er</w>
em pathy</w>
ec il</w>
du le</w>
dist ort</w>
disper sed</w>
disil lu
disen chan
disadvant aged</w>
diar rhe
devi sing</w>
deriv ative</w>
depar tments</w>
decision- makers</w>
dec eption</w>
dec ay</w>
de value</w>
de partment</w>
dat ab
dar ing</w>
da wn</w>
cur bing</w>
cu tt
cru el</w>
cra fted</w>
cr ack</w>
counter weight</w>
cou ples</w>
cou ldn</w>
corner stone</w>
cop per</w>
cooper ating</w>
conver ted</w>
contribu tors</w>
contradic tions</w>
consump tion-
constitu ted</w>
conclu des</w>
con vey</w>
combat ants</w>
com ment</w>
clean sing</w>
ci o</w>
cease- fire</w>
car ing</w>
capit alize</w>
candid acy</w>
c in
boun dary</w>
boo sts</w>
boo k
bo ss</w>
bo on</w>
bo at</w>
bl ur
biome dical</w>
bi tion</w>
bi om
bi dding</w>
bi ased</w>
bel um</w>
bail ing</w>
ba h</w>
ba b</w>
b ury</w>
b outs</w>
b ick
atten d
ati sts</w>
at i</w>
ast -
ass an</w>
as sed</w>
as is</w>
app alling</w>
ap un</w>
ap preh
annu alized</w>
announ cing</w>
an der
amoun ting</w>
ammuni tion</w>
allegi ance</w>
all ying</w>
alien ation</w>
al as</w>
akibat kan</w>
ak h</w>
ak at</w>
ah kan</w>
advent ure</w>
accur acy</w>
aboli tion</w>
ab ruptly</w>
ab le-
W ars</w>
V ar
Uzbe kistan</w>
Urugu ay</w>
Tech no
T us
T r
T O
Strate gic</w>
Stra it</w>
Stan ley</w>
Sha h</w>
Sau d</w>
SM Es</w>
S ul
S ic
Recover y</w>
Ra ú
RM B</w>
Plen um</w>
Pe ña</w>
Pa x</w>
PB B</w>
P ISA</w>
Os se
O peration</w>
Norwe gian</w>
Muslim -
M an</w>
M agh
L uk
L ima</w>
Kyr gy
K on
K arm
Im peri
I ne
Hung arian</w>
Ho ly</w>
H indu
H assan</w>
Gol den</w>
G rand</w>
G CC</w>
F ili
Environ ment</w>
Emir ates</w>
Di plom
Democr at</w>
De ath</w>
Dani el</w>
D D
D A</w>
Corby n</w>
Char lie</w>
Capit alism</w>
C hap
C an</w>
Bu enos</w>
Be irut</w>
B om
Austri an</w>
Americ anism</w>
Al zheimer</w>
Ag ainst</w>
9 9</w>
8 7</w>
6 3</w>
6 2</w>
3 D</w>
201 1-
200 0s</w>
2. 7</w>
2. 4</w>
1997- 1998</w>
194 4</w>
1 4
0. 6</w>
0. 4</w>
0. 0
र ति
ब े
ज ी</w>
क म
उ न</w>
z om
z hou</w>
x ies</w>
won dering</w>
wish ful</w>
we ights</w>
w ounds</w>
w aging</w>
vers a</w>
venge ance</w>
ven d
vend ors</w>
ve to
us er</w>
uni polar</w>
uni form</w>
unci ation</w>
unanim ously</w>
un- hy
un-hy e</w>
un even</w>
ul ing</w>
uc h</w>
u k</w>
u ju</w>
tu berculosis</w>
tri ck</w>
trac king</w>
tor al</w>
top ple</w>
toler ated</w>
time table</w>
the ft</w>
testim ony</w>
terri fying</w>
terj adi</w>
ter ti
tax i</w>
t é</w>
t ar</w>
sustain ably</w>
suspici ons</w>
sur ged</w>
supple ment</w>
supervis or</w>
sup pressing</w>
suic idal</w>
succum bed</w>
sub mit</w>
stif le</w>
ste ad
stake holder</w>
st or</w>
ss on</w>
sp her
spher ic</w>
soldi er</w>
smugg ling</w>
sky roc
skyroc ke
skep tic</w>
sid a</w>
show down</w>
shi eld</w>
separ ating</w>
sem akin</w>
sel lers</w>
seg reg
se hingga</w>
sch e
sche dule</w>
sc aled</w>
sav i</w>
sal ah</w>
sa ya</w>
s- all</w>
s cr
s and</w>
rule s-based</w>
ro man
ri r</w>
reti red</w>
retali ation</w>
resor ted</w>
resha ping</w>
ren dah</w>
remar ks</w>
relent lessly</w>
regre tt
recru its</w>
reconc iled</w>
reces sionary</w>
rec ap
rec al
pum p</w>
publi shing</w>
psycho logists</w>
pronoun cements</w>
program ming</w>
pro- European</w>
pro pen
pro claim</w>
princ elings</w>
pri t</w>
prescri ptions</w>
prepar ations</w>
precipit ate</w>
prec e
pre tend</w>
power -
post ure</w>
posse sses</w>
por ted</w>
polar ized</w>
polar ity</w>
pol ling</w>
ple ase</w>
plas tic</w>
pl ann
pion age</w>
physi cally</w>
philosoph ers</w>
perpe tual</w>
perj anj
perjanj ian</w>
per tan
pendek atan</w>
pe dia</w>
parliament arians</w>
p ta
p ity</w>
p hi
over capacity</w>
outra ged</w>
out lined</w>
out dated</w>
ori ously</w>
op poses</w>
one- time</w>
omin ous</w>
ol f</w>
off setting</w>
nur turing</w>
ni k</w>
naï ve</w>
nav y</w>
narrow ed</w>
n ate</w>
mus cle</w>
mur ders</w>
movi es</w>
mo shenko</w>
mitig ated</w>
min es</w>
mil k</w>
mid- century</w>
men uju</w>
men gu
mel akukan</w>
med dling</w>
me ta
mat urities</w>
man- made</w>
man tle</w>
mam mo
ma ster
ma ka</w>
loc king</w>
loc als</w>
list ening</w>
ligh tenment</w>
lif ying</w>
li p
li fication</w>
let ters</w>
leng thy</w>
lem bag
le aked</w>
law lessness</w>
law -
ken aikan</w>
ke ys</w>
jour nal</w>
it ance</w>
ir onic</w>
investig ate</w>
insur rec
insi der</w>
inher itance</w>
ing er</w>
influ encing</w>
infec tions</w>
industr i</w>
inde xed</w>
inc en
in expensive</w>
imper atives</w>
ik istan</w>
i stry</w>
hy d
hu bs</w>
hr u</w>
hi ding</w>
heterodo x</w>
har ness</w>
har ming</w>
hal f
half way</w>
hair cut</w>
ha vens</w>
ha bit</w>
h at</w>
gre eted</w>
gh ters</w>
gen om
gan da</w>
g ay</w>
g ade</w>
fu ge
frigh tened</w>
fr ater
force fully</w>
fooli sh</w>
fit s-all</w>
fin ish</w>
fi ghts</w>
fe eds</w>
faste st</w>
f ringe</w>
f el
f ade</w>
exp enses</w>
ex iting</w>
ethn icity</w>
es se</w>
es pionage</w>
er o</w>
er as</w>
entit lements</w>
ent ru
endor se</w>
emb ol
em powering</w>
em peror</w>
em body</w>
eg ali
ec tions</w>
e ters</w>
e ag
dy nas
du s</w>
divi des</w>
dis solution</w>
defi ance</w>
declar ations</w>
decade- long</w>
decade s-
debili tating</w>
de fuse</w>
dam s</w>
d entally</w>
d ana</w>
curi ous</w>
cultiv ate</w>
cul prit</w>
crum bling</w>
criti que</w>
cr onies</w>
counter- productive</w>
counter- cyclical</w>
correc ted</w>
cor ro
cor relation</w>
convers ations</w>
contrac ting</w>
constitu ents</w>
confidence- building</w>
compu ting</w>
comp ound</w>
comm uniqu
comm entary</w>
co sting</w>
co ffee</w>
co existence</w>
clou ds</w>
clo thing</w>
clo ck</w>
chur ch</w>
chem istry</w>
cha ired</w>
ch ant</w>
centri fu
centra lity</w>
categ or
campaig ners</w>
burge oning</w>
bum i</w>
boycot t</w>
borrow er</w>
bom bed</w>
bol stered</w>
bo ats</w>
blun t</w>
bloc s</w>
black mail</w>
bio fuel</w>
bi zar
be having</w>
ba haya</w>
b un
b al</w>
b ad
aw i</w>
att ached</w>
ath y</w>
at test</w>
at tain</w>
asym me
assur ance</w>
assassin ated</w>
ar de</w>
appe asement</w>
ap ak
anxie ties</w>
anti- immigrant</w>
anti- Americanism</w>
anti oxid
anthro po
analy ses</w>
an tar
an cho
all- out</w>
all y-
ak a</w>
aj ikistan</w>
air strikes</w>
ag on</w>
afflic ted</w>
adver tis
ad mi
acceler ation</w>
aboli shed</w>
ab ound</w>
a the
Yel len</w>
Wor kers</w>
Wor k</w>
Wi th
W ay</w>
V il
U K
Ty moshenko</w>
Tran sat
Tah rir</w>
T error</w>
T ajikistan</w>
Sur vey</w>
Sunni- Shia</w>
Su per
Slo ven
Shi a-
Serge i</w>
S ter
Ren zi</w>
Re fuge
Raú l</w>
R econ
Pro vin
Per vez</w>
PB C</w>
P in
Or der</w>
O ver</w>
Nig er</w>
Nie to</w>
Ne hru</w>
N ag
My th</w>
Mone y</w>
Mo hammed</w>
Mau ri
M F
Luk ash
Le g
Le aks</w>
Lag arde</w>
L ud
K oran</w>
K ah
Jour nal</w>
John son</w>
J on
Int elli
Imperi al</w>
I f
Ha yek</w>
H A
Ge un-hye</w>
G h
F ron
F eli
Eura sian</w>
En lightenment</w>
Em peror</w>
Ed ward</w>
De puty</w>
D on</w>
D oc
Con tro
Con cer
Colum bia</w>
Co al</w>
Christi anity</w>
Car ney</w>
CD F</w>
C s</w>
C .</w>
Brit ons</w>
Be tter</w>
B y</w>
Ang el
Amaz on</w>
Am bassador</w>
Afri can-
Accor ds</w>
Aca demy</w>
A ir</w>
7 ,000</w>
6 6</w>
4. 3</w>
3 0
2. 8</w>
196 9</w>
195 6</w>
194 9</w>
. .</w>
- -</w>
स ु
स ब
री का</w>
भ ार
न ु
देश ों</w>
द ा</w>
त र</w>
कु छ</w>
yar akat</w>
y- wide</w>
y- neighbor</w>
y ad</w>
won der
will ingly</w>
wak tu</w>
wa ke
vin ism</w>
view ers</w>
vic tories</w>
v ine</w>
ut ama</w>
us akan</w>
us age</w>
urun an</w>
ur s</w>
uni fying</w>
ung -
under lie</w>
under ing</w>
un successful</w>
un ning</w>
un iting</w>
un easy</w>
un aware</w>
ul sory</w>
ul ation</w>
u ption</w>
u hi</w>
u bi
ubi qu
u bara</w>
trum p</w>
tro op</w>
tr ans</w>
tiv ity-
tig a</w>
tic ket</w>
ti les</w>
them es</w>
th y-neighbor</w>
terti ary</w>
tax ed</w>
t ingly</w>
t ama</w>
sympa th
swi f
sw ung</w>
survi ving</w>
supple mented</w>
sup ran
supran ational</w>
succum b</w>
subordin ate</w>
su r</w>
stu ff</w>
stric ken</w>
stri fe</w>
stra ight</w>
sti r
ste ep
startu ps</w>
star kly</w>
stan ts</w>
spot light</w>
spillo ver</w>
spec tive</w>
spear headed</w>
sp ect</w>
sp are</w>
sophistic ation</w>
soci alization</w>
small -scale</w>
slog ans</w>
sli p</w>
sla very</w>
siz e-
size- fits-all</w>
sin k</w>
si r</w>
si p
sho res</w>
sho es</w>
sha me</w>
sha ken</w>
seri ousness</w>
sem ua</w>
self- serving</w>
self- inflicted</w>
sec t</w>
se iz
se ed</w>
scienti fic
school children</w>
satelli tes</w>
s sions</w>
s at</w>
s ample</w>
s al</w>
robo ts</w>
ro t</w>
rival ries</w>
risk ier</w>
revi sions</w>
restra ined</w>
resha pe</w>
rescu ing</w>
res ounding</w>
reli ability</w>
rel s</w>
rel la</w>
reinvigor ating</w>
rehabili tation</w>
recei pts</w>
reb ren
re warding</w>
re dness</w>
ra ging</w>
qu an
q i
qi ang</w>
puzz le</w>
publici zed</w>
psychi atric</w>
provoc ative</w>
prote sting</w>
prosecu te</w>
produc tivity-
proce eding</w>
pro- market</w>
pro sy</w>
pro claiming</w>
prev entable</w>
presum ed</w>
prescri bed</w>
prepar ation</w>
predic tability</w>
pre text</w>
pre requisite</w>
pre mise</w>
postpon ing</w>
pos ite</w>
po oling</w>
plur alist</w>
plumme ting</w>
pl u
pl ate</w>
pl ague</w>
pione ered</w>
pi e</w>
pho to</w>
persu asive</w>
per il</w>
pen urunan</w>
peac e-
pe tition</w>
pe l</w>
par ticle</w>
pa redness</w>
p raised</w>
p ouring</w>
p ap
p acked</w>
ou sted</w>
ot yp
organ isms</w>
opport un
one- size-fits-all</w>
oll ar</w>
off spring</w>
ocr acy</w>
nuclear- weapons</w>
nu anced</w>
nouri shed</w>
not oriously</w>
norm al
normal cy</w>
neg atively</w>
ne st</w>
n ish</w>
n ice</w>
mosqu es</w>
monit ored</w>
mo tive</w>
mo s
mo des</w>
milest one</w>
mi stre
methan e</w>
ment ally</w>
med inejad</w>
meas les</w>
massac res</w>
mas yarakat</w>
manu sia</w>
man dated</w>
man ages</w>
m ic
lu as</w>
liber ated</w>
leg acies</w>
lef t-
le ari
le ans</w>
law makers</w>
land mark</w>
lad der</w>
kno c
kid ney</w>
ki ra
ki ds</w>
k ness</w>
k n
k ingdom</w>
j i</w>
it z
isol ating</w>
inv ite</w>
inv ading</w>
inter war</w>
inter tw
intellectu al-
intellectual- property</w>
instruc tions</w>
instinc t</w>
inst ant</w>
inhi bit</w>
incorpor ated</w>
inaug uration</w>
in hab
impor ters</w>
imm uni
il legitimate</w>
id ity</w>
ic enter</w>
i sh
hypo thesis</w>
hol as</w>
histor ies</w>
he red
hamp ir</w>
ham pered</w>
h nya</w>
h en
gra ph</w>
gr ateful</w>
gr at
glaci ers</w>
fron t
fran ch
foun ders</w>
forbi dden</w>
fertiliz er</w>
fe e
fe at</w>
favor ing</w>
fall acy</w>
f end</w>
exu ber
export- oriented</w>
ex trac
eth os</w>
er uption</w>
ep tive</w>
ep icenter</w>
envis aged</w>
ent- elect</w>
ener gi
end game</w>
emin ent</w>
em bodies</w>
el ine</w>
economic- policy</w>
economic- growth</w>
e- collar</w>
e fe
dow s</w>
domin ates</w>
do -
distur ban
disturban ces</w>
distinc tive</w>
dispar ate</w>
discre tionary</w>
discipl ined</w>
dis credit</w>
dis ab
direc ting</w>
diarrhe a</w>
di sh
di e
desc ent</w>
dep ths</w>
den ounce</w>
deman d-
dela ys</w>
defici ent</w>
deduc tions</w>
dec eler
debt- service</w>
de militari
d- the-
d u</w>
d ress</w>
d read
d ong</w>
d inner</w>
culmin ating</w>
cu res</w>
critici zing</w>
counter- terrorism</w>
counter act</w>
correc ting</w>
cor rid
cor related</w>
cop ing</w>
conver ting</w>
conver tibility</w>
conven e</w>
contra sts</w>
consumer -
constra ining</w>
comple ting</w>
comp ulsory</w>
collec ting</w>
collabor ate</w>
cler ics</w>
cler ic</w>
ci ous</w>
chil d-
char ter</w>
ch or
cataly st</w>
capital- intensive</w>
capit alized</w>
capit alists</w>
cap s</w>
can ti
cal yp
c tica</w>
c ils</w>
broad ened</w>
brin k
bre eding</w>
bor der
blo g</w>
bio- fuels</w>
bi go
bi e</w>
begg ar-
beggar- thy-neighbor</w>
bat ubara</w>
ban ner</w>
au h</w>
at u</w>
at nya</w>
at ly</w>
aston ishing</w>
arrog ant</w>
arrog ance</w>
appro ached</w>
apo logies</w>
an abe</w>
amne sty</w>
am end</w>
ali n</w>
ali en</w>
ak i</w>
air lines</w>
ain s</w>
advis ory</w>
adi c</w>
adhe rence</w>
ad ul
ad mired</w>
ad mir
ad dic
acquisi tions</w>
acqu iring</w>
ac cuse</w>
absor bing</w>
absor bed</w>
abor tion</w>
aboli shing</w>
abi de</w>
Y itz
With out</w>
Wiki Leaks</w>
Wat anabe</w>
WW I</w>
W om
W in
W H
WH O</w>
U ganda</w>
Transat lantic</w>
Tran si
Tig ers</w>
Ta x</w>
Sto ck
St and
Sino- Japanese</w>
Sil va</w>
She ikh</w>
Ser b</w>
Se tt
Se in</w>
Sad r</w>
S rebren
S P
S CA
R oc
R elations</w>
Qu e
Pro duc
Poli t
Palestini an-
P ap
P N
P 5</w>
Or leans</w>
Nic holas</w>
Ne ander
NA M</w>
N em
N E
Mo der
Mic hel
Me k
May or</w>
Lor d</w>
Len in</w>
Kyrgy zstan</w>
K ad
Job s</w>
Jo int</w>
Islam abad</w>
Intelli gence</w>
Inno vation</w>
IB M</w>
Himal ayan</w>
Har ry</w>
H igh
H as
Gü len
Guatem ala</w>
G ro
G M</w>
Fis cher</w>
Fili pin
Eura sia</w>
EC T</w>
Du bai</w>
Dig ital</w>
Di alogue</w>
De ut
DD T</w>
D ollar</w>
Cur tain</w>
Coun tries</w>
Contro l</w>
Consum er</w>
Com p
Chap ter</w>
Ch er
Ch ance</w>
Cat al
C S
Bulg aria</w>
Bosni an</w>
B lo
B attle</w>
B P</w>
Antar ctica</w>
Al ter
Ah medinejad</w>
A O</w>
5 .5</w>
201 0-
200 0-
2. 0</w>
18 0</w>
1 30</w>
1 3
सा मा
ष ा</w>
ला ग
य क</w>
ब ार
प ी
द वा
च ी
च ित</w>
इ न</w>
अप नी</w>
ã o</w>
z -
y- to-
y n</w>
y aw
wor st-
wonder ful</w>
wi shed</w>
wi ped</w>
who ever</w>
waste ful</w>
war d
ward ship</w>
vi ties</w>
ves sels</w>
veri fication</w>
ven tions</w>
vege tables</w>
vari ations</w>
vali dity</w>
vacc ination</w>
v as
v ably</w>
ut op
up per-
up dated</w>
unlea shing</w>
ung i</w>
unequivo cally</w>
und ane</w>
un wise</w>
un warranted</w>
un wanted</w>
un rav
un necessarily</w>
un just</w>
un itas</w>
um a</w>
ul ous</w>
ubiqu itous</w>
u rely</w>
u angan</w>
ty co
tum ors</w>
tum bu
tt a</w>
transform ations</w>
trade- off</w>
tr uc
top ics</w>
tool kit</w>
tid ak
ti pping</w>
ti fication</w>
thr ust</w>
th western</w>
th um
th an-
ter besar</w>
tep at</w>
tang g
t- time</w>
swif tly</w>
sun g</w>
substitu tion</w>
subsidi zing</w>
su ries</w>
su atu</w>
struk tur</w>
strate gi
str ings</w>
stic king</w>
ster dam</w>
ste pping</w>
state- controlled</w>
sta king</w>
st ingly</w>
squan dered</w>
spectac le</w>
spaw ned</w>
sp ra
soft- power</w>
smo ke</w>
sist er</w>
sion aries</w>
sin ister</w>
shi el
sha ke</w>
sett ings</w>
ser vi
ser ta</w>
ser t</w>
sen ators</w>
seculari sts</w>
scre ens</w>
scientific ally</w>
sc al
satis fying</w>
sanc tioned</w>
s k</w>
s ad
ru shed</w>
ris ed</w>
rich -country</w>
ri siko</w>
ri que</w>
revi sionist</w>
retro spect</w>
retire es</w>
resor ting</w>
resolu te</w>
resid ence</w>
reser vo
request ed</w>
repa iring</w>
ren aissance</w>
remin ds</w>
regi on
referen ces</w>
recover s</w>
recommend ation</w>
reck oning</w>
rec re
rec alls</w>
rec alled</w>
re acting</w>
ration ing</w>
ra in
r ing
r allied</w>
quar terly</w>
quan tum</w>
qu it</w>
qu ag
quag mire</w>
pu r</w>
provi der</w>
prote in</w>
protagon ists</w>
prophec y</w>
propen sity</w>
prop elled</w>
promin ence</w>
pres sured</w>
pre-emp tive</w>
pre mis
pre mat
premat urely</w>
practition ers</w>
pot ence</w>
poli cing</w>
po t</w>
plan ted</w>
pione ering</w>
pha sed</w>
per mission</w>
per ing</w>
peac em
pas sionate</w>
paradox ical</w>
par tially</w>
over thrown</w>
over threw</w>
over see</w>
out i</w>
ous ing</w>
occurren ce</w>
occa sional</w>
obe di
ob serve</w>
o logists</w>
now -
non- violent</w>
neutra lity</w>
moun ted</w>
moun tains</w>
mo l
mis h</w>
mid- 1980</w>
ment al-
memban tu</w>
medic ation</w>
medi ev
me tal</w>
me li
mater nal</w>
mas a</w>
macro prudential</w>
m undane</w>
m ate</w>
lu ster</w>
low ing</w>
log istics</w>
liter acy</w>
lifel ong</w>
liber ate</w>
li zing</w>
len ec
la yer</w>
la p</w>
l on
l ends</w>
l agg
ker usakan</w>
ke uangan</w>
k risis</w>
k ering</w>
k ecil</w>
jum ped</w>
job less</w>
j ol
j amin</w>
it or</w>
is ing</w>
ir resi
intransig ence</w>
intoler ance</w>
intimid ation</w>
inter dependent</w>
instinc ts</w>
install ations</w>
inju ries</w>
initi ating</w>
inhibit ors</w>
ing- edge</w>
induc ing</w>
indic tment</w>
incumb ents</w>
inclin ation</w>
inci dence</w>
inadvert ently</w>
in- chief</w>
in valuable</w>
in ject</w>
in ic
in different</w>
imp ru
il y-
ici ans</w>
i dio
hu i</w>
hu b</w>
hosti lities</w>
honest y</w>
hol m</w>
high ways</w>
hier arch
hi red</w>
hel l</w>
heavy- handed</w>
hard ware</w>
har ne
happ ier</w>
h its</w>
h ints</w>
h emis
ground work</w>
gra ft</w>
gl omer
gi ft</w>
gener ously</w>
gen ces</w>
gas -
g n</w>
g ate
frigh tening</w>
formul ating</w>
formul ated</w>
forecast ers</w>
for ums</w>
follow -up</w>
flu id</w>
fl ames</w>
fin gers</w>
fin es</w>
fif ty</w>
fif ths</w>
feren tial</w>
fantas y</w>
fail ings</w>
f ren
f ats</w>
extra -
ext ingu
ex iled</w>
evalu ating</w>
eth an
ethan ol</w>
equ ity-
epi demics</w>
ent rance</w>
ens i</w>
energy- intensive</w>
empi res</w>
em ma</w>
elabor ate</w>
eigh t-
egali tarian</w>
ed- benefit</w>
e ye
e ting</w>
dri lling</w>
dog ma</w>
diver gent</w>
disp arity</w>
disgu ised</w>
disd ain</w>
dis sip
dis array</w>
dis affected</w>
di strict</w>
detri ment</w>
deterior ate</w>
desp eration</w>
dence- based</w>
dem ag
defini tive</w>
defin ed-benefit</w>
decreas ing</w>
deb ating</w>
de posed</w>
d é
d war
d inal</w>
d ar</w>
d an
cutt ing-edge</w>
curi osity</w>
cul turally</w>
crow d
cor rup
cor n</w>
conver sely</w>
consumption- tax</w>
consoli dating</w>
confron tational</w>
concei vably</w>
con quest</w>
con glomer
complic ity</w>
complac ent</w>
compens ating</w>
comp rised</w>
commis sioned</w>
comman ders</w>
comm unists</w>
comfor tably</w>
coll ater
col s</w>
cohe rence</w>
co st
clear- cut</w>
ch im
ce l</w>
cap tain</w>
ca ste</w>
business man</w>
buil dup</w>
bu k
bra ke</w>
bott lenec
bor dering</w>
bo om
blun ders</w>
bio fuels</w>
bick ering</w>
bi l</w>
bet ting</w>
bear able</w>
bacter ia</w>
back grounds</w>
b out</w>
b ite</w>
b ay</w>
awak ening</w>
autocr acies</w>
audi ences</w>
assi sted</w>
assi cal</w>
asc end
as signed</w>
arm s-
appreh ension</w>
appear ances</w>
ape st</w>
anc is</w>
amp ed</w>
am ing</w>
ali kan</w>
al tered</w>
al ous</w>
air space</w>
ah an</w>
adhe rents</w>
ad versary</w>
ac company</w>
aby ss</w>
abund antly</w>
a si
a f</w>
Zion ist</w>
Z one</w>
Z ar
Y oun
X ilai</w>
Wh ile</w>
Turkmen istan</w>
Tri poli</w>
Th re
Tam il</w>
Sun day</w>
Stock holm</w>
Stand ard</w>
Srebren ica</w>
Span i
Sloven ia</w>
Sino- American</w>
Sh en
Self- Defense</w>
Sci enti
Samu elson</w>
SCA F</w>
S o</w>
S ho
S NP</w>
S EC</w>
S A
S .</w>
Ric o</w>
Re gi
Rab in</w>
Provin ce</w>
Pi us</w>
Per ancis</w>
P helps</w>
P atri
P as
Or well</w>
O n
Naz ism</w>
Minist ers</w>
Man agement</w>
Magh reb</w>
M og
M ladi
M ig
Le on
K adi
Jon athan</w>
Ji ang</w>
J am
J D</w>
In surance</w>
Hig gs</w>
Hel mu
H un
H ague</w>
H ad
Fif th</w>
Feli pe</w>
F lo
F a
Euro group</w>
Environ mental</w>
E liz
E isen
E NP</w>
Dil ma</w>
Dil emma</w>
Daw n</w>
D on
Cur rency</w>
Cri stina</w>
Co ali
Chil d</w>
CI TY</w>
C lu
C ham
C ase</w>
Bud apest</w>
Ben jamin</w>
Bar ak</w>
Bang kok</w>
B ou
B IS</w>
B I</w>
Ari el</w>
Am sterdam</w>
AV IV</w>
A re</w>
A p
A T</w>
A A
8 2</w>
8 .5</w>
7 3</w>
5 4</w>
4 6</w>
3. 3</w>
20 25</w>
196 1</w>
1 40</w>
0. 8</w>
- all</w>
ै श</w>
हो गा</w>
श ी
व ी
म ी
बहु त</w>
ब ना
नि र</w>
ग ी</w>
के व
उ प
इस के</w>
अ व
zh ne
y rov</w>
worsen ed</w>
work place</w>
won dered</w>
wea kest</w>
we dge</w>
wake -up</w>
wa y
w ren
wren ching</w>
w ings</w>
volunte ers</w>
vivi dly</w>
viol ently</w>
vil i</w>
vigil ant</w>
vi rul
vas cular</w>
valu ing</w>
ut ter</w>
us -
up ris
upris ings</w>
up held</w>
unrav eling</w>
unju kkan</w>
under developed</w>
unde sta
undesta g</w>
un related</w>
un prepared</w>
un democratic</w>
un competitive</w>
un ambigu
unambigu ously</w>
uc leari
u she
ushe red</w>
u ously</w>
tw el
tur no
turno ver</w>
tribu tion</w>
trav eling</w>
trav el
trav ails</w>
traffic kers</w>
tr ace</w>
tingk at</w>
ti lity</w>
three- year</w>
thou ghts</w>
then- President</w>
tap ping</w>
tap ped</w>
tangg ung</w>
tan de
tande m</w>
tabo os</w>
t onic</w>
t ate</w>
t asi</w>
t as</w>
surg ery</w>
super- rich</w>
sugg es
sub servi
sty mi
stun ted</w>
stubbor nly</w>
strang ers</w>
ste wardship</w>
star ved</w>
star tling</w>
squ a
sp ared</w>
sor ry</w>
social- democratic</w>
so ar</w>
sm alle
smalle st</w>
slow -
sli pped</w>
sla shed</w>
sinc ere</w>
short -</w>
sh ri
sh ine</w>
sev enth</w>
separ atists</w>
sen ds</w>
sel ler</w>
scram ble</w>
scr atch</w>
scor ing</w>
school -
sal vation</w>
sal ary</w>
s wel
s ors</w>
s ong</w>
s aga</w>
ru le-
ru di
ru b
roman tic</w>
road map</w>
ro iled</w>
ro ck</w>
risk- management</w>
rig ged</w>
revit alize</w>
revi sing</w>
retail ers</w>
restruc tured</w>
resp ecting</w>
rep o</w>
ren cana</w>
reli eved</w>
redistribu tive</w>
recap ture</w>
reaffir m</w>
re tic
rati fication</w>
rat ers</w>
rai b</w>
ra -
quali fications</w>
puni shing</w>
public ations</w>
pta kan</w>
provoc ation</w>
proto cols</w>
pro yek</w>
pro xies</w>
pro spective</w>
pro pping</w>
princi p
prin ces</w>
presum ption</w>
preser vation</w>
preced ents</w>
pre paredness</w>
power less</w>
power house</w>
post- WWII</w>
poli s</w>
pil ot</w>
piec eme
pieceme al</w>
pho tos</w>
pha ses</w>
pestici des</w>
peril ous</w>
per tama</w>
pen dul
pendul um</w>
pe z</w>
pe aked</w>
pay off</w>
par tition</w>
par t-time</w>
pal ace</w>
pack aged</w>
pa ving</w>
p oured</w>
p iles</w>
p ater
p angan</w>
over taken</w>
ori ent</w>
or dering</w>
oper ators</w>
op ens</w>
on es
occup ations</w>
oc l
observ ations</w>
obe se</w>
o es</w>
nur tured</w>
nor theastern</w>
non- performing</w>
non- financial</w>
nom inated</w>
no v
new found</w>
negl ecting</w>
ne ft</w>
natural- gas</w>
nation ally</w>
nar co
n ine-
n ad
mon umental</w>
moment ous</w>
mo tor</w>
mis ses</w>
mis placed</w>
migh ti
mid- 1990</w>
mental- health</w>
meng en
mengen ai</w>
men ur
men unjukkan</w>
may hem</w>
mat tered</w>
manag er</w>
man s</w>
man dar
mag ne
macro economics</w>
ma stery</w>
ma h</w>
m im
m all</w>
loosen ing</w>
log is
live stock</w>
lif ies</w>
le prosy</w>
le ase</w>
le ague</w>
land slide</w>
la sts</w>
l ur
l ongest</w>
kon dis
kondis i</w>
kom it
kick -
ker ja</w>
keep ers</w>
kan an</w>
k- based</w>
k u</w>
k ow
k hu
k emis
kemis kinan</w>
junc tion</w>
jun k</w>
jum p</w>
ju st-
jiha di</w>
j ak</w>
is m
intr in
intrin sic</w>
intertw ined</w>
interlocu tors</w>
intere stingly</w>
int ention
insurrec tion</w>
insu rers</w>
inst on</w>
inst all</w>
inspec tions</w>
inspec tion</w>
inher it</w>
infra struktur</w>
incorpor ate</w>
inclu siveness</w>
inc iting</w>
in tri
in fighting</w>
in ary</w>
impedi ments</w>
impe des</w>
imp ati
im probable</w>
im possibility</w>
ignor ant</w>
ideo logically</w>
ide n</w>
i si
i res</w>
i g</w>
i ds</w>
hun ting</w>
hu an</w>
how er</w>
hor ror</w>
hor m
homo geneous</w>
hold outs</w>
hol low</w>
ho tels</w>
ho t
hij acked</w>
high s</w>
hesit ate</w>
he ights</w>
he els</w>
he al</w>
han d-
hal e</w>
h it
growth- enhancing</w>
grou ping</w>
grou p
gre edy</w>
gra sp
gra in</w>
gl ory</w>
gi fts</w>
gi e</w>
gho st</w>
geni us</w>
gen s</w>
frustr ating</w>
front- loaded</w>
fric tions</w>
foreg o</w>
for ci
figh ter</w>
fif teen</w>
fier cely</w>
fi st</w>
fet ched</w>
fast- growing</w>
fanati cism</w>
fai rer</w>
fa ire</w>
f aded</w>
expres sions</w>
expan ds</w>
excell ence</w>
ex o
evi dence-based</w>
ev ic
euph oria</w>
ess ed</w>
ess ay</w>
erec ted</w>
er k</w>
equ ations</w>
envi sioned</w>
entu k</w>
entru sted</w>
enhan ces</w>
ener getic</w>
en voy</w>
em itting</w>
elec ting</w>
ele ph
el ation</w>
ec ki</w>
ear ners</w>
ear liest</w>
e ternal</w>
e t-
e ars</w>
dy nasty</w>
du l</w>
down turns</w>
down stream</w>
down gra
double- dip</w>
dor man
do om</w>
diver gences</w>
distur bed</w>
discer n</w>
disast er-
dis satisfaction</w>
dis close</w>
dis ability</w>
diper lukan</w>
dict ated</w>
di mana</w>
der ail</w>
den ucleari
defici ency</w>
decou pling</w>
debt- financed</w>
dea f</w>
de served</w>
de l
de dly</w>
da shed</w>
da red</w>
d ust</w>
d enti
cur ve</w>
cry st
cru elty</w>
crow n</w>
crow ding</w>
credit worthiness</w>
correc tions</w>
cop y
cooper atives</w>
control l
consi sting</w>
conqu er</w>
conf using</w>
conf is
conc ession</w>
complic ations</w>
compli cit</w>
comple xi
compar atively</w>
common place</w>
com pares</w>
colon ies</w>
co vers</w>
co exist</w>
clo thes</w>
clean ing</w>
cla uses</w>
chron ically</w>
chau vinism</w>
ch un
ch e</w>
catastroph es</w>
car bo
calcul us</w>
c ow
c ages</w>
c ables</w>
burden -sharing</w>
bul lying</w>
buil ds</w>
buil ders</w>
brink manship</w>
bre ad</w>
bon us</w>
bol der</w>
bio technology</w>
bin ge</w>
bigo try</w>
big -
ber ing</w>
batt ling</w>
b und</w>
b do</w>
awa b</w>
aw atra</w>
atur an</w>
atro city</w>
ato yama</w>
at tained</w>
assa ults</w>
as sist
as e-
ape u
ap h
ap apun</w>
anticip ating</w>
anni hil
animo sity</w>
ane w</w>
ancho red</w>
analy zing</w>
ameli orate</w>
am ended</w>
alloc ating</w>
ai res</w>
advent ures</w>
ad mitting</w>
ab eth</w>
a w</w>
a verse</w>
Y outh</w>
Y ale</w>
Wolf gang</w>
W inston</w>
Uni versal</w>
US- Japan</w>
UK IP</w>
U A
Tran sp
Terr or
T rou
T eng
T al
T R
Sy n
So ve
Sing le</w>
Sic huan</w>
Siber ia</w>
Shin awatra</w>
Sh ev
Sett lements</w>
Ser bs</w>
Schum pe
S put
S pace</w>
Rou ge</w>
Re li
R ise</w>
R ev
R an
Q E
Pri v
Par ado
P ic
P ent
P alin</w>
Out look</w>
Osse tia</w>
O f</w>
Nu rem
NI A</w>
N eigh
M oun
M ou
M E
Less ons</w>
L yn
L O</w>
L IF
Kh mer</w>
Ke qiang</w>
Kadi ma</w>
Kad yrov</w>
Je re
Je an</w>
JP Morgan</w>
J ack
J .</w>
Ine quality</w>
Indi a-
I V
I D</w>
I D
Hom o</w>
Holl and</w>
Helmu t</w>
He bdo</w>
He alth
Ham id</w>
H ir
H atoyama</w>
Guine a</w>
Govern ance</w>
Gil ani</w>
Gh raib</w>
G ame</w>
French -
F ar</w>
F -
Europe an-
Eliz abeth</w>
Eisen hower</w>
E rit
E ff
Dom inic
Di se
D r.</w>
D o</w>
D S
Confuci anism</w>
Comp any</w>
Com ing</w>
Clu b</w>
Chile an</w>
Cha se</w>
Ch e
Car los</w>
C D</w>
C A</w>
Bre zhne
Bom b</w>
Ban ks</w>
B undestag</w>
B lu
B ad
B NP</w>
Armen ians</w>
Angel es</w>
A z
A rea</w>
A k
A N
9 ,000</w>
7 7</w>
6 8</w>
5 9</w>
5 8</w>
4 0
4 ,
30- year</w>
20 th</w>
2. 6</w>
2 3
195 0s</w>
193 9</w>
193 8</w>
19 00</w>
12 th</w>
1 10</w>
0. 9</w>
. com</w>
ह र</w>
सब से</w>
लोग ों</w>
य ु
मह त</w>
बी च</w>
न िय
न ई</w>
थ ि
तर ह</w>
त ियों</w>
ट ी
च ि
कि सी</w>
क ों</w>
औ र
आ र</w>
ú n</w>
é r
z awa</w>
yi v</w>
wrong ly</w>
write- downs</w>
writ es</w>
work ings</w>
wo efully</w>
wil d
weigh ing</w>
war ns</w>
wal ked</w>
w ine</w>
vit ally</w>
vis as</w>
virul ent</w>
vir uses</w>
vil le</w>
vig or</w>
veter ans</w>
veter an</w>
ver ted</w>
v ailing</w>
uti lization</w>
us pic
up surge</w>
unequivo cal</w>
under lies</w>
un seen</w>
un productive</w>
un funded</w>
un foreseen</w>
un controlled</w>
un ambiguous</w>
um nya</w>
u han</w>
u b
twi st</w>
tw ins</w>
tu re-
tsunam is</w>
trum pe
tru ce</w>
tric ks</w>
tri tion</w>
tri ps</w>
travel ers</w>
transl ates</w>
trade off</w>
tim id</w>
tim icro
ti um</w>
ti sa
tisa ari</w>
thwar t</w>
thor ough
thorough ly</w>
ther apeu
the ological</w>
tex tiles</w>
tex tile</w>
ter med</w>
ter ies</w>
ten ets</w>
teen agers</w>
tec tonic</w>
tant angan</w>
tac i
taci ón</w>
t our
tour nam
t asked</w>
t ans</w>
syn drome</w>
surpris es</w>
surg ical</w>
sur round</w>
supervi se</w>
super star</w>
sun light</w>
sugg estion</w>
substan ces</w>
sub marine</w>
stri pped</w>
str anger</w>
sto ked</w>
stimul ated</w>
ste re
ste in</w>
ste al</w>
standardi zed</w>
stagn ated</w>
sta unch</w>
st- growing</w>
st ab
ss al</w>
spil ls</w>
spil led</w>
sp ying</w>
soli di
so v</w>
smo kers</w>
smar t
sla shing</w>
sig nature</w>
si le</w>
shar per</w>
sh allow</w>
set ts</w>
set backs</w>
sen ator</w>
sel fish</w>
sej ak</w>
secre tly</w>
sec es
se iring</w>
scre en</w>
sacrific ing</w>
sa ja</w>
s tion</w>
s ounding</w>
s now
s man</w>
rup ture</w>
ru mah</w>
rol ls</w>
ro bu
risk- free</w>
ring- f
rid dled</w>
respec table</w>
repe ating</w>
renmin bi
ren t-
ren d
remo tely</w>
rele asing</w>
rela xing</w>
regain ed</w>
refu ge</w>
refor mists</w>
redi t</w>
recy cling</w>
reas oned</w>
re tribution</w>
re taining</w>
re par
re now
renow ned</w>
ran ged</w>
ra ged</w>
ra d</w>
r ine</w>
r allying</w>
qu akes</w>
pum ped</w>
process ed</w>
proble m-
prob abilities</w>
pro w
pro long</w>
princi pled</w>
prin ted</w>
prejudic e</w>
pre tense</w>
pre sided</w>
pr ong
post- 1945</w>
post uring</w>
posi tioning</w>
pollu ting</w>
plur ality</w>
plain ti
plain ly</w>
pi ent</w>
physici ans</w>
photo graph
pertan ian</w>
per n
par ks</w>
pa stor
oy u</w>
over t</w>
over lap</w>
ous es</w>
ou trage
ou fak
ori um</w>
ori bund</w>
ones el
onesel f</w>
one- half</w>
oli n</w>
oil- rich</w>
ocr atic</w>
o t-
nutri ents</w>
normali ze</w>
non- existent</w>
no ve
nit ro
nic ot
ni h
nih ili
ner -
nec k</w>
nation- building</w>
narco tics</w>
n on</w>
my ster
mus cular</w>
moun table</w>
mos que</w>
mor tal</w>
monit ors</w>
mone tization</w>
mo dal</w>
min erals</w>
mighti ly</w>
midd le
mid- term</w>
micro economic</w>
mess y</w>
mer it
mer gers</w>
mer canti
men cap
memb eri
memberi kan</w>
mediev al</w>
mechan ics</w>
measu rement</w>
margin ally</w>
mar t</w>
mar ched</w>
mandar ins</w>
ma lity</w>
m u</w>
m oribund</w>
m ity</w>
m ati
long- overdue</w>
long- lasting</w>
long- awaited</w>
logis tical</w>
liquid ate</w>
lin er</w>
lim itation</w>
life- threatening</w>
lev y</w>
lembag a</w>
lea f</w>
le xi
le ez
leez za</w>
le ak</w>
law suits</w>
lavi sh</w>
lau ded</w>
lan ta</w>
lag ged</w>
lab eled</w>
la undering</w>
l ung</w>
l ation</w>
komit men</w>
kil ls</w>
kil ler</w>
kid n
ke ber
k us</w>
k up</w>
k sida</w>
k nya</w>
jiha dis</w>
j awab</w>
j angka</w>
j al
j ailed</w>
j ac
it em</w>
is s
inter governmental</w>
int entional</w>
inspi res</w>
inj ustices</w>
inhab ited</w>
incur sion</w>
inci pient</w>
in stig
in sec
in door</w>
in d-the-
ind-the- scenes</w>
in ate</w>
im it
im bu
illustr ate</w>
ill er</w>
il le</w>
il ings</w>
ic ing</w>
i shes</w>
i ously</w>
humili ated</w>
human ities</w>
horm one</w>
horiz ons</w>
ho sting</w>
hi to</w>
hi ko</w>
hi king</w>
hesit ant</w>
head -
he ir</w>
haz ards</w>
hard- line</w>
har vest</w>
har to</w>
har ms</w>
hang s</w>
ha dap
h int</w>
gu est</w>
great -
gra p
gra bbing</w>
glar ing</w>
gl ori
gh outi</w>
gen omics</w>
gam bling</w>
g au
g ades</w>
frustr ations</w>
free ing</w>
for ward-looking</w>
fo witz</w>
fo ol</w>
flo at</w>
fl u</w>
fin ger</w>
fic tion</w>
fam ily-
f lights</w>
f ing</w>
explo red</w>
explo ded</w>
exp atri
exhi bition</w>
exerci sing</w>
ex tric
ex as
evange lical</w>
ev o
ev ap
ev ade</w>
es is</w>
es che
err atic</w>
eradic ating</w>
equi p</w>
enrich ing</w>
ende av
end owed</w>
end ang
encla ves</w>
en tic
emo tion</w>
ele mentary</w>
ec raft</w>
earth quakes</w>
eag er
e tri
du ly</w>
dra stically</w>
dra gging</w>
divor ce</w>
displa yed</w>
discre pan
dis m</w>
dis connect</w>
dio vascular</w>
di ary</w>
determin es</w>
depreci ated</w>
deleg ates</w>
dek ade</w>
def erred</w>
deal ers</w>
de t
dau ghters</w>
d ressed</w>
d ental</w>
curricul a</w>
cu le</w>
cu kup</w>
cru shing</w>
cross roads</w>
cre ators</w>
cr atic</w>
counter vailing</w>
cor respon
contribu tor</w>
contrac tor</w>
continu ously</w>
contex tual</w>
contemp t</w>
constitu ent</w>
conspic uous</w>
consen sual</w>
concent rating</w>
con undrum</w>
communiqu é</w>
commer ci
comman ding</w>
combu stion</w>
com e
colo ssal</w>
collabor ative</w>
co s
clo sures</w>
cle aring</w>
cle ared</w>
cl oud</w>
chur ches</w>
char itable</w>
cha irs</w>
ch arities</w>
ceremon y</w>
ce ilings</w>
ce de</w>
carbo hyd
car ic
car diovascular</w>
cap tures</w>
cad angan</w>
ca us
ca sh-
c les</w>
c ell
c age</w>
burea uc
bu ys</w>
brigh test</w>
brea thing</w>
brea the</w>
br ac
bottlenec ks</w>
bo thered</w>
bo l</w>
bizar re</w>
birth day</w>
ber kem
belong ed</w>
beh ind-the-scenes</w>
be side</w>
ban gan</w>
ban g
bal lots</w>
bab ies</w>
ba g</w>
b are</w>
az ir</w>
aw k
aw al</w>
aver ting</w>
au gment</w>
att or
ati f</w>
at tain
at ment</w>
associ ate</w>
as su
as on</w>
arri ving</w>
ari th
aren dra</w>
ar bon
appoin ting</w>
apologi ze</w>
ap athy</w>
anti- Japanese</w>
anti- European</w>
answ ering</w>
anonym ous</w>
analy zed</w>
analy st</w>
an ach
anach ron
amp ing</w>
all ure</w>
alig ning</w>
al- Sha
al ert</w>
aki bat</w>
air port</w>
air plane</w>
aggrav ate</w>
age ous</w>
ag ro
after -
admir ation</w>
acu tely</w>
acc using</w>
ac on</w>
ac are</w>
abu l</w>
abduc tion</w>
abduc ted</w>
ab a</w>
a uspic
Y ush
Y et</w>
Wom en</w>
Wol fowitz</w>
Wo od
Wh o</w>
Tus k</w>
T z
T F
Sul tan</w>
Su harto</w>
Su fi</w>
Su de
Ste ph
Sta ff</w>
Sput nik</w>
Shi ites</w>
Schumpe ter</w>
Schum an</w>
Sch war
Sal v
Sal eh</w>
Sa ve</w>
Sa hel</w>
SW F</w>
S ão</w>
S hu
Ris k</w>
R az
R -
Pro p
Presid ents</w>
Po int</w>
Plan ning</w>
Pent agon</w>
Parado x</w>
PA C</w>
P ath</w>
Obam acare</w>
OR NIA</w>
O zawa</w>
Na if</w>
N arendra</w>
N am
Mon net</w>
Mo bil</w>
Mexic ans</w>
Mad uro</w>
Ma c</w>
MF F</w>
M e</w>
M a</w>
Li v
Li fe</w>
LIF ORNIA</w>
L om
L au
L ady</w>
K yiv</w>
K abul</w>
Ju an</w>
Jer man</w>
Jap an-
Indone sian</w>
IR G
I k
H ol
H ab
Guang dong</w>
Gold stone</w>
German -
Gam al</w>
G ei
G ar
G a
Fran co</w>
Fo ot
Fle mish</w>
Feder ation</w>
Fe ar</w>
F our</w>
F ol
F ar
F C</w>
Emer ging</w>
EU- 15</w>
E vo</w>
E ver
De tro
D ick</w>
Contin ent</w>
Concer tación</w>
Com peti
Coali tion</w>
Co sta</w>
Christ ine</w>
Cent ury</w>
CP I</w>
CA LIFORNIA</w>
Bu rea
Brezhne v</w>
Ben azir</w>
Bar ghouti</w>
Banglade shi</w>
Ba sic</w>
BR IC</w>
BM I</w>
B uc
B BC</w>
An na</w>
Alg erian</w>
Alawit e</w>
Ah tisaari</w>
Afgh ans</w>
Ab dul</w>
A n</w>
A id</w>
A D
9 3</w>
8 8</w>
4. 8</w>
4. 1</w>
4 50</w>
4 0,000</w>
3. 8</w>
3. 4</w>
200 -
197 7</w>
196 3</w>
195 8</w>
193 2</w>
1 2-
- era</w>
ृ त</w>
हो ने</w>
ल ी
ल ि
रा ज
रह े</w>
रह ी</w>
र िया</w>
र ा</w>
र क</w>
मे रि
ब ो
ब ि
ब द
नी य</w>
त ु
ट ि
अध ि
अंत र</w>
अ मेरि
अ नु
ंग े</w>
ं ग</w>
í a</w>
á n
zz le</w>
z yn
ye v</w>
yaw ning</w>
y- high</w>
xenopho bic</w>
xenopho bia</w>
x on
xon Mobil</w>
wis er</w>
wind fall</w>
win ding</w>
wil ls</w>
[...]
