#version: 0.2
国 家</w>
— —</w>
美 国</w>
经 济</w>
政 府</w>
2 0
中 国</w>
问 题</w>
欧 洲</w>
可 能</w>
没 有</w>
政 策</w>
政 治</w>
世 界</w>
已 经</w>
经 济
需 要</w>
增 长</w>
全 球</w>
市 场</w>
必 须</w>
危 机</w>
应 该</w>
银 行</w>
发 展</w>
欧 盟</w>
20 0
社 会</w>
主 义</w>
1 9
地 区</w>
重 要</w>
认 为</w>
支 持</w>
投 资</w>
成 为</w>
影 响</w>
无 法</w>
总 统</w>
这 种</w>
进 行</w>
提 供</w>
现 在</w>
部 分</w>
俄 罗
情 况</w>
美 元</w>
计 划</w>
导 致</w>
方 面</w>
组 织</w>
金 融</w>
增 加</w>
德 国</w>
公 司</w>
包 括</w>
以 色
伊 朗</w>
债 务</w>
目 标</w>
0 0
改 革</w>
俄罗 斯</w>
事 实
正 在</w>
实 现</w>
20 1
事实 上</w>
日 本</w>
以色 列</w>
领 导
带 来</w>
发 生</w>
斯 坦</w>
能 够</w>
安 全</w>
民 主</w>
机 构</w>
之 间</w>
风 险</w>
主 要</w>
未 来</w>
获 得</w>
要 求</w>
解 决</w>
印 度</w>
国 际</w>
存 在</w>
收 入</w>
货 币</w>
财 政</w>
领导 人</w>
金 融
不 会</w>
国 际
目 前</w>
变 化</w>
成 功</w>
行 动</w>
关 系</w>
长 期</w>
建 立</w>
也 是</w>
造 成</w>
法 国</w>
更 多</w>
时 间</w>
最 近</w>
持 续</w>
价 格</w>
欧 元
不 能</w>
欧 洲
英 国</w>
出 现</w>
稳 定</w>
战 争</w>
不 同</w>
企 业</w>
继 续</w>
技 术</w>
特 别</w>
如 今</w>
行 为</w>
主 义
得 到</w>
希 腊</w>
利 亚</w>
利 益</w>
央 行</w>
产 生</w>
伊 斯
同 样</w>
采 取</w>
希 望</w>
拉 克</w>
严 重</w>
一 直</w>
更 加</w>
国 内</w>
作 用</w>
规 模</w>
历 史</w>
能 源</w>
意 味
选 举</w>
意味 着</w>
贸 易</w>
选 择</w>
似 乎</w>
面 临</w>
西 方</w>
能 力</w>
水 平</w>
最 终</w>
欧元 区</w>
决 定</w>
0 年
挑 战</w>
威 胁</w>
原 因</w>
措 施</w>
一 步</w>
工 作</w>
可 能
表 明</w>
战 略</w>
是 否</w>
接 受</w>
部 门</w>
方 案</w>
拥 有</w>
阿 拉
研 究</w>
美 国
人 口</w>
多 数</w>
下 降</w>
奥 巴
方 式</w>
军 事</w>
协 议</w>
合 作</w>
亚 洲</w>
自 由</w>
各 国</w>
巨 大</w>
提 高</w>
成 本</w>
实 施</w>
利 率</w>
使 用</w>
） 。</w>
机 会</w>
冲 突</w>
学 家</w>
程 度</w>
0 年</w>
教 育</w>
资 本</w>
货 币
巴 勒
令 人</w>
改 变</w>
伊 拉克</w>
G D
制 度</w>
一 次</w>
环 境</w>
联 合
联 盟</w>
控 制</w>
” 。</w>
减 少</w>
需 求</w>
降 低</w>
并 不</w>
十 年</w>
奥巴 马</w>
世 界
保 护</w>
谈 判</w>
观 点</w>
真 正</w>
权 力</w>
亿 美元</w>
委 员
a n
公 共</w>
因 素</w>
几 乎</w>
巴勒 斯坦</w>
完 全</w>
仍 然</w>
系 统</w>
也 许</w>
体 系</w>
一 点</w>
都 是</w>
生 活</w>
力 量</w>
e r
资 金</w>
世 纪</w>
个 人</w>
承 诺</w>
变 得</w>
有 人</w>
欧 元</w>
有 效</w>
0 %</w>
基 础</w>
反 对</w>
和 平</w>
伊斯 兰
援 助</w>
） ，</w>
进 一步</w>
将 会</w>
叙 利亚</w>
出 口</w>
投 资
提 出</w>
不 断</w>
非 常</w>
重 新</w>
委员 会</w>
资 源</w>
GD P</w>
领 导</w>
避 免</w>
成 员
过 去</w>
a r
起 来</w>
成员 国</w>
一 个</w>
帮 助</w>
大 部分</w>
具 有</w>
武 器</w>
经济 体</w>
石 油</w>
19 9
。 ”</w>
地 位</w>
共 同</w>
做 出</w>
a s
世 纪
关 键</w>
地 方</w>
动 力</w>
责 任</w>
项 目</w>
监 管</w>
就 会</w>
资 产</w>
努 力</w>
之 后</w>
仅 仅</w>
达 到</w>
就 业</w>
今 天</w>
类 似</w>
确 保</w>
保 持</w>
领 域</w>
自 由
当 前</w>
知 道</w>
活 动</w>
事 件</w>
超 过</w>
关 注</w>
非 洲</w>
条 件</w>
最 大</w>
大 量</w>
维 持</w>
支 出</w>
模 式</w>
e n
限 制</w>
人 民</w>
过 程</w>
创 造</w>
恐 怖
可能 会</w>
” ，</w>
服 务</w>
管 理</w>
o n
至 少</w>
国 家
一 场</w>
整 个</w>
压 力</w>
全 球
刺 激</w>
价 值</w>
t i
现 实</w>
法 律</w>
传 统</w>
经济 增长</w>
状 况</w>
改 善</w>
应 对</w>
赤 字</w>
预 算</w>
不 可</w>
家 庭</w>
取 得</w>
公 民</w>
生 产</w>
消 费</w>
政 权</w>
移 民</w>
方 法</w>
危 险</w>
利 用</w>
气 候
发 现</w>
美 联
巴 基
根 本</w>
生 产
欧洲 央行</w>
实 际</w>
人 类</w>
债 券</w>
贫 困</w>
更 为</w>
土 耳
全 世界</w>
错 误</w>
埃 及</w>
美联 储</w>
大 多数</w>
显 然</w>
参 与</w>
穆 斯
直 接</w>
民 主
相 对</w>
时 代</w>
金融 危机</w>
最 后</w>
公 众</w>
两 个</w>
不 再</w>
巴基 斯坦</w>
会 议</w>
土耳 其</w>
私 人</w>
运 动</w>
识 到</w>
贷 款</w>
更 大</w>
试 图</w>
依 然</w>
5 年</w>
衰 退</w>
繁 荣</w>
形 成</w>
民 众</w>
上 述</w>
8 年</w>
投资 者</w>
考 虑</w>
上 升</w>
设 施</w>
并 没有</w>
扩 大</w>
结 束</w>
重 大</w>
5 %</w>
事 实</w>
这 一点</w>
气候 变化</w>
总 理</w>
乌 克
失 败</w>
内 部</w>
信 息</w>
破 坏</w>
日 益</w>
暴 力</w>
理 解</w>
指 出</w>
尤 其</w>
越 来
机 制</w>
文 化</w>
复 苏</w>
大 规模</w>
担 心</w>
个 月</w>
或 许</w>
i n
越来 越</w>
引 发</w>
中 东</w>
m d
阿拉 伯
普 京</w>
as h</w>
独 立</w>
官 员</w>
很 多</w>
md ash</w>
相 信</w>
革 命</w>
规 则</w>
乌克 兰</w>
愿 意</w>
竞 争
0年 代</w>
证 明</w>
议 会</w>
推 动</w>
解 释</w>
陷 入</w>
过 去
实 际
承 认</w>
外 交</w>
阿 富
意 大
并 非</w>
削 减</w>
相 反</w>
竞 争</w>
唯 一</w>
所 谓</w>
依 赖</w>
经济 学家</w>
只 能</w>
意 义</w>
达 成</w>
分 子</w>
表 现</w>
相 关</w>
用 于</w>
创 新</w>
平 衡</w>
20 世纪
数 据</w>
代 表</w>
拒 绝</w>
理 由</w>
一 项</w>
两 国</w>
主 权</w>
十 分</w>
科 学</w>
制 定</w>
产 品</w>
标 准</w>
权 利</w>
宗 教</w>
范 围</w>
基 本</w>
实际 上</w>
联合 国</w>
结 构</w>
明 确</w>
年 前</w>
以 来</w>
劳 动力</w>
缺 乏</w>
人 民
时 期</w>
强 大</w>
主义 者</w>
进 入</w>
调 整</w>
核 心</w>
9 年</w>
政 治
— —
阿富 汗</w>
容 易</w>
爆 发</w>
排 放</w>
报 告</w>
反 应</w>
有 所</w>
手 段</w>
城 市</w>
社 会
一 位</w>
之 前</w>
I M
领 袖</w>
通 胀</w>
袭 击</w>
数 量</w>
代 价</w>
成 员</w>
1 年</w>
增 长
预 测</w>
今 年</w>
很 大</w>
健 康</w>
意大 利</w>
基 金
损 失</w>
当 时</w>
2 年</w>
允 许</w>
进 程</w>
基 础
经 历</w>
一 致</w>
西 班
看 到</w>
税 收</w>
积 极</w>
视 为</w>
第 二
穆斯 林</w>
实 力</w>
朝 鲜</w>
通 常</w>
融 资</w>
工 资</w>
讨 论</w>
感 到</w>
阻 止</w>
进 步</w>
反 映</w>
快 速</w>
宣 布</w>
不 到</w>
商 品</w>
道 德</w>
3 年</w>
承 担</w>
难 以</w>
准 备</w>
军 队</w>
广 泛</w>
加 入</w>
办 法</w>
期 间</w>
联 系</w>
新 兴
面 对</w>
共 和
条 约</w>
必 要</w>
基础 设施</w>
00 0
也 有</w>
干 预</w>
每 年</w>
应 当</w>
全球 化</w>
网 络</w>
统 治</w>
经 常</w>
民 族</w>
外 交
韩 国</w>
消 费
引 起</w>
发 达
保 证</w>
显 示</w>
目 的</w>
是 因
多 人</w>
是因 为</w>
趋 势</w>
失 业
基 金</w>
相 当</w>
正 确</w>
宪 法</w>
集 团</w>
困 难</w>
某 种</w>
后 果</w>
俄 国</w>
足 够</w>
平 等</w>
确 实</w>
财 富</w>
布 什</w>
儿 童</w>
o r
迅 速</w>
角 色</w>
中 央
崩 溃</w>
汇 率</w>
恢 复</w>
腐 败</w>
发达 国家</w>
行 业</w>
促 进</w>
货币 政策</w>
西班 牙</w>
事 情</w>
比 亚</w>
媒 体</w>
1 0
失 去</w>
政 党</w>
外 国</w>
原 则</w>
一 部分</w>
一 定</w>
4 年</w>
过 度</w>
好 处</w>
贸 易
处 于</w>
主 席</w>
态 度</w>
复 杂</w>
曾 经</w>
形 式</w>
更 好</w>
寻 求</w>
1 6
分 之
选 民</w>
巴 西</w>
商 业</w>
大 幅</w>
7 年</w>
工 具</w>
明 显</w>
毕 竟</w>
简 单</w>
崛 起</w>
紧 缩</w>
往 往</w>
工 人</w>
另 一个</w>
部 长</w>
立 场</w>
墨 西
开 放</w>
医 疗</w>
一 起</w>
鼓 励</w>
理 论</w>
， “</w>
建 设</w>
资 本
确 定</w>
定 性</w>
优 势</w>
大 学</w>
潜 在</w>
阿拉 伯</w>
短 期</w>
东 西</w>
公 开</w>
效 果</w>
哈 马
再 次</w>
其 实</w>
预 期</w>
防 止</w>
当 局</w>
200 8年</w>
苏 联</w>
加 强</w>
交 易</w>
可 持续</w>
： “</w>
赢 得</w>
共 产
1 2
购 买</w>
统 一</w>
极 端</w>
之 外</w>
中 心</w>
速 度</w>
贬 值</w>
肯 定</w>
外 部</w>
处 理</w>
建 议</w>
反 对
人 员</w>
想 要</w>
些 人</w>
逐 渐</w>
核 武器</w>
信 心</w>
a l
女 性</w>
决 策
19 8
该 国</w>
同 意</w>
中 国
影 响
决 策</w>
平 均</w>
追 求</w>
表 示</w>
经 验</w>
恶 化</w>
1 1
数 字</w>
国 会</w>
坚 持</w>
框 架</w>
完 成</w>
治 理</w>
国际 社会</w>
合 理</w>
气 候</w>
任 务</w>
灾 难</w>
支 持
找 到</w>
几 年</w>
竞争 力</w>
放 弃</w>
思 想</w>
影响 力</w>
IM F</w>
制 裁</w>
现 代</w>
担 忧</w>
削 弱</w>
银 行
都 会</w>
组 成</w>
成 立</w>
金融 市场</w>
调 查</w>
尼 亚</w>
失 业</w>
失业 率</w>
民 族
可能 性</w>
认 识到</w>
解 决
例 子</w>
转 变</w>
人 权</w>
疾 病</w>
当 今</w>
评 估</w>
强 调</w>
19 7
墨西 哥</w>
足 以</w>
证 据</w>
流 动
前 景</w>
尔 ·
助 于</w>
制 造</w>
集 中</w>
情 绪</w>
怀 疑</w>
遭 到</w>
要 性</w>
天 然
大 约</w>
难 民</w>
现 象</w>
打 击</w>
增长 率</w>
哈马 斯</w>
转 移</w>
联合 国
解决 方案</w>
对 此</w>
犹 太
更 高</w>
a m
举 行</w>
不 足</w>
有 助于</w>
支 付</w>
国际 货币
去 年</w>
势 力</w>
满 足</w>
最 高</w>
最 新</w>
充 分</w>
执 行</w>
不 幸</w>
秩 序</w>
决策 者</w>
伙 伴</w>
比 例</w>
福 利</w>
很 难</w>
第 三
i t
二 十
国际货币 基金
变 成</w>
全 面</w>
策 略</w>
值 得</w>
状 态</w>
泡 沫</w>
局 面</w>
区 域</w>
就 像</w>
其 他
大 国</w>
r e
伊斯 兰</w>
遏 制</w>
者 们</w>
双 方</w>
i s
精 神</w>
本 国</w>
经济 学</w>
清 楚</w>
扩 张</w>
分 配</w>
r o
分 裂</w>
通 货
效 率</w>
看 来</w>
o n</w>
强 化</w>
生产 率</w>
道 路</w>
治 疗</w>
消费 者</w>
总 是</w>
远 远</w>
规 定</w>
开 发</w>
人 士</w>
事 务</w>
有 着</w>
北 约</w>
储 备</w>
不 得
黎 巴
批 评</w>
做 法</w>
食 品</w>
伦 敦</w>
i c
世界 上</w>
相 比</w>
外交 政策</w>
现 有</w>
邻 国</w>
局 势</w>
财 政
下 跌</w>
知 识</w>
动 荡</w>
& #
普 遍</w>
天然 气</w>
停 止</w>
a l</w>
系 列</w>
死 亡</w>
彻 底</w>
市 场
储 蓄</w>
联 合</w>
生 命</w>
峰 会</w>
争 论</w>
了 解</w>
不 仅仅</w>
农 业</w>
斗 争</w>
发 达</w>
投 票</w>
人民 币</w>
并 未</w>
官 方</w>
许 多人</w>
年 轻
对 其</w>
迫 使</w>
正 式</w>
方 向</w>
十 年
不 可
信 任</w>
通货 膨
进 展</w>
负 担</w>
群 体</w>
纽 约</w>
提 升</w>
执 政</w>
合 法
6 年</w>
结 构
真 实</w>
转 型</w>
补 贴</w>
糟 糕</w>
所 有人</w>
一 系列</w>
体 制</w>
付 出</w>
胜 利</w>
毫 无
极 大</w>
越 多</w>
学 生</w>
第 一
燃 料</w>
设 计</w>
很 快</w>
候 选
寻 找</w>
冲 击</w>
信 用</w>
i l
氧 化
吸 引</w>
即 将</w>
重 要性</w>
技 能</w>
几 个</w>
e s
进 口</w>
一 体
具 体</w>
障 碍</w>
最 为</w>
想 象</w>
妇 女</w>
自 然</w>
不得 不</w>
a c
相 互</w>
分 析</w>
就 能</w>
a ti
2 %</w>
国 民</w>
利 于</w>
符 合</w>
年轻 人</w>
1 8
良 好</w>
一体 化</w>
教 训</w>
发 挥</w>
利 润</w>
总 体</w>
e l
预 计</w>
欢 迎</w>
债 权
中央 银行</w>
退 出</w>
新兴 市场</w>
克 里
依 靠</w>
国际货币基金 组织</w>
加 剧</w>
以 前</w>
中 ，</w>
痛 苦</w>
工 业</w>
大 选</w>
专 家</w>
领 土</w>
阶 段</w>
负 责</w>
百 万</w>
保 险</w>
a n</w>
种 族</w>
决 于</w>
1 .
取 决于</w>
候选 人</w>
紧 张</w>
破 产</w>
公 平</w>
虑 到</w>
考 虑到</w>
左 右</w>
1 5
遭 受</w>
疑 问</w>
极 端
收 益</w>
投 入</w>
盟 友</w>
201 0年</w>
质 量</w>
显 著</w>
开 支</w>
o l
日 本
政 客</w>
团 结</w>
从 未</w>
阿 根
阶 级</w>
常 常</w>
家 们</w>
a t
意 识到</w>
角 度</w>
部 队</w>
恐怖 主义</w>
身 份</w>
美国 人</w>
华 盛
几 十年</w>
产 业</w>
民主 党</w>
比 较</w>
增 强</w>
摆 脱</w>
强 烈</w>
分之 一</w>
称 为</w>
呼 吁</w>
利 比亚</w>
空 间</w>
激 励</w>
最 好</w>
变 革</w>
研 究
对 抗</w>
二 氧化
当 选</w>
黎巴 嫩</w>
现 代
发 表</w>
一 半</w>
流动 性</w>
实 行</w>
分 歧</w>
注 意
波 兰</w>
尼 亚
多 年</w>
基 地</w>
学 校</w>
0 .
消 除</w>
消 息</w>
差 异</w>
对 手</w>
宽 松</w>
越 来</w>
逊 尼
被 迫</w>
生 物</w>
欧 盟
攻 击</w>
7 %</w>
说 法</w>
混 乱</w>
未 能</w>
接 近</w>
贡 献</w>
警 告</w>
指 责</w>
不 愿</w>
自 我</w>
构 成</w>
土 地</w>
欧洲 人</w>
最 佳</w>
得 以</w>
体 现</w>
3 %</w>
房 地
o m
一 年</w>
禁 止</w>
新 兴</w>
债权 人</w>
200 9年</w>
首 相</w>
在 内</w>
二 战</w>
民族 主义</w>
取 代</w>
采 用</w>
还 没有</w>
互 联
一 条</w>
扮 演</w>
变 暖</w>
充 满</w>
下 去</w>
阻 碍</w>
转 向</w>
法 院</w>
油 价</w>
通 胀
精 英</w>
程 序</w>
新 闻</w>
效 应</w>
大 陆</w>
供 应</w>
一 份</w>
1 %</w>
答 案</w>
提 振</w>
团 体</w>
反对 派</w>
众 多</w>
什 叶
资 产
金融 机构</w>
忽 视</w>
o u
重 建</w>
质 疑</w>
困 境</w>
上 涨</w>
矛 盾</w>
持 有</w>
经济 发展</w>
相 同</w>
成 就</w>
孩 子</w>
管 理
宏 观
回 到</w>
萧 条</w>
伤 害</w>
重 组</w>
缅 甸</w>
发 动</w>
严 格</w>
相 反
对 话</w>
协 定</w>
二氧化 碳</w>
阿根 廷</w>
爱 尔
估 计</w>
19 6
背 景</w>
理 念</w>
以 后</w>
缓 慢</w>
有 限</w>
批 准</w>
德 ·
互联 网</w>
主 导</w>
201 2年</w>
负 债
毫无 疑问</w>
正 常</w>
意 愿</w>
回 报</w>
合法 性</w>
制 造
违 约</w>
过 于</w>
而 易
更 有</w>
才 是</w>
价 值
下 来</w>
4 %</w>
适 应</w>
究 竟</w>
推 进</w>
缺 少</w>
支持 者</w>
竞 选</w>
汽 车</w>
单 一</w>
明 白</w>
作 出</w>
0年 代
工 业
层 面</w>
5 0
两 大</w>
生 活
普 通</w>
资本 主义</w>
开 始</w>
共和 党</w>
脆 弱</w>
表 达</w>
恐 惧</w>
基 因</w>
地 球</w>
t h
自 然
这 样
这 一
给 予</w>
掌 握</w>
安 全
协 调</w>
概 念</w>
岗 位</w>
少 数</w>
可 靠</w>
世界 银行</w>
武 装</w>
争 议</w>
三 个</w>
201 3年</w>
成 果</w>
大 大</w>
&# 16
看 起来</w>
定 义</w>
时 刻</w>
沙 特
方 针</w>
差 距</w>
内 容</w>
很 少</w>
基 本
停 滞</w>
假 设</w>
股 票</w>
宣 称</w>
贫 穷</w>
经济 危机</w>
生 存</w>
理 性</w>
独 裁</w>
思 维</w>
屠 杀</w>
1 00
科 技</w>
告 诉</w>
克 尔</w>
旨 在</w>
年 以来</w>
属 于</w>
不 够</w>
穷 人</w>
法 庭</w>
拯 救</w>
这样 做</w>
沙 特</w>
巨 额</w>
和 平
占 据</w>
低 于</w>
结 论</w>
报 道</w>
帝 国</w>
升 值</w>
保 障</w>
爱尔 兰</w>
不 太</w>
永 远</w>
富 裕</w>
占 领</w>
t e
辩 论</w>
政治 家</w>
所 未
冷 战</w>
共 识</w>
产 量</w>
衡 量</w>
党 派</w>
签 署</w>
损 害</w>
抗 议</w>
地 缘</w>
人 均</w>
3 0
2 .
高 度</w>
拉 克
形 态</w>
工 程</w>
说 明</w>
年 轻</w>
年 后</w>
事 会</w>
访 问</w>
联 邦
学 习</w>
潜 力</w>
工 作
伊斯兰 教</w>
产 阶级</w>
走 向</w>
记 录</w>
背 后</w>
特 征</w>
毫 无</w>
展 开</w>
司 法</w>
信 号</w>
8 %</w>
维 亚</w>
监 督</w>
显 而易
取 消</w>
边 界</w>
深 刻</w>
激 进</w>
合 法</w>
逊尼 派</w>
尊 重</w>
凯 恩
监 管
温 和</w>
政 府
担 任</w>
形 势</w>
安 排</w>
却 是</w>
共产 主义</w>
2 0</w>
缺 陷</w>
尝 试</w>
201 1年</w>
药 物</w>
安 理
加 速</w>
前 所未
克 服</w>
中 产阶级</w>
两 种</w>
不 确
社 区</w>
理 想</w>
中 东
万 亿美元</w>
a d
遭 遇</w>
明 智</w>
整 体</w>
思 考</w>
l e
有 力</w>
有 利于</w>
当 于</w>
幅 度</w>
印 度
人 物</w>
常 规</w>
启 动</w>
保 守
言 论</w>
组 织
指 数</w>
供 给</w>
革 命
相 当于</w>
多 样
卫 生</w>
人 数</w>
参 加</w>
结构 性</w>
第 一个</w>
描 述</w>
五 年</w>
集 体</w>
早 期</w>
恐怖 分子</w>
喜 欢</w>
右 翼</w>
乐 观</w>
20 年</w>
1 0%</w>
第 二</w>
波 动</w>
民 粹
来 源</w>
捍 卫</w>
巩 固</w>
加 上</w>
” （
致 力
现代 化</w>
现 状</w>
欧盟 委员会</w>
放 缓</w>
推 翻</w>
在 一起</w>
受 害
其他 人</w>
释 放</w>
致力 于</w>
故 事</w>
前所未 有</w>
关 重要</w>
一 个
c h
著 名</w>
联 邦</w>
斯 ·
官 僚</w>
公 正</w>
伊斯兰 国</w>
意 识
议 员</w>
美 洲</w>
奇 怪</w>
国 外</w>
一 名</w>
还 会</w>
紧 密</w>
基 督
回 应</w>
包 含</w>
信 贷</w>
促 使</w>
抑 制</w>
关 键
6 %</w>
重 点</w>
贷 款
约 束</w>
流 动</w>
活 力</w>
模 型</w>
犹太 人</w>
感 觉</w>
意 见</w>
在 此</w>
中国 政府</w>
19 4
认 识</w>
无 疑</w>
尔 德
相 似</w>
布 什
主 张</w>
观 念</w>
股 市</w>
极 为</w>
大 型</w>
俄罗 斯
看 法</w>
妥 协</w>
更 重要</w>
恐 怖</w>
参 与
早 已</w>
忽 略</w>
通货膨 胀</w>
维 护</w>
显而易 见</w>
塔 利
借 贷</w>
澳 大
引 力</w>
内 战</w>
入 侵</w>
价值 观</w>
一 代</w>
u r
身 上</w>
结 合</w>
粮 食</w>
服 务
指 标</w>
扩 散</w>
塞 尔
到 来</w>
一 下</w>
（ M
高 达</w>
计 算</w>
美国 政府</w>
相反 ，</w>
不 用</w>
高 于</w>
资产 负债
管 制</w>
安理 会</w>
几 个月</w>
产 出</w>
至 关重要</w>
华盛 顿</w>
决 心</w>
不 要</w>
。 “</w>
默 克尔</w>
立 法</w>
破 坏
格 鲁
房地 产</w>
受害 者</w>
一 天</w>
（ S
行 长</w>
推 行</w>
尔 多
各 地</w>
第 一次</w>
科 学家</w>
可 行</w>
共和 国</w>
举 措</w>
（ A
特 殊</w>
此 前</w>
农 民</w>
19 3
每 个</w>
月 份</w>
放 在</w>
不确 定性</w>
抵 制</w>
所 需</w>
实 体</w>
宏观 经济</w>
大 西
周 期</w>
以 此</w>
运 动
患 者</w>
储 蓄
不 满</w>
不 受</w>
200 7年</w>
注意 力</w>
法 案</w>
比 率</w>
会 导致</w>
e ）</w>
I n
表 现
荷 兰</w>
涉 及</w>
意识 形态</w>
引 入</w>
保 护
什叶 派</w>
镇 压</w>
改 革
多 边</w>
交 易
边 境</w>
超 越</w>
渴 望</w>
来 看</w>
斯 特
平 民</w>
一 家</w>
操 纵</w>
巴 黎</w>
发 布</w>
公 共
税 率</w>
季 度</w>
1 7
高 级</w>
斯 坦
宣 传</w>
一 开始</w>
长 期
迹 象</w>
命 运</w>
台 湾</w>
3 .
手 中</w>
伟 大</w>
1 年
阿 萨
贝 尔
打 破</w>
另 一
制造 业</w>
内 瑞
令 人
费 用</w>
纳 税
澳大 利亚</w>
构 建</w>
庞 大</w>
不 需要</w>
监管 者</w>
左 翼</w>
委 内瑞
回 归</w>
否 认</w>
农 村</w>
语 言</w>
观 察</w>
绝 对</w>
富 有</w>
塔利 班</w>
发 行</w>
刚 刚</w>
盈 余</w>
加 沙</w>
r i
201 4年</w>
香 港</w>
牺 牲</w>
测 试</w>
幸 运</w>
克 林
位 于</w>
互 相</w>
激 烈</w>
承 受</w>
太 多</w>
GD P
首 次</w>
诸 多</w>
穆斯 林
沙特 阿拉伯</w>
摧 毁</w>
吸 引力</w>
受 益</w>
具 备</w>
2 5
谨 慎</w>
统 治
日 渐</w>
德 国
双 边</w>
信 仰</w>
任 期</w>
之 路</w>
义 务</w>
东 亚</w>
u s
o f</w>
还 在</w>
独 立
审 判</w>
动 物</w>
以 往</w>
不 存在</w>
（ T
观 察
污 染</w>
居 民</w>
安 倍</w>
偿 还</w>
亿 欧元</w>
中 期</w>
y ）</w>
艰 难</w>
恐 慌</w>
员 工</w>
之 下</w>
20 %</w>
认 真</w>
武 力</w>
最 初</w>
敌 人</w>
两 年</w>
00 0</w>
谴 责</w>
说 服</w>
统 计</w>
国 ，</w>
可 以
条 款</w>
整 合</w>
持 久</w>
尚 未</w>
外 汇
名 义</w>
警 察</w>
经济 学
情 形</w>
强 硬</w>
去 年
共 同
克里 姆
习 近
201 5年</w>
股 东</w>
想 法</w>
很 多人</w>
升 高</w>
功 能</w>
保 守</w>
传 播</w>
人 群</w>
e s</w>
纳税 人</w>
格鲁 吉
心 理</w>
习近 平</w>
2 1
退 休</w>
表现 出</w>
葡 萄
苏 格
物 质</w>
演 讲</w>
暴 露</w>
前 提</w>
之 中</w>
账 户</w>
愤 怒</w>
病 人</w>
惩 罚</w>
就 是
导 弹</w>
哥 伦
劳 动
m en
（ C
面 前</w>
阿 尔
兴 趣</w>
例 如</w>
20世纪 9
选 票</w>
没 有人</w>
丧 失</w>
一 国</w>
还 能</w>
试 验</w>
突 然</w>
瑞 典</w>
灾 难
法 治</w>
林 斯
期 望</w>
塔 尼亚
医 生</w>
区 别</w>
不 足以</w>
ati on
3 0年</w>
200 6年</w>
麻 烦</w>
阿萨 德</w>
量 化</w>
遵 守</w>
特 定</w>
日 程</w>
排 除</w>
升 级</w>
万 人</w>
l i
化 石
” ——</w>
违 反</w>
行 动
新 加
循 环</w>
逻 辑</w>
通 缩</w>
运 作</w>
终 于</w>
拉 夫</w>
委内瑞 拉</w>
做 到</w>
200 5年</w>
阿 巴
第二 个</w>
全球 性</w>
气 体</w>
本 质</w>
持 续
强 劲</w>
小 时</w>
多 大</w>
供 应
以 下</w>
事 业</w>
。 （</w>
犯 罪</w>
林 宫</w>
支 撑</w>
巴 拉克</w>
各 方</w>
不 过</w>
200 8
高 效</w>
近 期</w>
真 主
朋 友</w>
德 里</w>
很 好</w>
其他 地区</w>
信 誉</w>
个 体</w>
采 取
那 种</w>
透 明</w>
获 胜</w>
英 国
任 命</w>
业 务</w>
&#16 0
阶 层</w>
研 发</w>
疲 软</w>
无 力</w>
回 答</w>
判 断</w>
全 国</w>
伴 随</w>
9 %</w>
采取 行动</w>
资 格</w>
有 利</w>
指 控</w>
平 等
巴 沙
减 轻</w>
这 些人</w>
话 ，</w>
绝 大多数</w>
杠 杆</w>
很 容易</w>
害 怕</w>
不 良</w>
。 ）</w>
11 月</w>
新加 坡</w>
形 象</w>
布 鲁
孤 立</w>
u n
离 开</w>
格鲁吉 亚</w>
显 得</w>
拉 美</w>
廉 价</w>
克里姆 林宫</w>
。 当</w>
19 5
西 亚</w>
萨 达
职 位</w>
细 胞</w>
纳 入</w>
知 识
灾难 性</w>
流 入</w>
年 间</w>
只 不过</w>
争 取</w>
东 欧</w>
失 衡</w>
可 怕</w>
北 京</w>
资产负债 表</w>
绿 色</w>
提 议</w>
指 导</w>
住 房</w>
仍 是</w>
下 滑</w>
e n</w>
1 4
非 法</w>
负 债</w>
平 衡
召 开</w>
议 程</w>
真主 党</w>
温 室
声 明</w>
塔尼亚 胡</w>
参与 者</w>
僵 局</w>
享 受</w>
。 然
s ）</w>
a g
（ E
阿巴 斯</w>
标 志</w>
施 加</w>
批 评
布什 政府</w>
历 史
加 拿
出 售</w>
途 径</w>
议 院</w>
清 晰</w>
意 识</w>
年 度</w>
之 上</w>
赋 予</w>
注 入</w>
干 涉</w>
IM F
&#160 ;
黄 金</w>
癌 症</w>
完 美</w>
培 训</w>
上 去</w>
e t
， 当</w>
电 视</w>
拉 丁
才 会</w>
少 数
密 切</w>
大 会</w>
困 扰</w>
十年 代</w>
劳 动</w>
不 少</w>
” （</w>
重 塑</w>
罪 行</w>
第 一</w>
积 累</w>
泰 国</w>
后 果
再 一次</w>
共产 党</w>
中 间</w>
一 套</w>
边 缘</w>
评 级</w>
最 低</w>
必 然</w>
当 中</w>
动 机</w>
动 作</w>
保 留</w>
位 置</w>
距 离</w>
独 裁
源 于</w>
比 重</w>
拿 出</w>
安 倍
大西 洋</w>
保 险
中东 地区</w>
世 俗</w>
葡萄 牙</w>
温室 气体</w>
最 后
性 质</w>
南 亚</w>
5 00
震 惊</w>
新兴 经济体</w>
放 松</w>
应 用</w>
工 会</w>
印 尼</w>
人 道
不 在</w>
一 轮</w>
d e</w>
运 转</w>
运 用</w>
年 内</w>
以 外</w>
今 后</w>
o o
（ J
额 外</w>
获 益</w>
缓 解</w>
消 灭</w>
一 段
9 月</w>
这 位</w>
蔓 延</w>
落 后</w>
经 营</w>
立 刻</w>
留 下</w>
文 明</w>
南 非</w>
公 约</w>
倾 向
主 流</w>
a b
资 助</w>
组 合</w>
理 事会</w>
消 失</w>
根 本
抛 弃</w>
尼 日
坚 定</w>
到 底</w>
减 速</w>
不 久
有 权</w>
抓 住</w>
声 称</w>
20世纪 8
转 化</w>
而 来</w>
罗 姆
终 结</w>
深 远</w>
智 利</w>
担 保</w>
原 本</w>
加拿 大</w>
决 议</w>
债 务
预 见</w>
非 洲
记 者</w>
穆 巴拉克</w>
电 视
材 料</w>
数 百万</w>
情 报</w>
总 量</w>
否 则</w>
后 来</w>
卡 扎
兄 弟
严 厉</w>
e r</w>
an d</w>
12 月</w>
考 验</w>
特 ·
每 天</w>
此 类</w>
5 0%</w>
& mdash</w>
预 防</w>
融 合</w>
暂 时</w>
定 居</w>
声 音</w>
国 务
国 。</w>
再 生</w>
予 以</w>
不 应</w>
e l</w>
c i
驱 动</w>
统治 者</w>
比 方
希 腊
埃 尔多
商 业
出 台</w>
b s
补 偿</w>
疟 疾</w>
环 境
服务 业</w>
数 十
层 次</w>
关 心</w>
低 估</w>
份 额</w>
严 峻</w>
通货膨 胀
设 立</w>
规 划</w>
英 格
花 费</w>
发 起</w>
发 出</w>
协 助</w>
长 时间</w>
紧 迫</w>
电 脑</w>
生活 水平</w>
明 年</w>
昂 贵</w>
忧 虑</w>
基 因
中 ，
专 业</w>
o s
越 南</w>
负 面</w>
论 坛</w>
相 应</w>
物 价</w>
浪 费</w>
接 触</w>
抵 押
局 限</w>
地 带</w>
企 业
专 注</w>
一 些人</w>
e d
马 来
道 理</w>
短 缺</w>
外 ，</w>
助 长</w>
制 定
人 和</w>
o b
财政 赤字</w>
海 外</w>
毒 品</w>
极端 主义</w>
强 制</w>
客 户</w>
变 为</w>
为 其</w>
。 相反，</w>
首 要</w>
生产 力</w>
比方 说</w>
期 待</w>
南 部</w>
伙 伴
一段 时间</w>
200 1年</w>
阵 营</w>
设 备</w>
表 面</w>
稳 定性</w>
短 期
民粹 主义</w>
引 导</w>
士 兵</w>
克 ·
诺 贝尔
讽 刺</w>
突 破</w>
电 力</w>
现 金</w>
更 好
更好 地</w>
推 迟</w>
所 说</w>
当 年</w>
后 者</w>
合 同</w>
a u
（ G
顾 问</w>
解 放</w>
法 官</w>
控 制
急 剧</w>
将 来</w>
奥 斯
多 元
固 定</w>
创 造
储 备
修 改</w>
便 是</w>
例 外</w>
不久 前</w>
n bs
评 论</w>
讲 话</w>
极 其</w>
学 者</w>
大 战</w>
哥伦 比亚</w>
乔 治
一 方</w>
t er
nbs p</w>
4 0
纷 纷</w>
科 学
生 物
柏 林</w>
文 章</w>
总 值</w>
席 位</w>
家 族</w>
太 阳
埃尔多 安</w>
前 任</w>
分 享</w>
优 先</w>
今 年
200 0年</w>
（ N
领导 层</w>
觉 得</w>
百 分
渠 道</w>
正 义</w>
操 作</w>
已 有</w>
外汇 储备</w>
国 有
克林 顿</w>
人 才</w>
主义 ，</w>
严 肃</w>
两 位</w>
o r</w>
6 0
持续 性</w>
实 践</w>
内 塔尼亚胡</w>
全 新</w>
致 命</w>
流 行</w>
延 长</w>
大 多</w>
危 机
卡扎 菲</w>
倾向 于</w>
从 事</w>
（ R
阿拉伯 世界</w>
退 休
解 体</w>
自由 化</w>
第 三</w>
看 作</w>
沦 为</w>
提 到</w>
恰 当</w>
卡 梅
交 通</w>
专 制</w>
三 分之一</w>
3 0%</w>
饱 受</w>
这一 切</w>
要 素</w>
萨 尔
脱 离</w>
紧 急</w>
穆 尔
法 塔
根本 性</w>
政 策
授 权</w>
容 忍</w>
孟 加
多样 性</w>
北 欧</w>
凯恩 斯</w>
关 系
不 知道</w>
一 边</w>
20 世纪</w>
马 里</w>
步 骤</w>
抵 消</w>
履 行</w>
展 示</w>
合 作
加 大</w>
何 种</w>
伊 拉克
丰 富</w>
两 次</w>
（ B
这 个
融 入</w>
科 索
科 奇</w>
石 油
森 林</w>
机 遇</w>
房 价</w>
恰 恰</w>
医 疗
修 正</w>
5 0年</w>
透 明
菲 律
艾 滋
纽 约
歧 视</w>
权 威</w>
急 需</w>
小 组</w>
好 消息</w>
大 屠杀</w>
合 适</w>
减 税</w>
莫 斯
穆 沙
监 狱</w>
尼 斯</w>
富 人</w>
实 验</w>
垄 断</w>
养 老
t ）</w>
am p
这 笔</w>
足 球</w>
战 胜</w>
工业 化</w>
失 望</w>
冒 险</w>
q u
（ P
部 署</w>
而 ，</w>
深 入</w>
更 具</w>
披 露</w>
布 莱
外 国
三 大</w>
运 行</w>
路 线</w>
纠 正</w>
注 定</w>
最 多</w>
年 龄</w>
夏 天</w>
国 主义</w>
th e</w>
青 年</w>
路 撒
耶 路撒
约 翰
煤 炭</w>
深 度</w>
波 斯
悲 剧</w>
开 展</w>
奥巴 马
契 约</w>
利 息</w>
中 。</w>
不 利</w>
这 里</w>
赤 字
毫 不</w>
此 后</w>
塞 浦
南 欧</w>
不 必</w>
e v
e c
逆 转</w>
认 定</w>
认 可</w>
萨达 姆</w>
纳 粹</w>
种 族
电 影</w>
本 哈
斯 大
救 助</w>
技 术
战 后</w>
战 争
平 台</w>
太 平
在 这里</w>
前 进</w>
军 方</w>
倒 闭</w>
高 昂</w>
马 上</w>
随 之</w>
男 性</w>
敏 感</w>
性 ，</w>
库 尔德
平等 性</w>
巴 黎
审 查</w>
存 款</w>
国家 安全</w>
哥 本哈
吸 收</w>
依 旧</w>
a ）</w>
4 0%</w>
获 取</w>
药 品</w>
联合国 安理会</w>
绝 非</w>
稳 定
灵 活</w>
注 意</w>
梦 想</w>
时 候</w>
无 所
意 料</w>
国 债</w>
医 学</w>
借 款
一 大</w>
200 4年</w>
， 普京</w>
） ——</w>
走 上</w>
衰 落</w>
舞 台</w>
系 统
穆沙 拉夫</w>
案 例</w>
暗 示</w>
印 象</w>
动 员</w>
全 民</w>
介 入</w>
东 盟</w>
一 件</w>
重 新
诊 断</w>
给 出</w>
示 威</w>
疫 苗</w>
用 户</w>
法 国
机 器</w>
改 进</w>
所 能</w>
成 熟</w>
复 兴</w>
可 谓</w>
制 约</w>
利 亚
凸 显</w>
倾 向</w>
从 中</w>
野 心</w>
重 视</w>
近 几年</w>
过 渡</w>
紧 缩
立 法
秘 密</w>
看 似</w>
物 种</w>
沉 重</w>
残 酷</w>
掩 盖</w>
恐怖 袭击</w>
很 有
完 整</w>
大 概</w>
单 位</w>
剥 夺</w>
任 何
事 故</w>
争 端</w>
主义 。</w>
一 再</w>
超 出</w>
记 忆</w>
肯 尼亚</w>
联 盟
焦 点</w>
永 远
教 授</w>
市场 经济</w>
对 外</w>
大 众</w>
化石 燃料</w>
全 力</w>
会 使</w>
乔治 ·
。然 而，</w>
i r
（ F
重 重</w>
示 威
国 王</w>
古 巴</w>
压 制</w>
兄 弟</w>
从 来</w>
a r</w>
限 于</w>
遇 到</w>
适 用于</w>
贾 德</w>
海 洋</w>
武 装
扭 曲</w>
年 来</w>
外 围</w>
公 布</w>
传 染
9 年
跨 国
自 动</w>
穆尔 西</w>
根 源</w>
最 大
推 出</w>
拉丁 美洲</w>
报 纸</w>
批评 者</w>
弱 点</w>
尼日 利亚</w>
学 院</w>
塞浦 路
国 防</w>
后 代</w>
反对 者</w>
人道 主义</w>
o v
长 达</w>
适 用</w>
立 即</w>
愿 望</w>
否 决</w>
典 型</w>
侵 犯</w>
证 券</w>
罗 马
穆斯林 兄弟
监 控</w>
死 亡
开 发
委员 会
好 像</w>
国 防
医 院</w>
减 排</w>
一 个人</w>
e m
000 亿美元</w>
苏格 兰</w>
热 情</w>
死 刑</w>
政 变</w>
撤 军</w>
大 萧条</w>
城 市
四 个</w>
千 年</w>
十 年前</w>
北 部</w>
分 散</w>
决 定性</w>
偿 付</w>
停 滞
促 成</w>
菲律 宾</w>
私 有
申 请</w>
消 极</w>
大 胆</w>
国 内
叛 乱</w>
危 害</w>
举 动</w>
不 大</w>
on ）</w>
3 00
进 化</w>
英格 兰
美 元
游 戏</w>
榜 样</w>
投 票
年 代</w>
团 队</w>
万 美元</w>
迄 今
身 体</w>
灵 活
比 亚
更 广泛</w>
日本 人</w>
战 斗</w>
年 人</w>
巴 尔
就 业
信 息
s i
a p
200 3年</w>
近 年</w>
迄今 为
迄今为 止</w>
西 岸</w>
街 头</w>
苏 丹</w>
群 众</w>
简 言</w>
真 相</w>
法塔 赫</w>
掌 权</w>
成 长</w>
布 雷
地 震</w>
化 学</w>
关 闭</w>
兑 现</w>
催 生</w>
人 力</w>
5 年
难 题</w>
销 售</w>
里 ·
议 题</w>
训 练</w>
自由 贸易</w>
职 业</w>
看 上去</w>
案 件</w>
总 额</w>
得 不到</w>
工 厂</w>
尽 可能</w>
塞 尔</w>
地 中
加 沙
加 快</w>
an d
9 月
霸 权</w>
等 待</w>
现 任</w>
流 向</w>
梅 内
智 慧</w>
政治 制度</w>
抵 抗</w>
性 。</w>
国 集团</w>
卡 塔
准 确</w>
代 表
产 权</w>
习 惯</w>
主 宰</w>
补 充</w>
留 在</w>
清 洁</w>
更 容易</w>
挽 救</w>
导 向</w>
完 善</w>
创 新
作 物</w>
S D
20世纪9 0年代</w>
&# 4
马来 西亚</w>
飞 机</w>
间 接</w>
长 久</w>
透明 度</w>
让 步</w>
突 出</w>
百分 点</w>
沃 尔
殖 民
数 十年</w>
教 育
提 醒</w>
对 立</w>
对 付</w>
姿 态</w>
哈 梅内
发 放</w>
务 之
养老 金</w>
共 享</w>
伊 朗
临 时</w>
2 5%</w>
） 、</w>
（ M</w>
雇 主</w>
除 非</w>
配 置</w>
约 旦</w>
沮 丧</w>
更 糟糕</w>
惊 人</w>
建 筑</w>
差 别</w>
奥 朗
办 公
出 口
交 换</w>
ar t
0年 前</w>
邪 恶</w>
起 诉</w>
营 养</w>
看 看</w>
权 ，</w>
有 些人</w>
投 机</w>
截 然
反 弹</w>
卡梅 伦</w>
华 尔
半 岛</w>
勃 勃</w>
分 析
份 子</w>
er ）</w>
4 .
20世纪8 0年代</w>
20世纪 7
美 军</w>
穆斯林兄弟 会</w>
确 认</w>
电 站</w>
延 续</w>
居 住</w>
大 幅度</w>
塞尔 维亚</w>
和 解</w>
o p
， ”</w>
， “
难 以
过 剩</w>
计 算
盟 国</w>
独裁 者</w>
游 行</w>
比 赛</w>
每 一个</w>
意 图</w>
当 务之
强 势</w>
开 启</w>
对 象</w>
协 定
二 十年</w>
丑 闻</w>
上 个月</w>
三 年</w>
食 物</w>
财政 部</w>
设 定</w>
美国 国会</w>
病 毒</w>
活 跃</w>
情 景</w>
另一 种</w>
危 险
区 分</w>
产 能</w>
交 流</w>
丹 麦</w>
不 确定</w>
e b
限 度</w>
长期 以来</w>
计 划
约 旦
突 尼斯</w>
祖 国</w>
深 化</w>
普 林斯
多 年来</w>
国 民
后果 。</w>
可以 说</w>
受 欢迎</w>
华盛 顿
不 难</w>
风 暴</w>
达 尔
走 出</w>
规 范</w>
签 订</w>
瑞 士</w>
滥 用</w>
比 利
有 害</w>
时 机</w>
推 广</w>
排 名</w>
就是 说</w>
基督 教</w>
充 足</w>
今 日</w>
也 就是说</w>
， 否则</w>
暴 跌</w>
教 徒</w>
扭 转</w>
很 重要</w>
布莱 尔</w>
孟加 拉
大 脑</w>
可 信</w>
反 抗</w>
6 0%</w>
薪 酬</w>
结 束
电 话</w>
特 点</w>
有 必要</w>
日 子</w>
外国 人</w>
复 杂
基本 上</w>
军 事
借 口</w>
使 命</w>
7 月</w>
21 世纪</w>
， IMF</w>
飙 升</w>
辛 格</w>
超 级</w>
自由 主义</w>
类 型</w>
民 意</w>
检 查</w>
核 能</w>
换 取</w>
抱 怨</w>
强 国</w>
弥 补</w>
太阳 能</w>
外 界</w>
原 教
人 为</w>
亚 洲
an ）</w>
4 年
西 方
更 有效</w>
妨 碍</w>
凯恩 斯
保守 派</w>
个 世纪</w>
t r
i n</w>
阿拉伯 之
认 同</w>
西 欧</w>
私 营</w>
犹 太</w>
浓 缩</w>
慷 慨</w>
很 高</w>
废 除</w>
幸 福</w>
巴勒 斯坦
将 军</w>
审 慎</w>
奥朗 德</w>
哥本哈 根</w>
发 展
充 分
任 者</w>
两 倍</w>
i g
er s
7 0
3 年
迈 向</w>
起 作用</w>
财 务</w>
老 龄
海 啸</w>
民 间</w>
每 个人</w>
效 益</w>
拉 ·
房 屋</w>
或 许
愿 景</w>
建 造</w>
壁 垒</w>
周 边</w>
匈 牙
借款 人</w>
仔 细</w>
互 动</w>
中 等</w>
1 3
雇 员</w>
防 务</w>
量 化
连 续</w>
轻 易</w>
自由 贸易
科索 沃</w>
弗 里
响 应</w>
周 年</w>
可 持续性</w>
发 明</w>
力 度</w>
分 化</w>
内 贾德</w>
会 谈</w>
企 图</w>
二十 世纪</w>
中 美</w>
一 大
201 0年
200 7
） 、
魅 力</w>
金 钱</w>
证 实</w>
英格兰 银行</w>
而 又</w>
结构 性
结束 了</w>
私有 化</w>
确 地</w>
注意 到</w>
权 。</w>
有 用</w>
斯 基</w>
大 于</w>
员 们</w>
势 头</w>
不 安</w>
三 分之
h ar
e d</w>
&#160; &#160;
阿拉伯 人</w>
过 多</w>
谷 歌</w>
缺 口</w>
母 亲</w>
日 元</w>
忘 记</w>
律 师</w>
将 使</w>
实 质
利 率
争 夺</w>
一 片</w>
I C
6 月</w>
马 克
长 远</w>
莫斯 科</w>
看 待</w>
煽 动</w>
激 发</w>
满 意</w>
得 出</w>
宏 观</w>
地 理</w>
口 号</w>
制 度
减 弱</w>
公 司
任何 人</w>
c on
5 .
陷 阱</w>
阻 挠</w>
贷款 人</w>
解 除</w>
耶路撒 冷</w>
破坏 性</w>
父 亲</w>
民 们</w>
有 者</w>
早 就</w>
文 化
拉 斯</w>
惊 讶</w>
希 特
实 验
团 结
原 子
卡塔 尔</w>
包 容</w>
信 念</w>
主 题</w>
t o</w>
men t</w>
in g</w>
1 0</w>
饥 饿</w>
面 积</w>
隔 离</w>
超 级
象 征</w>
聪 明</w>
缩 小</w>
纪 录</w>
系统 性</w>
游 说</w>
比利 时</w>
极 度</w>
新 技术</w>
敦 促</w>
扩 展</w>
或许 是</w>
工 程
培 养</w>
千 万</w>
办公 室</w>
克 鲁
以色 列
l e</w>
8 0%</w>
200 2年</w>
（ H
首 都</w>
颇 为</w>
预 料</w>
适 当</w>
软 件</w>
诞 生</w>
议 定
能 量</w>
经济 衰退</w>
短期 内</w>
独 特</w>
灵活 性</w>
模 糊</w>
攀 升</w>
授 予</w>
拖 累</w>
巴沙 尔</w>
密 集
填 补</w>
均 衡</w>
匈牙 利</w>
加 深</w>
制定 者</w>
切 实</w>
出 生</w>
ro p
7 0%</w>
2008 年
频 繁</w>
随 之
跨 国</w>
评 论
计算 机</w>
董 事会</w>
纯 粹</w>
第二 次</w>
狂 热</w>
深 层次</w>
毁 灭</w>
新 一轮</w>
斯大 林</w>
支持 率</w>
当 作</w>
宣 言</w>
实 质</w>
多样 化</w>
哈梅内 伊</w>
动 用</w>
先 进</w>
先 例</w>
二十 一
中 共</w>
o h
en c
迎 来</w>
路 径</w>
诱 惑</w>
细 节</w>
索 马里</w>
瞩 目</w>
沟 通</w>
无 人
悲 观</w>
天 主
塞浦路 斯</w>
国务 卿</w>
克 斯坦</w>
享 有</w>
一 支</w>
n i
h i
6 .
5 月</w>
200 8</w>
高 管</w>
阿 卜
通 往</w>
谈 论</w>
自 信</w>
盈 余
毛 泽
次 世界
有 趣</w>
月 2
政 坛</w>
性 别</w>
必 需</w>
巴 拉克
国际 法</w>
商业 银行</w>
听 到</w>
勇 气</w>
剩 下</w>
再 度</w>
免 受</w>
停滞 不
估 算</w>
伦 理</w>
也 门</w>
上 限</w>
00 亿美元</w>
&#16 0</w>
（ IMF
（ D
阿卜 杜
过 渡
解 放
老龄 化</w>
漫 长</w>
成 协议</w>
很有 可能</w>
布鲁 塞尔</w>
家 庭
实质 性</w>
多 种</w>
多 。</w>
同 事</w>
出 资</w>
公 投</w>
做 好</w>
201 1年
追 随
设 置</w>
苦 难</w>
约翰 ·
第三 个</w>
秘 书
眼 下</w>
百 年</w>
物 理
毫 不
有 点</w>
挣 扎</w>
偏 好</w>
不 见</w>
下 台</w>
u l
20 20年</w>
防 御</w>
过去 十年</w>
论 文</w>
继 任者</w>
指 望</w>
手 机</w>
埃 博
反 复</w>
动 摇</w>
出 人
保护 主义</w>
从 前</w>
一 篇</w>
h a
适 合</w>
达 成协议</w>
话 题</w>
证 券
英 镑</w>
自 愿</w>
绝 大部分</w>
结 盟</w>
爆 炸</w>
有 益</w>
显 现</w>
斯 蒂
收 益
学 术</w>
围 绕</w>
名 字</w>
同 情</w>
半 年</w>
剧 烈</w>
关 税</w>
充 当</w>
修 复</w>
企业 家</w>
仇 恨</w>
中 亚</w>
不 容</w>
三分之 二</w>
u m
in g
ati on</w>
199 8年</w>
1 5年</w>
（ L
领 先</w>
韦 斯</w>
难 度</w>
随之 而来</w>
附 近</w>
这 份</w>
辩 护</w>
许 多</w>
罗 斯
缺 失</w>
穷 国</w>
炸 弹</w>
杠 杆
收 到</w>
引 擎</w>
几 周</w>
健 康
一 段</w>
r an
8 0
鼓 吹</w>
首 席</w>
预 言</w>
退休 金</w>
认 知</w>
死 于</w>
时 ，</w>
无 法
文 件</w>
收 缩</w>
抵 御</w>
当 代</w>
引 用</w>
希特 勒</w>
委 员</w>
多元 化</w>
四 分之一</w>
反 思</w>
反 应
创 建</w>
减 免</w>
充 斥</w>
倒 台</w>
二十一 世纪</w>
一 道</w>
te r</w>
a s</w>
198 9年</w>
雄 心
银 行业</w>
迈 出</w>
过 时</w>
议定 书</w>
西 藏</w>
英 雄</w>
类 似
第 一步</w>
社会 福利</w>
盈 利</w>
父 母</w>
法 规</w>
毛泽 东</w>
替 代
救 援</w>
态 势</w>
弗里 德
外交 官</w>
反 恐
友 好</w>
前 往</w>
再 加上</w>
伙伴 关系</w>
什 么</w>
不 足
不 同
o s</w>
e p
0年代 末</w>
鲁 哈
风 险
金 正
远 离</w>
过 度
缓 和</w>
纠 纷</w>
秘书 长</w>
破 裂</w>
电 子</w>
玻 利
漏 洞</w>
斯 科
敌 意</w>
截然 不同</w>
引 人
威 慑</w>
堪 称</w>
坚 决</w>
周 期
历史 性</w>
分 离</w>
免 费</w>
俱 乐
修 订</w>
传 递</w>
专 利</w>
f or</w>
高 层</w>
马 拉
飓 风</w>
顽 固</w>
重 振</w>
较 小</w>
软 实力</w>
购 买
课 程</w>
覆 盖</w>
衍 生
萧 条
莫 迪</w>
艺 术</w>
舆 论</w>
综 合</w>
精 力</w>
管 道</w>
眼 中</w>
特 别
树 立</w>
果 断</w>
有 许多</w>
强 迫</w>
应 付</w>
好 事</w>
双 边
剑 桥
公 路</w>
借 助</w>
信 服</w>
上 台</w>
t u
颠 覆</w>
邀 请</w>
遥 远</w>
迫 切</w>
运 输</w>
较 高</w>
网 站</w>
缩 减</w>
竭 尽
灾 害</w>
扼 杀</w>
意大 利
弱 势</w>
含 义</w>
古 老</w>
发 射</w>
内 阁</w>
党 人</w>
低 迷</w>
事 物</w>
专 业
不 变</w>
i d
ation al</w>
邓 小
赞 成</w>
行 使</w>
艰 巨</w>
胜 利
股 票
美 好</w>
绝 望</w>
社会 主义</w>
瘫 痪</w>
现 实
本 月</w>
有 效
最大 化</w>
无 辜</w>
接 下来</w>
据 说</w>
愚 蠢</w>
待 遇</w>
小 国</w>
大 力</w>
包 容
专 门</w>
不 止</w>
下 一个</w>
ou n
） ，
鲁哈 尼</w>
阿尔 及
财 产</w>
解 读</w>
罗姆 尼</w>
狭 隘</w>
永 久</w>
杀 害</w>
拉 美
强 有力</w>
判 决</w>
创 立</w>
全 国
债 权</w>
产 物</w>
临 床</w>
i m
？ ”</w>
马 里
阿拉伯 国家</w>
银行 家</w>
逮 捕</w>
追随 者</w>
起 义</w>
资 源
衍生 品</w>
维 奇</w>
经济 改革</w>
电视 台</w>
燃 料
灭 绝</w>
核 电站</w>
排 斥</w>
打 造</w>
意 外</w>
必 将</w>
双 重</w>
出 色</w>
东 部</w>
f f
10 月</w>
1 1</w>
鼓 舞</w>
设 法</w>
行 事</w>
罗 ·
特 里
激 起</w>
注 目</w>
民 兵</w>
来 到</w>
期 限</w>
朝 鲜
早 些</w>
成 绩</w>
感 受
当务之 急</w>
干 扰</w>
尊 严</w>
国 有</w>
发 电</w>
克鲁 格
供应 链</w>
代 人</w>
人 权
u rop
l a</w>
e an</w>
a k
E C
首 脑</w>
邓小 平</w>
虐 待</w>
苏 联
紧 急
无 数</w>
对 策</w>
富 国</w>
宽 松
定 价</w>
奇 迹</w>
卫 队</w>
俄罗斯 人</w>
什叶 派
中央 政府</w>
不 利于</w>
一 次
8 月</w>
1 0年</w>
高 速</w>
驱 逐</w>
难 道</w>
阵 线</w>
选 项</w>
裁 决</w>
脆 弱
股 权</w>
类似 于</w>
管理 者</w>
竞争 对手</w>
疗 法</w>
死亡 率</w>
次世界 大战</w>
杀 戮</w>
最 高
敌 对</w>
提 前</w>
描 绘</w>
打 开</w>
战 略
希腊 政府</w>
巴拉克 ·
尼 克
密集 型</w>
孟加拉 国</w>
奥巴马 政府</w>
地中 海</w>
地 下</w>
国家 政府</w>
四 年</w>
压 迫</w>
南 克</w>
剑 桥</w>
保 健</w>
便 宜</w>
体 育</w>
传染 病</w>
从 来
东 京</w>
u c
7 .
201 2
1 月</w>
（IMF ）</w>
纪 念</w>
精 神
科 齐</w>
犯 罪
熟 悉</w>
深 蒂
消 耗</w>
测 量</w>
本 来</w>
时 性</w>
提 案</w>
心 理
德 拉
归 根
建 设
库尔德 人</w>
国际 货币</w>
受 过</w>
发 自</w>
原 则
动 态</w>
创 业</w>
伯 克
仅 有</w>
五 个</w>
事 态</w>
中 央</w>
， 奥巴马</w>
阿 布
部 落</w>
通胀 率</w>
较 少</w>
较 为</w>
详 细</w>
萨尔 科奇</w>
罗 伯
纪 念
等 于</w>
民主 化</w>
比 如
根 深蒂
架 构</w>
收 购</w>
探 讨</w>
按 揭</w>
感受 到</w>
情 感</w>
忍 受</w>
工 党</w>
崩 盘</w>
小 型</w>
宣 扬</w>
实 在</w>
安倍 晋
基金 会</w>
圣 战
回 报
卷 入</w>
单 方面</w>
十 九
侵 略</w>
优 秀</w>
从来 没有</w>
e t</w>
200 9年
金 砖</w>
自然 资源</w>
置 于</w>
源 自</w>
海 军</w>
无 视</w>
收益 率</w>
抵押 贷款</w>
感 染</w>
意 思</w>
必 要
失 灵</w>
在 线</w>
务 实</w>
俱乐 部</w>
东 南亚</w>
不 住</w>
u b
h e</w>
4 月</w>
20世纪 3
高 。</w>
领导 力</w>
里 斯
过 分</w>
论 者</w>
行 政</w>
行 政
至 关</w>
第 四
流 行
法 律
新 型</w>
斯 洛
教 师</w>
摩 洛
当 下</w>
巴拉克· 奥巴马</w>
安倍晋 三</w>
始 于</w>
大 。</w>
塞 俄
埃 塞俄
圣 战</w>
国有 企业</w>
侵 蚀</w>
与 此</w>
上 海</w>
i s</w>
200 1年
量化 宽松
迫 害</w>
过 高</w>
越 发</w>
艾滋 病</w>
考 察</w>
经 合
相 比
相比 之下</w>
相 关
目 睹</w>
永 久
数 百
打 算</w>
成 分</w>
必 要性</w>
归根 结
归 咎</w>
平 心</w>
左 派</w>
寻 常</w>
宗 教
周 围</w>
参 议院</w>
华尔 街</w>
加 州</w>
前 沿</w>
到 达</w>
冻 结</w>
二十 世纪
三 十年</w>
a v
20世纪7 0年代</w>
2 4
199 1年</w>
1 5%</w>
， 像</w>
黎巴 嫩
马 德里</w>
阴 影</w>
膨 胀</w>
益 者</w>
生 涯</w>
生 态
燃 烧</w>
民 党</w>
比如 说</w>
正 好</w>
棘 手</w>
有 意</w>
政 体</w>
放 任</w>
提 交</w>
平 面</w>
寿 命</w>
子 孙</w>
婴 儿</w>
呼 声</w>
厌 恶</w>
卫 生
力 。</w>
副 作用</w>
出人 意料</w>
克鲁格 曼</w>
克里 米
儿 子</w>
借 款</w>
代 替</w>
不 符合</w>
i ）</w>
an c
P art
C E
20 30年</w>
199 7年</w>
% 。</w>
（ J</w>
逃 离</w>
观察 家</w>
艾 哈
职 责</w>
罕 默
组 建</w>
社会 保障</w>
着 手</w>
症 状</w>
格 林斯
教 皇</w>
揭 示</w>
提 及</w>
所 为</w>
想 起</w>
德 里
建 国</w>
幸 福
学 会</w>
孤 立
呈 现</w>
原 油</w>
出 手</w>
准 则</w>
（ I
鲜 明</w>
高 涨</w>
页 岩
雇 佣</w>
采 纳</w>
遗 产</w>
选 中</w>
计 价</w>
萎 靡</w>
节 目</w>
破 灭</w>
独立 性</w>
温 度</w>
涌 入</w>
机 器
收 紧</w>
摩洛 哥</w>
挂 钩</w>
手 里</w>
所 作
房地 产
意 味</w>
恐 怕</w>
征 税</w>
归根结 底</w>
开 来</w>
哲 学</w>
取 得
北 方</w>
作 者</w>
作 家</w>
人 口
为 首</w>
一 张</w>
一 座</w>
… …</w>
a y
199 9年</w>
19 2
0年代 初</w>
， 例如</w>
预 示</w>
轰 炸</w>
身 处</w>
购买 力</w>
话 。</w>
评 价</w>
记 住</w>
著 作</w>
落 实</w>
继 承</w>
示威 者</w>
犹 豫</w>
特 权</w>
格林斯 潘</w>
更 少</w>
新 德里</w>
收 集</w>
支 配</w>
控制 权</w>
扩 张
房 子</w>
房 产</w>
庇 护</w>
奥 尔
多 个</w>
增长 速度</w>
基督 徒</w>
同 盟</w>
发 言
反应 堆</w>
又 一次</w>
南 海</w>
制 止</w>
凝 聚
关键 问题</w>
公 里</w>
储 量</w>
修 建</w>
作 战</w>
。 例如</w>
eb oo
ac eboo
199 0年</w>
197 9年</w>
1 5</w>
阿拉 法
阿尔及 利亚</w>
选 出</w>
运动 员</w>
身 为</w>
萎 缩</w>
自 动
能 源
纪 律</w>
竞 赛</w>
真 是</w>
有 望</w>
是 不
是不 是</w>
掌 控</w>
指 向</w>
慈 善</w>
恶 性
很 显然</w>
引人 注目</w>
年 底</w>
干 旱</w>
尔 德</w>
定 期</w>
好 准备</w>
奥 地
多 边
土 壤</w>
国际货币基金 组织
国家 主席</w>
商 人</w>
参 议员</w>
制 衡</w>
兴 起</w>
会 出现</w>
亚 太
两 党</w>
一 部</w>
一 番</w>
o d
， 巴基斯坦</w>
（ W
高 质量</w>
金融 业</w>
道 歉</w>
诚 然
警 方</w>
萨 科齐</w>
知识 产权</w>
目 光</w>
理 人</w>
正 面</w>
极 高</w>
星 期</w>
数 千
征 收</w>
形 容</w>
庆 祝</w>
巨 头</w>
尤 为</w>
失 所</w>
太平 洋</w>
周期 性</w>
否 定</w>
受 损</w>
前 途</w>
制 性</w>
分 割</w>
低 下</w>
事 。</w>
买 入</w>
之 不
一 代人</w>
9 0%</w>
19 世纪</w>
高 风险</w>
非 常规</w>
辞 职</w>
赢 家</w>
贪 婪</w>
诺贝尔 奖</w>
营 养
莫 过于</w>
米 尔</w>
秘 鲁</w>
神 经</w>
焦 虑</w>
沙 龙</w>
此 举</w>
数 年</w>
挑 战
很 简单</w>
强 加</w>
开 采</w>
建 筑
广 场</w>
客 们</w>
宝 贵</w>
多 次</w>
境 内</w>
名 单</w>
叶 利
做 好准备</w>
伯 南克</w>
上 帝</w>
一 面</w>
it y</w>
i v
i c</w>
S t
R e
D N
5 0</w>
问 责</w>
重 启</w>
转 换</w>
艺 术
致 使</w>
联邦 政府</w>
种 植</w>
生活 方式</w>
柬 埔
望 。</w>
最 具</w>
无 可
改 造</w>
抨 击</w>
塑 造</w>
地 图</w>
地 区
后 续</w>
叶利 钦</w>
取得 成功</w>
压 倒</w>
化 ，</w>
力 ，</w>
击 败</w>
出 版</w>
债务 人</w>
住 宅</w>
令人 瞩目</w>
中 止</w>
不 公平</w>
a z
8 .
20 50年</w>
199 2年</w>
， 后者</w>
雄心 勃勃</w>
通 信</w>
触 发</w>
草 案</w>
罗 马</w>
罕 见</w>
私 有</w>
现 行</w>
永远 不会</w>
气 温</w>
有 史
有史 以来</w>
无 能</w>
投 行</w>
心 ，</w>
很 明显</w>
强 力</w>
弗里德 曼</w>
并 无</w>
常 见</w>
女 孩</w>
奥 运
外 围
可 信
及 时</w>
半 个世纪</w>
加沙 地带</w>
剧 性</w>
出 来</w>
公 平
停 火</w>
借 钱</w>
信 贷
信 奉</w>
2 5年</w>
（ A</w>
长 们</w>
这个 世界</w>
跨 越</w>
贝 卢
贝卢 斯科
识 别</w>
自 民党</w>
杂 志</w>
效 仿</w>
故 意</w>
推 向</w>
探 索</w>
护 者</w>
投 机
找 不到</w>
想 想</w>
必 不可
巴沙 尔·
宪 章</w>
失 误</w>
大 肆</w>
商 界</w>
关 联</w>
债 券
保险 公司</w>
于 此</w>
两 名</w>
不 相同</w>
amp #
C h
3 月</w>
高 科技</w>
领导 者</w>
阿拉法 特</w>
边 缘
西班 牙
股 价</w>
维 也
绑 架</w>
福 祉</w>
相 结合</w>
生 命
沉 默</w>
智 能</w>
数 学</w>
撤 出</w>
执 政
或 缺</w>
成 千
开发 银行</w>
地 点</w>
和 谐</w>
协 议
劳 工</w>
刑 事
克里米 亚</w>
克 斯</w>
传 染</w>
会 晤</w>
不可 或缺</w>
o w
i ti
3 0</w>
非 政府</w>
需 求
重 来</w>
选 举
软 弱</w>
谋 杀</w>
误 解</w>
诉 讼</w>
讨 价
血 腥</w>
脆弱 性</w>
职 业
约 束
累 积</w>
税 收
知识 分子</w>
生 态</w>
清 除</w>
更 新</w>
无 关</w>
撒 哈
拖 延</w>
折 磨</w>
所 得
恶 劣</w>
异 常</w>
妥 协
大 宗
多 久</w>
基本 面</w>
单 独</w>
匹 配</w>
准 备
公 债</w>
倡 议</w>
不 振</w>
三 倍</w>
一 百
一 方针</w>
一 战</w>
。 例</w>
aceboo k</w>
顺 差</w>
零 售</w>
阿拉伯之 春</w>
金 砖
重 复</w>
逃 避</w>
谈 判
诚 实</w>
讨价 还
经济 体
短 暂</w>
环 保</w>
潮 流</w>
氛 围</w>
步 伐</w>
有 很多</w>
明 证
日 内
族 裔</w>
支 柱</w>
撤 离</w>
抑 郁
应 有</w>
广 大</w>
幻 想</w>
平衡 。</w>
展 现</w>
屈 服</w>
尼 ·
子 女</w>
婚 姻</w>
头 脑</w>
回 事</w>
器 官</w>
句 话</w>
凝聚 力</w>
减 缓</w>
低 效</w>
交 给</w>
主 动</w>
不 知</w>
不 断
不 复</w>
一 届</w>
er t</w>
6 0年代</w>
% ，</w>
颇 具</w>
降 至</w>
重 演</w>
芬 兰</w>
紧 要</w>
移 动</w>
社 交</w>
确 立</w>
理 应</w>
法 西
毕 业
森 林
有 序</w>
施 压</w>
政治 家们</w>
撒 切
执 行
开 罗</w>
广 告</w>
平 均
存 款
奥地 利</w>
奖 励</w>
复杂 性</w>
声 誉</w>
墨西 哥
同 性
反 恐</w>
原教 旨
关 押</w>
信息 技术</w>
人民 银行</w>
京 都
亚 美
u g
o c
I S
000 名</w>
， 即</w>
（ P</w>
高 ，</w>
高 兴</w>
过 早</w>
论 如
论如 何</w>
行 列</w>
罗斯 福</w>
竭尽 全力</w>
竭 力</w>
竞争 性</w>
电 网</w>
浪 潮</w>
正 当</w>
来 临</w>
机 构
本 币</w>
未 来
暴 行</w>
抵 押</w>
报 酬</w>
所作 所为</w>
成 效</w>
情 报
席 卷</w>
帝 国主义</w>
布 拉
工作 岗位</w>
尼克 松</w>
卷 土
卫 星</w>
切 断</w>
内 需</w>
内 在</w>
免 于</w>
偏 见</w>
亚 于</w>
中 欧</w>
两 项</w>
不 错</w>
一 倍</w>
a d</w>
P ）</w>
In ter
C A
8 个</w>
20世纪3 0年代</w>
） 。
非 正式</w>
集 团
阴 谋</w>
里 兰
近 来</w>
说 服
警 惕</w>
肯 尼
级 别</w>
繁 荣
精 确</w>
穆 罕默
海 湾</w>
民族 主义者</w>
欺 骗</w>
欧洲 银行</w>
杀 伤
普 及</w>
日 常</w>
无 关
斯 里兰
收 支</w>
投资 银行</w>
思 想
延 伸</w>
尼 泊
尼 古
就业 率</w>
少数 民族</w>
外围 国</w>
国际 贸易</w>
国内 外</w>
同 等</w>
各 样</w>
别 无</w>
创造 力</w>
决 不能</w>
军 官</w>
写 道</w>
信 用
不 负</w>
不 及</w>
om m
en t
a h
5 个</w>
11 日</w>
000 美元</w>
， 令</w>
高 等
迎 接</w>
边 际</w>
芝 加
电 厂</w>
激 增</w>
派 遣</w>
指 令</w>
报 复</w>
开 端</w>
巴勒斯坦 国</w>
家 人</w>
大 ，</w>
大 使</w>
境 地</w>
哈 萨
卷土 重来</w>
北 美</w>
加 利
前 苏联</w>
优 惠</w>
事 关</w>
o g
首 脑
饥 荒</w>
预 防
金 本
造 就</w>
连 任</w>
近 乎</w>
达 沃
赫 尔
说服 力</w>
论 点</w>
英国 政府</w>
艾哈 迈
自 杀</w>
经济 状况</w>
真 空</w>
生态 系统</w>
生产 商</w>
生 效</w>
清 醒</w>
流 离
法 兰
正 确地</w>
根深蒂 固</w>
柬埔 寨</w>
杠杆 化</w>
日本 银行</w>
无 从</w>
提 款
挑 衅</w>
总 裁</w>
微 妙</w>
彼 得
平 息</w>
巴沙尔· 阿萨德</w>
奥运 会</w>
大 气</w>
多 元</w>
城市 化</w>
囚 犯</w>
原 来</w>
压 倒
历史 学家</w>
动 荡
制 ，</w>
储备 货币</w>
修 正
人 人</w>
举 办</w>
世界 杯</w>
不 当</w>
上 面</w>
一 无
· 拉
9 0
（ G</w>
采 购</w>
这 一次</w>
说 过</w>
诚然 ，</w>
范 畴</w>
英 语</w>
绝 不</w>
结 局</w>
经 典</w>
精 英
相 互
玻利 维亚</w>
欧元 区
推 移</w>
挪 威</w>
意 志</w>
总 结</w>
必不可 少</w>
平 静</w>
工程 师</w>
家 园</w>
基 石</w>
可以 获得</w>
南 斯
十 二
北 非</w>
包容 性</w>
分 担</w>
便 利</w>
作 品</w>
体 验</w>
低 成本</w>
从 一开始</w>
九 十年代</w>
么 多</w>
一 样</w>
。 然</w>
a t</w>
W ·
2 7
， 除非</w>
， 而
风 格</w>
隐 含</w>
阿富 汗
迫 切
边缘 化</w>
跨国 公司</w>
科 研</w>
神 经
研究 所</w>
爆 炸
清 算</w>
概 率</w>
某 一</w>
极 权
来 源于</w>
最 低
新 增</w>
数 以
接 纳</w>
捷 克
所得 税</w>
忠 诚</w>
影 子</w>
弗 拉
居 高
尖 锐</w>
对 称</w>
定 位</w>
外 汇</w>
坚 挺</w>
地 面</w>
国防 部长</w>
各 州</w>
分 布</w>
关键 性</w>
僵 化</w>
假 定</w>
代 理人</w>
人 ，</w>
两 岸</w>
不断 地</w>
一个 世纪</w>
一 批</w>
“ 大
i a</w>
amp# 16
amp#16 0</w>
SD R</w>
（ C</w>
雇 用</w>
陷 于</w>
言 论
言 之
苏格 兰
私 人
确 切</w>
确 信</w>
疯 狂</w>
流 血</w>
正 统</w>
梅 德
核 武</w>
标 准
杀 死</w>
本 世纪</w>
暂 停</w>
整 整</w>
房地产 市场</w>
成千 上
就 此</w>
小 心</w>
宇 宙</w>
回 避</w>
去 杠杆化</w>
卡 尔德
单 纯</w>
加利 福
几 年前</w>
几 天</w>
保 罗·
伤 亡</w>
亚美 尼亚</w>
中 小
丧 生</w>
一 度</w>
一 小
” 。
黑 暗</w>
骚 乱</w>
面 向</w>
隐 藏</w>
迫切 需要</w>
误 导</w>
设 想</w>
获 得
自 治
自 己</w>
纳 粹
短 短</w>
特别 提款
海 地</w>
永久 性</w>
束 缚</w>
机 关</w>
有 时候</w>
无人 机</w>
斯洛 伐
政 界</w>
恐怖 组织</w>
弗 朗
常 态</w>
对 外
官 僚
宗 派</w>
子 们</w>
哲 学家</w>
周 知</w>
反恐 战争</w>
一 句</w>
一 切</w>
k ）</w>
W· 布什</w>
， 大
铁 路</w>
重 申</w>
轻 松</w>
荒 谬</w>
聚 集</w>
稳 步</w>
稳 固</w>
研究 者</w>
白 宫</w>
留 给</w>
生产 者</w>
率 ，</w>
港 口</w>
海 岸</w>
治 下</w>
检 验</w>
梅德 韦
本 次</w>
普林斯 顿</w>
明 星</w>
政 客们</w>
放 大</w>
收 回</w>
捐 助</w>
指 定</w>
抱 有</w>
想 到</w>
带 有</w>
布雷 顿
小 说</w>
小 。</w>
审 视</w>
学 科</w>
奥 ·
头 上</w>
夫 ·
受 益者</w>
原 有</w>
压 低</w>
化石 燃料
传 达</w>
众 所
从 一</w>
临 近</w>
不 容易</w>
上 来</w>
” ）</w>
en ）</w>
en s
au l</w>
a w
; &#4
5 ;&#4
锦 涛</w>
金 额</w>
迈 进</w>
赞 同</w>
自由 派</w>
胡 锦涛</w>
股票 市场</w>
职 能</w>
置 疑</w>
移 民
看 成</w>
略 有</w>
电 子
生 育</w>
深 受</w>
汲 取</w>
民 调</w>
毁 灭
春 天</w>
无 论如何</w>
旅 行</w>
所 得</w>
希 拉
巴 格
宽 容</w>
宪 法
威 尔
妻 子</w>
合 物</w>
压倒 性</w>
勇 敢</w>
劳动 者</w>
助 者</w>
出 席</w>
倒 退</w>
众所 周知</w>
不 定</w>
不 好</w>
ti on</w>
6 月
19 1
10 0</w>
（ U
（ K
高 速
马 车</w>
马 拉</w>
遗 传</w>
选 民们</w>
追 溯</w>
讨价还 价</w>
花 钱</w>
空 气
稳 健</w>
眼 前</w>
盖 茨</w>
球 员</w>
派 系</w>
汇 款</w>
殖 民</w>
来 讲</w>
权 益</w>
未 必</w>
日本 政府</w>
无 需</w>
悬 崖</w>
心 态</w>
左 翼
实验 室</w>
奏 效</w>
天 气</w>
大宗 商品</w>
增 进</w>
埃塞俄 比亚</w>
哈马 斯
哈 佛
吉 尔</w>
协 商</w>
包 围</w>
凯恩斯 主义</w>
几 十
公 私</w>
储蓄 率</w>
世纪 末</w>
一 新</w>
一 块</w>
r is
C on
5;&#4 5</w>
199 5年</w>
198 0年</w>
雷 曼
防 卫</w>
野 蛮</w>
里 根</w>
道 ，</w>
连 接</w>
贫 困
记 得</w>
观察 者</w>
覆 辙</w>
获得 者</w>
自 治</w>
纳 德·
空 气</w>
着 眼
疑 虑</w>
独 一无
特 性</w>
牵 涉</w>
清 洗</w>
海 平面</w>
派 别</w>
每 次</w>
模 仿</w>
村 庄</w>
杀伤 性</w>
普 通
时 任</w>
揭 露</w>
扩 散
情 愿</w>
归 功
归功 于</w>
居高 不
居高不 下</w>
官 员们</w>
夫 人</w>
大 学
基 准</w>
地 球
哈萨 克斯坦</w>
化 解</w>
动 性</w>
共同 体</w>
停滞不 前
个 人
三 驾
urop ean</w>
ev el
0年代 以来</w>
&#4 5;&#45</w>
（ S</w>
邻 居</w>
该 党</w>
解 散</w>
行动 方</w>
蛋 白
罗姆 人</w>
缓 冲</w>
综 合
纽 黑
筛 查</w>
流离 失所</w>
流 失</w>
法 则</w>
极端 分子</w>
最 强</w>
最 坏</w>
无 限</w>
无 知</w>
无 比</w>
无 情</w>
方 济</w>
效 力</w>
掀 起</w>
捐 赠</w>
所 有权</w>
战 士</w>
戈 尔
当 然</w>
年 初</w>
希 拉克</w>
小 ，</w>
对 着</w>
奉 行</w>
回 忆</w>
叛 军</w>
制 药</w>
刑 事</w>
出 去</w>
共 识
伦 敦
主 管</w>
三驾 马车</w>
万 个</w>
一 年前</w>
l ob
il l
es ）</w>
e g
C D
A R
12 月
0年 以来</w>
骄 傲</w>
首 位</w>
重 回</w>
道 德
道 。</w>
选 区</w>
轨 道</w>
论 证</w>
裁 军</w>
萨 科奇</w>
自 主</w>
耗 费</w>
罗伯 特·
纲 领</w>
约旦 河</w>
种 类</w>
直 面</w>
界 线</w>
率 。</w>
独一无 二</w>
激 进
温 家
温家 宝</w>
混 合</w>
注 册</w>
比 喻</w>
核 电</w>
施 罗
新 任</w>
斯里兰 卡</w>
教 派</w>
提 名</w>
挑 选</w>
按 揭
指 引</w>
持 有人</w>
战 术</w>
布鲁 塞尔
尽 快</w>
尼泊 尔</w>
对 峙</w>
安全 性</w>
夫 斯基</w>
太平 洋
大 门</w>
变 化
反 腐</w>
原 始</w>
卡 尔
协 调
创造 性</w>
元 素</w>
京都 议定书</w>
亦 然</w>
亚 投行</w>
互 换</w>
之 内</w>
为 期</w>
一 群</w>
t a
er n
7 月
5 月
200 6
， 布什</w>
（T he</w>
高 企</w>
防 范</w>
钱 ，</w>
遗 憾</w>
逊尼 派
运 营</w>
达沃 斯</w>
贝卢斯科 尼</w>
象 征
许 可</w>
被 捕</w>
药 方</w>
臭 名
罪 名</w>
经 受</w>
纽黑 文
精 心</w>
粒 子</w>
立法 者</w>
科 威
种 子</w>
瓦 解</w>
猜 测</w>
照 顾</w>
汽 油</w>
民 用</w>
最 小
无 可</w>
斯 托
教 会</w>
摩 尔多
搜 索</w>
揽 子</w>
慕 尼
恐怖 主义
总 数</w>
急 切</w>
德拉 吉</w>
平 价</w>
始 终</w>
天主 教</w>
大 相
外 包</w>
各 项</w>
号 召</w>
南 方</w>
升 息</w>
十年 后</w>
医疗 保险</w>
利 益
利 。</w>
创 伤</w>
再 分配</w>
储 户</w>
低 碳</w>
中 学</w>
世 贸
不 具备</w>
一 贯</w>
一 个月</w>
o ）</w>
m er
ar d
P ro
196 7年</w>
1 美元</w>
间 谍</w>
跨 境</w>
象 棋</w>
评论 家</w>
能 使</w>
职 务</w>
美 金</w>
维 亚
经济 制裁</w>
目 的
用 途</w>
王 国</w>
海 上</w>
民粹 主义者</w>
查 韦斯</w>
机 场</w>
最小 化</w>
无关 紧要</w>
无 效</w>
撒哈 拉</w>
战 场</w>
总 人口</w>
得 益
布雷顿 森林
工作 时间</w>
尴 尬</w>
尊 敬</w>
将 近</w>
安 德
夸 大</w>
坚 信</w>
回 合</w>
命 令</w>
吸 取</w>
合 约</w>
协 作</w>
关 塔
充 满
借 此</w>
伊朗 政府</w>
人 道</w>
人 心</w>
乐 观
中小 企业</w>
两 人</w>
世 人</w>
不 该</w>
上 演</w>
一 股</w>
一 笔</w>
evel op
O M
&#160;&#160; &#160</w>
， 以
高 乐</w>
预 算
顶 尖</w>
阿卜杜 拉</w>
阻 力</w>
车 臣</w>
虚 假</w>
节 约</w>
能 得到</w>
罪 犯</w>
罗马 尼亚</w>
第 四</w>
竞争 者</w>
神 圣</w>
石油 公司</w>
相 提
百 上
白 人</w>
界 定</w>
理 事
现 今</w>
特 拉
涵 盖</w>
海 洋
活 动
检 察
朴 槿
服 用</w>
数 据
戏 剧性</w>
必要 条件</w>
布 里
巴尔 干
展 望</w>
宏 大</w>
大 批</w>
国际 组织</w>
叙 利亚
十年 内</w>
到 期</w>
储 存</w>
保守 主义</w>
伊拉克 战争</w>
人 们</w>
亚太 地区</w>
乔治· W·布什</w>
主 持</w>
世纪 初</w>
三 国</w>
一 揽子</w>
。 像</w>
i b
es t
con om
al l
E S
C ）</w>
9 .
200 7</w>
2 月</w>
黑 人</w>
饮 食</w>
顶 峰</w>
起 草</w>
见 证</w>
西 部</w>
等 同</w>
着眼 于</w>
直 觉</w>
百 姓</w>
照 片</w>
法 德</w>
治 国</w>
殖民 地</w>
检 测</w>
杰 夫</w>
有 待</w>
新 闻
斯蒂 格
接 收</w>
挑 起</w>
指 挥
报 导</w>
战 斗
悖 论</w>
心 。</w>
很 久</w>
强 权</w>
带 给</w>
对 冲
宣 告</w>
天 然</w>
大相 径
外 债</w>
受 困</w>
去 世</w>
创 始
共 存</w>
克 格
傲 慢</w>
主义 ”</w>
世 俗
men t
l d</w>
an g
I P
DN A</w>
9月 11日</w>
201 4年
15 0
风 能</w>
颁 布</w>
革命 性</w>
零 售
集 中
附 加</w>
重 返</w>
重 创</w>
配 额</w>
过去 两年</w>
较 大</w>
转 移
起 点</w>
货币 联盟</w>
豁 免</w>
谋 求</w>
调 和</w>
要 好</w>
补 助</w>
航 空
肆 虐</w>
缩 短</w>
经合 组织</w>
精英 们</w>
简 直</w>
空 袭</w>
白 俄罗斯</w>
清 算
深 陷</w>
浮 动</w>
流动 性
毁灭 性</w>
欧洲 中央银行</w>
朴槿 惠</w>
望 ，</w>
普林斯 顿
无 人</w>
数十 亿美元</w>
收 获</w>
接 管</w>
找 出</w>
我 相信</w>
感 情</w>
感 兴趣</w>
建设 性</w>
巨 型</w>
天然 气
大西 洋
外 来</w>
垮 台</w>
国 政府</w>
名 声</w>
变 迁</w>
受 伤</w>
加 值</w>
剩 余</w>
初 级</w>
入 盟</w>
偏 离</w>
低 碳
以 南</w>
人民 党</w>
之 路
东 道
丘 吉尔</w>
不 力</w>
一 致
一 看</w>
n d
lob al</w>
ar i
20世纪 60年代</w>
， 使</w>
鲁 莽</w>
高 估</w>
颇 有</w>
通 道</w>
通 讯</w>
这 部</w>
达尔 富
辐 射</w>
趋 同</w>
赤字 ，</w>
责 任
请 求</w>
解放 军</w>
角 度
薄 熙
蓬 勃</w>
色 彩</w>
自 称</w>
肥 胖</w>
而 后者</w>
筹 集</w>
空 中</w>
稀 缺</w>
眼 光</w>
看 着</w>
相反 ，
男 人</w>
海 湾
波斯 尼亚</w>
极 化</w>
机器 人</w>
朝鲜 半岛</w>
有 问题</w>
有 没有</w>
曼 德
曝 光</w>
明 天</w>
新 一代</w>
教 科
撒切 尔</w>
拉 夫
技 巧</w>
成千上 万</w>
急 于</w>
归 因</w>
强 制性</w>
巴 西
就 职</w>
安 抚</w>
大 城市</w>
埃博 拉
埃 及
回 顾</w>
告 知</w>
同性 恋</w>
半 数</w>
努 科
制定 者们</w>
做 些
以色列 政府</w>
交 通
亚 努科
不 对称</w>
不 多</w>
。 普京</w>
—— “</w>
r y</w>
r ic
p ro
2007 年
20 年前</w>
高 额</w>
马 斯特
靠 拢</w>
遗 传
进 来</w>
这 点</w>
迁 移</w>
转 折
赌 注</w>
资 金
观 。</w>
营养 不良</w>
营 造</w>
自动 化</w>
耗 尽</w>
耐 心</w>
者 ，</w>
禁 令</w>
神 话</w>
界 限</w>
演 化</w>
毕业 生</w>
此 外，</w>
次 级</w>
服 从</w>
有效 性</w>
最后 一个</w>
更 广</w>
施罗 德</w>
方 便</w>
斯 堪
数 额</w>
数 以</w>
教 义</w>
效 应
放 眼</w>
提 供
打 败</w>
德 黑
巴 乔
工作 者</w>
宝 座</w>
坏 消息</w>
国 籍</w>
含 量</w>
向 前</w>
可 见</w>
卢 旺
协 会</w>
十九 世纪</w>
化 。</w>
初 衷</w>
农 场</w>
党 内</w>
做些 什么</w>
使 馆</w>
伊斯兰 主义者</w>
件 事</w>
人 体</w>
不 堪</w>
一 只</w>
。 IMF</w>
’ s</w>
ob ert</w>
i k
at e</w>
2012 年
） ；</w>
驱 使</w>
顺 利</w>
雄 心</w>
阐 述</w>
错 。</w>
远 见</w>
资产负债 表
谎 言</w>
询 问</w>
视 而
薄熙 来</w>
腺 癌</w>
米 尔
管理 层</w>
第二 轮</w>
知 名</w>
监 测</w>
理 论
犹太 人
潘 基
洪 水</w>
法西 斯
汽 车
武 器
正 常
核 子</w>
最 早</w>
时 间
时 报</w>
撰 写</w>
招 募</w>
少数 派</w>
小 学</w>
封 闭</w>
娱 乐</w>
备 受</w>
境 况</w>
国 界</w>
君 主</w>
原子 能</w>
分析 家</w>
公 认</w>
充满 活力</w>
偶 尔</w>
倒 塌</w>
保 卫</w>
人 中</w>
之 地</w>
主 意</w>
不 对</w>
下 令</w>
。 “
v e</w>
qu e</w>
or g
2 3
199 4年</w>
199 3年</w>
马斯特 里
马斯特里 赫
马 尔
阻 挡</w>
门 槛</w>
逆 差</w>
违 背</w>
输 出</w>
诉 求</w>
视而 不见</w>
米 尔·
简 化</w>
站 不住</w>
空气 污染</w>
积 极
确 性</w>
硬 派</w>
真 理</w>
看 不到</w>
相 对
病 毒
版 本</w>
潘基 文</w>
源 头</w>
渗 透</w>
正 在
标 签</w>
极 少</w>
条 约
最 有效</w>
星 球</w>
昔 日</w>
新 生</w>
教 条</w>
拉 斯
执 法</w>
所 有者</w>
得益 于</w>
得 上</w>
幻 觉</w>
女 儿</w>
多 年前</w>
培 育</w>
国际 化</w>
各 种
司 机</w>
可 观</w>
单 边
十 亿</w>
制 作</w>
列 为</w>
分 子
出 生
冰 川</w>
公共 卫生</w>
先 前</w>
充分 利用</w>
令人 震惊</w>
人 选</w>
上 加
上 任</w>
三 种</w>
一 日</w>
。 诚然，</w>
· 阿
e ）
ci al</w>
S ch
F D
4 0年</w>
201 5年
201 0</w>
， 利比亚</w>
顾 客</w>
难 免</w>
迟 早</w>
调 查
要 点</w>
装 备</w>
蓝 图</w>
落 入</w>
若 干</w>
良 机</w>
股 本</w>
老 年人</w>
维 尔</w>
站 出来</w>
看 出</w>
申 科</w>
生 意</w>
点 燃</w>
残 忍</w>
本 周</w>
更 严重</w>
斯堪 的
效 率
攻 击
抬 头</w>
惊 奇</w>
徘 徊</w>
平 稳</w>
市 长</w>
基因 组</w>
场 所</w>
国际 关系</w>
各种 各样</w>
印度 政府</w>
医 药</w>
副 总统</w>
利 比亚
划 定</w>
几 次</w>
冷 静</w>
依 然
使 用
作 为</w>
低 点</w>
伙伴 关系
众 议院</w>
什 么
事 ，</w>
两 年前</w>
上 将</w>
万 亿</w>
一 生</w>
s t
T P
I I
A c
201 3年
1 月
（ O
高等 教育</w>
陷 入
这个 词</w>
迁 徙</w>
轨 迹</w>
赶 超</w>
词 汇</w>
观 众</w>
西方 人</w>
臭名 昭
经 费</w>
移 动
科学 家们</w>
登 上</w>
环境 问题</w>
猛 烈</w>
特 区</w>
溢 价</w>
清 理</w>
涌 现</w>
海 地区</w>
治 愈</w>
正常 化</w>
标 题</w>
暂 时性</w>
智 力</w>
旅 游</w>
摩 擦</w>
推 动力</w>
指 挥</w>
把 持</w>
戴 高乐</w>
恶性 循环</w>
总 部</w>
微 软</w>
当 成</w>
弥 合</w>
平衡 ，</w>
布 朗</w>
巴乔 夫</w>
实 用
夸 张</w>
大 臣</w>
大 为</w>
外 长</w>
增 速</w>
地 说</w>
困 惑</w>
回报 率</w>
告 诉
合法 化</w>
右 派</w>
半 岛
到 处</w>
分 类</w>
分 为</w>
内 政</w>
共和 党人</w>
克 罗
保 住</w>
之 举</w>
丝 毫</w>
不 管
万 名</w>
一个 错误</w>
。 据
ti n
oh n</w>
is si
i f
i d</w>
en d
Inter n
GDP 比率</w>
A ）</w>
2 6
鱼 类</w>
领 袖
采 访</w>
适 得
适得 其
退 化</w>
追 踪</w>
进 攻</w>
返 回</w>
转折 点</w>
贿 赂</w>
讲 述</w>
观 看</w>
范 式</w>
臭名昭 著</w>
联合国 大会</w>
老 板</w>
绿 色
经济学 家们</w>
管 辖</w>
监 督
理 想
现实 主义</w>
牺 牲
注 重</w>
没 错</w>
求 助</w>
毫不 奇怪</w>
次 要</w>
桥 梁</w>
未 经</w>
日 趋</w>
无 意</w>
新兴 市场
新 政</w>
斯洛伐 克</w>
援 助
抵 达</w>
慢 性
德黑 兰</w>
征 服</w>
弗 兰
帝 国
布 托</w>
实 实
实实 在
失业 者</w>
大 有</w>
大 公司</w>
多 米
坚 实</w>
回 来</w>
噩 梦</w>
善 意</w>
吸 纳</w>
吞 并</w>
原教旨 主义</w>
南斯 拉夫</w>
十 字
初 期</w>
保守 党</w>
依 存</w>
乐 于</w>
不 敢</w>
一 如</w>
一 夜</w>
一 人</w>
l a
D evelop
12 %</w>
11 %</w>
： “
雪 上加
集 权</w>
钢 铁</w>
部 族</w>
遗 留</w>
遍 布</w>
这一 回</w>
赞 助</w>
赌 博</w>
资 料</w>
说 出</w>
表 演</w>
莱 斯</w>
范 例</w>
脂 肪</w>
股 份</w>
约束 力</w>
策 划</w>
福 岛</w>
磋 商</w>
生物 学</w>
特拉 维
特别提款 权</w>
烟 草</w>
溢 出</w>
浮 现</w>
流行 病</w>
此 人</w>
正在 进行</w>
歇 尔</w>
植 物</w>
格 局</w>
构 想</w>
明证 。</w>
教科 书</w>
教 堂</w>
政府 机构</w>
攻 势</w>
摩 根
挫 折</w>
拙 劣</w>
抑郁 症</w>
扭 曲
手 术</w>
所 言</w>
战 。</w>
成 年人</w>
惨 重</w>
悲 惨</w>
小 布什</w>
实实在 在</w>
安倍 经济学</w>
存 量</w>
存 活</w>
夺 走</w>
大 小</w>
大 军</w>
处 可见</w>
增 大</w>
塑 料</w>
埃博 拉</w>
场 合</w>
国 会
回 国</w>
四 分之
哥伦 比亚
原 理</w>
占 领
博 客</w>
加 重</w>
军 费</w>
公 然</w>
公 务
克 制</w>
依然 在</w>
例 外
伯克 利</w>
会 面</w>
丰 厚</w>
中国 共产党</w>
中 心
严 重
世贸 组织</w>
专业 人士</w>
不同 于</w>
一 任</w>
。 除非</w>
u p
s ti
r a
le s</w>
in d
F acebook</w>
500 亿美元</w>
4 00
199 0年代</w>
10 月
， 例</w>
， 不
（E uropean</w>
（ B</w>
高速 公路</w>
高 加
马 哈
领袖 们</w>
雪上加 霜</w>
随 处可见</w>
阿 塞
金正 恩</w>
那 里</w>
那 场</w>
适得其 反</w>
这一 幕</w>
赞 扬</w>
解 。</w>
葛 兰</w>
节 省</w>
致 死</w>
而 下</w>
美国 银行</w>
维 基
维 和</w>
眼 里</w>
环 保
滋 生</w>
游 击
泄 漏</w>
残 暴</w>
步 入</w>
正 面临</w>
正 规</w>
欧 美</w>
检察 官</w>
梅德韦 杰夫</w>
极 限</w>
杰 出</w>
未 知</w>
最 富有</w>
景 象</w>
无所 作为</w>
无 条件</w>
搜 集</w>
捷 克</w>
扩张 性</w>
或 少</w>
或 多
或多 或少</w>
微 小</w>
开 创</w>
希 尔</w>
女 人</w>
奖 金</w>
失 控</w>
天 安
复 燃</w>
复 兴
城 镇</w>
同 胞</w>
可 疑</w>
反 驳</w>
博 弈</w>
升 温</w>
动 型</w>
六 年</w>
克格 勃</w>
先 决
中 断</w>
东 北
el l
D P</w>
2001年 9月11日</w>
2 2
齐 普
麦 克
鸿 沟</w>
马克 思
顾 虑</w>
页 岩</w>
里斯 本
逃 脱</w>
走 私</w>
货 物</w>
被 动</w>
董 事</w>
营 企业</w>
苦 苦</w>
自 杀
自 卫</w>
背 负</w>
聚 变</w>
缩 水</w>
经济 结构</w>
终 止</w>
纪念 日</w>
离 析</w>
生 育
甚 微</w>
特 色</w>
消 失
海 域</w>
比 尔·
殆 尽</w>
本 土</w>
更 强大</w>
日 常
无 处
摩尔多 瓦</w>
捐 款</w>
抉 择</w>
所 当然</w>
戈尔 巴乔夫</w>
感 谢</w>
总 和</w>
影 片</w>
弗拉 基
开 明</w>
废 墟</w>
年 份</w>
市 民</w>
巧 妙</w>
尼 西亚</w>
封 锁</w>
孩 子们</w>
奠 定</w>
大 革命</w>
大 致</w>
壮 大</w>
在 那里</w>
和 法国</w>
向 下</w>
名 言</w>
吉 尔
可 怜</w>
发 育</w>
反 常</w>
参 选</w>
原则 上</w>
压 抑</w>
危 及</w>
北 极
几 位</w>
克 里</w>
先决 条件</w>
例 。</w>
估 值</w>
优 点</w>
伊 布
仍 未</w>
事 先</w>
为 人</w>
为 人
中国 人民银行</w>
两 难</w>
东 方</w>
不 了</w>
三 次</w>
一 年
s s
l t</w>
er g
e x
F S
E conom
B R
8 月
7 5%</w>
50 亿美元</w>
200 9</w>
20 0</w>
197 3年</w>
11 月
10 亿美元</w>
， 布</w>
高 官</w>
阿塞 拜
道 义</w>
过去 五年</w>
达尔富 尔</w>
资本 流</w>
货币 政策
负 有</w>
负 担
读 者</w>
说 辞</w>
说 话</w>
设 计
解 雇</w>
表 态</w>
行 性</w>
荣 誉</w>
自 相
而 出</w>
老 人</w>
糖 尿
签 证</w>
短 视</w>
生 素</w>
球 队</w>
王 朝</w>
独 有</w>
演 说</w>
演 变为</w>
沿 岸</w>
民 意
次 于</w>
机 械</w>
本 能</w>
更 进一步</w>
普 京
日常 生活</w>
无 异</w>
旅 游
新 鲜</w>
指 数
战 ，</w>
慢 慢</w>
意 在</w>
想 象
恰 好</w>
恐 吓</w>
思想 家</w>
德国 政府</w>
广 义</w>
幽 灵</w>
幕 后</w>
尽 力</w>
将 要</w>
官 们</w>
如 此</w>
头 条</w>
太 空</w>
多 名</w>
处 境</w>
坐 视</w>
地区 性</w>
圣 地</w>
哈佛 大学</w>
品 牌</w>
后 面</w>
可信 度</w>
分 裂
兴 奋</w>
关 联
公务 员</w>
公 开
八 国集团</w>
偿 债</w>
保 障
仪 式</w>
交 道</w>
五 分之一</w>
为 由</w>
不 起</w>
一致 性</w>
一 时</w>
。 据</w>
un d
i t</w>
F T
， 当
， 危机</w>
， 利率</w>
（R obert</w>
首脑 会议</w>
页岩 气</w>
限 期</w>
阿根 廷
重 。</w>
邮 件</w>
遗 忘</w>
连 串</w>
象征 性</w>
论 调</w>
衷 于</w>
虚 弱</w>
获 利</w>
艰 苦</w>
自 豪</w>
肺 结
缺 点</w>
继 承
结构性 改革
篮 子</w>
简 而
穿 越</w>
税 。</w>
理 所当然</w>
温 和
混 淆</w>
法兰 克
没 了</w>
比 起</w>
死 去</w>
极 具</w>
权 衡</w>
最 小</w>
暴 力
无 能
无 助</w>
改革 派</w>
摇 摇
携 带</w>
感 觉
弹 性</w>
引 向</w>
度 过</w>
带 领</w>
已 知</w>
已 故</w>
岛 屿</w>
定 居
宏观 经济
威 尔</w>
姆 ·
多 哈</w>
外 资</w>
复 制</w>
否 决
合 理性</w>
可 知</w>
反 犹
原教 旨</w>
印度 尼西亚</w>
卢旺 达</w>
加 纳</w>
利 ，</w>
创始 人</w>
创 纪录</w>
凯 恩</w>
军 政府</w>
军 力</w>
共 有</w>
六 个月</w>
党 政府</w>
兑 换</w>
克 萨
信 条</w>
信 任
供应 商</w>
会 不会</w>
付 诸</w>
买 卖</w>
中 日</w>
专 家们</w>
不 惜
不 啻</w>
不 切
下 行</w>
上 而下</w>
。 比方说</w>
sti tu
r on
or d
n e
is t
an k
N A
C C</w>
9 年以来</w>
200 0</w>
， 哈马斯</w>
齐普 拉斯</w>
马 利
首 席
非洲 人</w>
集 体
降 临</w>
重 获</w>
远 。</w>
赶 上</w>
赚 取</w>
调 节</w>
许 多
言论 自由</w>
视 频</w>
血 液</w>
节 奏</w>
自 上而下</w>
背 叛</w>
肿 瘤</w>
缴 纳</w>
维也 纳</w>
终 极</w>
第 五
第 一位</w>
科威 特</w>
砍 伐</w>
盛 行</w>
男 女</w>
电 动</w>
生产 性</w>
瓦 哈
瓜 多
现 场</w>
特 朗
灰 复燃</w>
激 怒</w>
渐 进</w>
法 ，</w>
死 灰复燃</w>
杀 人
更 糟</w>
日 俱
敢 于</w>
撤 销</w>
提 起</w>
拿 到</w>
打 交道</w>
性 化</w>
已 然</w>
宽 带</w>
奋 斗</w>
失 调</w>
天 后</w>
大 体</w>
大 体
大体 上</w>
增 值
圣 地
国务 院</w>
哈 里
后果 ，</w>
名 词</w>
可 言</w>
叫 做</w>
原 先</w>
厄 瓜多
南 美</w>
勉 强</w>
劣 势</w>
制造 商</w>
制度 性</w>
刘 晓
准 确地</w>
冠 军</w>
停滞不 前</w>
侯 赛
体 重</w>
代 理</w>
人 工
亚努科 维奇</w>
中 部</w>
两 个月</w>
不切 实际</w>
不 无</w>
不 动
一 组</w>
。 否则</w>
ti c
en t</w>
S h
A l
A g
5 亿</w>
200 0
， 光</w>
首席 执行
顶 级</w>
音 乐</w>
阅 读</w>
金 属</w>
重 现</w>
重 心</w>
里 程
里 夫</w>
酝 酿</w>
过去 20年</w>
过 来</w>
跟 踪</w>
起 初</w>
话 说</w>
议 案</w>
言之 ，</w>
萨 默
花 旗
胜 任</w>
肯尼 迪</w>
考 量</w>
罪 恶</w>
相 似
直 至</w>
目的 地</w>
用 水</w>
物 理</w>
热 衷于</w>
游 戏
洞 见</w>
污 染
永远 是</w>
时 常</w>
无 非</w>
新 时代</w>
斯 诺
数 字
改 良</w>
慕尼 黑</w>
悲 观
总 共</w>
快 乐</w>
忙 于</w>
归 结</w>
延 缓</w>
度 假</w>
工业 革命</w>
崇 拜</w>
尽 量</w>
容 克</w>
天 真</w>
地 方
地 产</w>
在 此
国际货币基金组织 （IMF）</w>
国际 刑事
国 神
吸 烟</w>
听 闻</w>
向 来</w>
后 尘</w>
可 行性</w>
单 个</w>
区 内</w>
加 息</w>
前 瞻
刻 意</w>
制 。</w>
创新 性</w>
农 业
再 融资</w>
典 范</w>
其 后</w>
六 个</w>
公 决</w>
克 劳
偏 执</w>
供 给
伊布 勒</w>
仅 次于</w>
中 立</w>
丢 掉</w>
世 行</w>
不 扩散
不 安
不 上</w>
不 一样</w>
” 、
ti on
ro w
re s
m an）</w>
m an
i z
ar d</w>
N P
200 5年
1 日</w>
驻 扎</w>
预 想</w>
革 新</w>
靠 近</w>
雷曼 兄弟</w>
阿拉伯之 春
部 长们</w>
通 货</w>
选 战</w>
运 气</w>
贸易 顺差</w>
规 避</w>
见 者</w>
行 径</w>
蚊 帐</w>
药 性</w>
英 里</w>
芝加 哥</w>
舞 弊</w>
而 生</w>
羞 辱</w>
美 洲
罗 夫</w>
网 络
经 合</w>
约 瑟
精神 病</w>
相 容</w>
男 子</w>
生 存
物理 学</w>
灭 绝
激 励
澄 清</w>
清 真
清 单</w>
波 罗
水 资源</w>
毁 掉</w>
根 除</w>
曼德 拉</w>
教 学</w>
攫 取</w>
掩 饰</w>
接 种</w>
捕 捞</w>
拖 入</w>
拉 加
战争 ”</w>
战 役</w>
感觉 到</w>
怀 疑
心 脏
弗拉基 米尔·
引 出</w>
延 迟</w>
幸福 感</w>
师 们</w>
布 尔
巴 罗
局 部</w>
天 生</w>
多 样</w>
增 量</w>
塔 尼亚</w>
基本 原则</w>
地 ，</w>
咨 询</w>
各 类</w>
只 需</w>
变 动</w>
原 材料</w>
卓 越</w>
剥 削</w>
刘晓 波</w>
分 崩
冷 漠</w>
八 十年代</w>
偶 然</w>
健 全</w>
停 留</w>
任 ，</w>
为人 知</w>
中 间
严重 性</w>
两 场</w>
丝 绸
上 半年</w>
一 连串</w>
。 鉴</w>
ou r
o t
n ）</w>
h t
g t</w>
enc e</w>
ac h
U ni
N P</w>
M D
1 万亿美元</w>
000 个</w>
（ E</w>
麦 凯恩</w>
额 度</w>
预防 性</w>
预 先</w>
随 机</w>
限 性</w>
长 ，</w>
金正 日</w>
配 合</w>
遗 憾
选 择
进 口
这一 代</w>
过去 二十年</w>
贯 彻</w>
贝 鲁
詹 姆
触 及</w>
解 ，</w>
罪 魁
绝 不会</w>
税 ，</w>
硅 谷</w>
研究 成果</w>
省 份</w>
监 视</w>
源 泉</w>
源 。</w>
流 程</w>
法 制</w>
某 些人</w>
极端 主义者</w>
末 日</w>
最 优</w>
暗 杀</w>
日内 瓦</w>
无 序</w>
无 一
改革 者</w>
提 倡</w>
打 消</w>
成 年</w>
感 受</w>
悬 而
性 ”</w>
心 目</w>
微 弱</w>
开 战</w>
就 好</w>
少 量</w>
导 向
安 置</w>
安 南</w>
学 术
学 到</w>
大 笔</w>
品 质</w>
单 边</w>
协定 ，</w>
协 力</w>
北 约
别 国</w>
初 始</w>
分崩 离析</w>
分 钟</w>
准备 金</w>
决 裂</w>
冒 险
八 年</w>
修 补</w>
信 徒</w>
体 育
京 都</w>
交易 所</w>
亏 损</w>
习 惯
不惜 一切</w>
一小 撮</w>
。 此外，</w>
u d
s e</w>
om p
ation ）</w>
a f
C omm
5 岁</w>
5 0年代</w>
201 6年</w>
200 4年
1. 5%</w>
鼓 动</w>
鸦 片</w>
验 证</w>
食 品
靖 国神
难 民
阿塞拜 疆</w>
铭 记</w>
针 对
通胀 。</w>
还 不够</w>
超级 大国</w>
谈 到</w>
言 辞</w>
见 到</w>
萨默 斯</w>
萎 靡
自 豪
老 化</w>
美国 财政部</w>
罗 塞
维 系</w>
统 计
简 单
第三 ，</w>
理 智</w>
滑 向</w>
清真 寺</w>
注 资</w>
泛 滥</w>
民意 调查</w>
欧洲 政府</w>
格 里
权 者</w>
昂 山
无处 不在</w>
政 局</w>
收 入
支 出
携 手</w>
援 引</w>
挤 出</w>
按揭 贷款</w>
拉美 国家</w>
抗 生素</w>
投票 权</w>
手 旁
戴 维
成 百上
恰 恰
性 ——</w>
必 定</w>
心脏 病</w>
德 斯</w>
得 主</w>
彰 显</w>
强 度</w>
建 成</w>
家 中</w>
夫 妇</w>
大 权</w>
大 使馆</w>
国 大
国 土</w>
国 债
哈 特</w>
合 。</w>
叙 事</w>
反 馈</w>
卡 拉
十年 间</w>
匮 乏</w>
加 勒
出 任</w>
其 量</w>
兴 奋
关 乎</w>
充 其量</w>
偏 向</w>
侵 略
佛 罗
伎 俩</w>
任 职</w>
人 听闻</w>
亲 密</w>
买 家</w>
为 主</w>
临 时性</w>
中 位</w>
不管 怎
上 周</w>
一 党</w>
w it
u t
l os</w>
P ol
GDP 增长率</w>
CE O</w>
50 0</w>
20 亿美元</w>
194 5年</w>
00 万</w>
， 鉴</w>
， G</w>
！ ”</w>
黑 色</w>
首席执行 官</w>
隐 瞒</w>
闹 剧</w>
钱 。</w>
里 亚</w>
部 地区</w>
那 么多</w>
遗憾 的
遗憾的 是</w>
通胀 ，</w>
迷 失</w>
迫 在
迫在 眉
这 件事</w>
轻 微</w>
越 过</w>
越 好</w>
起 源</w>
赤 裸
谈 话</w>
证券 化</w>
议 者</w>
装 置</w>
蛋白 质</w>
薪 水</w>
薄 弱</w>
蔑 视</w>
蒙 蒂</w>
自然 灾害</w>
罹 患</w>
罪魁 祸
绕 过</w>
经 理</w>
米 洛
第二 种</w>
秋 天</w>
目 标
犹太 复
物理 学家</w>
深 深</w>
流 亡</w>
没 完
没完 没了</w>
气候 变化
标 志
李 光
李光 耀</w>
权 重</w>
昂山 素
新兴市场 经济体</w>
新 药</w>
斯诺 登</w>
收 拾</w>
推 测</w>
掠 夺</w>
损 失
拓 展</w>
护 理</w>
把 握</w>
所 属</w>
戈 尔</w>
意 志
悬而 未
循 环
库 存</w>
帐 户</w>
巴格 达</w>
工 资
峰 值</w>
导 性</w>
对冲 基金</w>
密 集</w>
客 观</w>
学 派</w>
奥斯 曼
大相径 庭</w>
大 楼</w>
国 ”</w>
发言 人</w>
原 料</w>
十 八
区 域
化 合物</w>
动 议</w>
制 药
分 支</w>
出 路</w>
决 定
决 。</w>
冲 突
克 什
体 面</w>
低 廉</w>
伪 善</w>
会 计</w>
会 引起</w>
优 质</w>
伊斯兰 共和国</w>
仅 靠</w>
仅 限于</w>
亚 尔</w>
于 衷
事 项</w>
乳 腺癌</w>
乌克 兰
乌 里
中 印</w>
两 极
东北 亚</w>
不 堪
不 善</w>
七 年</w>
。然 而</w>
in e</w>
ar ry</w>
Intern ational</w>
In stitu
3 月
19 0
000 万</w>
， 非</w>
％ ，</w>
％ 。</w>
顶 层</w>
零 。</w>
里· 克林顿</w>
辉 煌</w>
身 边</w>
走 势</w>
赤裸 裸</w>
许 诺</w>
裁 定</w>
行 者</w>
融 化</w>
蒙 受</w>
荷 兰
艾滋 病
自相 矛盾</w>
脚 步</w>
耗 资</w>
罗 格
第二 次世界大战</w>
穆罕默 德·
移 植</w>
科索 沃
种族 主义</w>
直 接
疏 远</w>
班 加
火 箭</w>
测 验</w>
每 一次</w>
植 根</w>
柏 林
权 威
权 势</w>
暴 政</w>
显 露</w>
明 朗</w>
日 期</w>
既 定</w>
放 心</w>
捍 卫
拿 破
拉 丁</w>
投票 率</w>
托 马
打 着</w>
想象 力</w>
心 脏</w>
强 行</w>
底 层</w>
希拉 里·克林顿</w>
巴 布
崇 高</w>
小 心
小 儿
将 军
对 准</w>
定 为</w>
宗教 信仰</w>
孟 买</w>
夺 取</w>
多边 主义</w>
国有 化</w>
各 不相同</w>
受 灾</w>
取 而
参与 率</w>
危险 性</w>
占 有</w>
华尔 街
午 餐</w>
区 区</w>
前 例</w>
剂 量</w>
初 步</w>
划 分</w>
切 尔
公 信
全 面
光 明</w>
偿 付
伯克 利
伊 始</w>
人 质</w>
人 大</w>
五 年前</w>
主 体</w>
东 海</w>
不 知
不 公</w>
一 类</w>
· 斯
y ）
o m</w>
i r</w>
an t
200 3年
199 6年</w>
100 %</w>
1 2</w>
0年 后</w>
0. 5%</w>
， 沙特</w>
， 巴勒斯坦</w>
（J ohn</w>
（ 经</w>
麻 痹
高 峰</w>
高 中</w>
驻 军</w>
集 会</w>
附 加值</w>
闻 名</w>
长 官</w>
银行 、
金本 位
里 面</w>
远 景</w>
进 步
输 送</w>
践 踏</w>
趋 向</w>
视 角</w>
规 律</w>
萨达 特</w>
莱 坞</w>
莫 拉
航 空</w>
自由 市场</w>
聚 焦</w>
耻 辱</w>
耶路撒 冷
结 成</w>
结 婚</w>
笔 者</w>
竟 然</w>
移 交</w>
禁 忌</w>
百 万
用 以</w>
球 迷</w>
火 箭
潜 在
演 愈
波 及</w>
油 气</w>
水 准</w>
气 氛</w>
正 统
欧元 ，</w>
欧 亚
核 弹</w>
标志 性</w>
极 少数</w>
李 克
李克 强</w>
更 迭</w>
星 期
新 西
数 目</w>
救 济</w>
推 理</w>
愈 演愈
患 有</w>
忧 心
微 观</w>
微 不足
强 硬派</w>
弗拉基米尔· 普京</w>
引 领</w>
年 会</w>
平 常</w>
巴尔 干</w>
巴 塞尔
巨 量</w>
岌 岌
岌岌 可
局 限性</w>
就是 为
就是为 了</w>
小儿 麻痹
将军 们</w>
家 长</w>
家 里</w>
实 用</w>
媲 美</w>
大 有
大 不相同</w>
复杂 化</w>
堕 落</w>
垃 圾</w>
圣 诞
国 度</w>
回 购</w>
商 店</w>
命 名</w>
听 取</w>
史 无
发 制
印度 洋</w>
印度 教</w>
博 弈
十 多年</w>
动 乱</w>
剑桥 ——</w>
利 ·
列 强</w>
分析 师</w>
分 离
出 不
几 百年</w>
冲 动</w>
农 产品</w>
其 原因</w>
公信 力</w>
免 除</w>
先 发制
倡 导</w>
俄罗斯 天然气
侮 辱</w>
住 在</w>
伊斯兰 革命</w>
亿 万</w>
人 性</w>
两极 分化</w>
东道 国</w>
不 受欢迎</w>
上 学</w>
三 个月</w>
一 波</w>
· 卡
u s</w>
p l
or ld</w>
i e
en n
T r
R es
Part y）</w>
4 0</w>
2 万亿美元</w>
2 5</w>
197 1年</w>
193 0年代</w>
0年代 中期</w>
， 如</w>
（ V
驱 动力</w>
马 士
霸 主</w>
隐 私</w>
隐 性</w>
降 级</w>
重新 开始</w>
重 负</w>
里斯本 条约</w>
通货膨胀 ，</w>
逆 转
追 随</w>
这 些
轻 而易
轴 心</w>
足 轻
试 验
设 在</w>
视 作</w>
袖 手旁
行动 者</w>
虔 诚</w>
菲 尔德</w>
英格 兰</w>
苏 维
艾哈迈 迪
胜 出</w>
老 牌</w>
罗格 夫</w>
绝 对
终 身</w>
纯 属</w>
紧缩 。</w>
紧 迫
第一 种</w>
私 下</w>
祖 先</w>
看 见</w>
盯 住</w>
疼 痛</w>
生 理</w>
现 存</w>
环境 保护</w>
渺 茫</w>
渐 进
消 退</w>
海 滩</w>
波 兰
法国 政府</w>
民族 主义
毫无 意义</w>
每 人</w>
欺 诈</w>
欲 望</w>
欧洲 货币联盟</w>
桑 托
核 反应堆</w>
来 得</w>
有 利
替代 品</w>
更 替</w>
更 安全</w>
政 党
擅 长</w>
提供 者</w>
投资 者们</w>
批 判</w>
托 尼·
慈 善
忧心 忡
心 中</w>
库 尔德</w>
希 望。</w>
巴 林</w>
差 不多</w>
崭 新</w>
尼 加
小 规模</w>
导向 型</w>
宪 政</w>
审 核</w>
好 转</w>
大 马士
大 错
大 事</w>
增 。</w>
坏 事</w>
图 景</w>
回 家</w>
司 法
史无 前例</w>
可 用</w>
友 们</w>
原子 弹</w>
厄瓜多 尔</w>
卸 任</w>
卢 拉</w>
卡尔 扎
北 京
势 力
劳动 密集型</w>
加 工</w>
前 夕</w>
凌 驾</w>
决 ，</w>
军 人</w>
写 入</w>
党 员</w>
先 是</w>
保 加
余 额</w>
低 工资</w>
伊斯 坦
仿 佛</w>
事 后</w>
买 单</w>
之 以
主 教</w>
个 性</w>
不 通</w>
不 合
下 一步</w>
一 般
一 月</w>
p ar
l ’
it y）</w>
is m
e f
J P
7 日</w>
6 0</w>
4 个</w>
3 5%</w>
100 年</w>
高 收入</w>
顾 及</w>
面 对着</w>
阿拉伯 国家
队 伍</w>
锁 定</w>
针对 性</w>
避 开</w>
过去 30年</w>
过 热</w>
轻而易 举</w>
足 联</w>
资 深</w>
资 不
计 ，</w>
西 奈
裨 益</w>
袭 击
融 资
莫拉 莱斯</w>
自 卫队</w>
网 上</w>
缔 造</w>
经济学 奖</w>
经济 增长率</w>
纳 米</w>
突 破
科 尔
盲 目</w>
监 禁</w>
用 处</w>
生 长</w>
理 查
激 活</w>
沉 迷</w>
枯 竭</w>
束 手
杀 人</w>
有 毒</w>
有 损</w>
暴 动</w>
暗 中</w>
新 疆</w>
斯大 林
斯堪的 纳
教 士</w>
放 宽</w>
支 点</w>
搁 置</w>
持 有者</w>
拉 脱
拉 姆
愈 加</w>
惯 例</w>
总 体
忌 惮</w>
开 辟</w>
开 出</w>
应 是</w>
庇 护者</w>
幻 想
巴 希尔</w>
层 出不
尼 斯
就 任</w>
富 兰
孟加 拉</w>
孕 育</w>
始 作
始作 俑
始作俑 者</w>
失 败
天 才</w>
大 声</w>
多 ，</w>
塞 拉
在此 之前</w>
国防 部</w>
四 处</w>
商 务</w>
含 有</w>
名 叫</w>
同 行</w>
同 僚</w>
合 成</w>
合 并</w>
受 害</w>
发 酵</w>
反 击</w>
卢 布</w>
卢 卡
卡尔德 隆</w>
卡 特
南 北</w>
单边 主义</w>
半岛 电视台</w>
劳 力</w>
加利福 尼亚</w>
判 处</w>
全国 性</w>
克罗 地
修正 案</w>
保加 利亚</w>
保 罗</w>
俄罗斯天然气 工业
例 ，</w>
伊斯兰 主义</w>
以 为
代表 团</w>
产 业
书 籍</w>
中 介</w>
与 会</w>
不可 逆转</w>
不 懈</w>
下 半年</w>
三 角
一 百万</w>
一 点
。 布什</w>
。 布</w>
。 奥巴马</w>
· 罗斯福</w>
ur e</w>
t h</w>
p ol
mer ic
in ）</w>
ab il
E n
E C</w>
A n
8 日</w>
7 0</w>
5 年后</w>
4 5%</w>
20 峰会</w>
1 20
， C
驳 斥</w>
马克 思</w>
预 警</w>
非 法
限 额</w>
限 定</w>
错 觉</w>
铀 浓缩</w>
钓 鱼
适 应
过去 三年</w>
过 往</w>
达尔 文</w>
身 后</w>
赫 鲁
贸易 部门</w>
购 物</w>
贩 毒</w>
财 长</w>
训 练
认 清</w>
被 控</w>
街 道</w>
落 到</w>
萎靡 不振</w>
莱 因
苏 丹
自由 。</w>
肺结 核</w>
美国 国家
置 身</w>
维 克
素 质</w>
科 夫斯基</w>
碰 撞</w>
相 近</w>
益 处</w>
病 例</w>
疲 软
生育 率</w>
特朗 普</w>
牢 记</w>
灌 溉</w>
渔 业</w>
添 加</w>
淹 没</w>
淘 汰</w>
消费 税</w>
测 算</w>
波 士
水 面</w>
民 选</w>
正 义
森 堡</w>
格 莱
样 子</w>
柔 性</w>
板 球</w>
普通 人</w>
时 尚</w>
无 尽</w>
施 行</w>
斗 争
数十 亿</w>
提 取</w>
挤 兑</w>
招 致</w>
投资 银行
打 下</w>
战略 性</w>
战 线</w>
微不足 道</w>
得 出
徒 劳</w>
庸 置疑</w>
布 尔</w>
巴基 斯坦
对 应</w>
富 翁</w>
审 议</w>
学 位</w>
头 巾</w>
央 行
天 赋</w>
大 面积</w>
多 德</w>
外 人</w>
塞 族</w>
固 有</w>
囤 积</w>
善 于</w>
名 誉</w>
名 人</w>
卡尔扎 伊</w>
南 苏丹</w>
卓 著</w>
华盛顿 特区</w>
区域 性</w>
加 紧</w>
剔 除</w>
出口 商</w>
几 率</w>
先发制 人</w>
先 生</w>
充分 就业</w>
假 装</w>
侵 害</w>
余 地</w>
位 居</w>
任 理事
价 格
交易 员</w>
亚 历
乱 象</w>
中 华
不管怎 样</w>
不确 定
不 清</w>
不 快</w>
下 一代</w>
ti n</w>
s k
org e</w>
n ers
m an</w>
ic h
am m
TP P</w>
6 日</w>
3 5
20世纪 50年代</w>
201 1</w>
2008 年以来</w>
2. 5%</w>
2 8
198 0年代</w>
197 0年代</w>
197 0年</w>
18 %</w>
1 年以来</w>
， 比</w>
， 政府</w>
， 据
黯 淡</w>
鲜 有</w>
高 尚</w>
首 尔
靖国神 社</w>
难以 置
阳 光</w>
连 锁</w>
进 化
转 型
躲 避</w>
赞 美</w>
贬 低</w>
误 导性</w>
诉 讼
讨 厌</w>
警 示</w>
詹姆 斯·
觉 醒</w>
规 模
规 划
补 救</w>
衍 生</w>
艺术 品</w>
航 班</w>
自 发</w>
肆 意</w>
职 人员</w>
群 岛</w>
美 德</w>
罪魁祸 首</w>
约 翰</w>
紧 随</w>
笼 罩</w>
第三 次</w>
第一 次世界大战</w>
突 然
神 秘</w>
社会 化</w>
社会 主义
真 如此</w>
相 符</w>
相 去
相去 甚
益 。</w>
略 微</w>
猖 獗</w>
独 自</w>
特拉维 夫</w>
物 品</w>
牛 津
爱 因
热 烈</w>
演 变</w>
演 习</w>
游击 队</w>
深 感</w>
深 思
活动 家</w>
波罗 的
沙 漠</w>
氏 度</w>
此 事</w>
曙 光</w>
普 遍
日 后</w>
斯 特</w>
数十 万</w>
放 贷</w>
放 射
收 取</w>
支持 者们</w>
摇 摆</w>
捍卫 者</w>
挥 之不
挥之不 去</w>
指挥 官</w>
拉 动</w>
抵 债</w>
抗 拒</w>
技术 性</w>
手 下</w>
所 欲</w>
所 在
意 料
意 外
恶 性</w>
性 、</w>
当 初</w>
归 属</w>
建筑 业</w>
库 德
市场 化</w>
巨 人</w>
就是 要</w>
尤 科
寡 头</w>
安全 感</w>
委 托</w>
太 阳</w>
大 坝</w>
坦 克</w>
坚 守</w>
坎 布里
土 著</w>
回 升</w>
品 。</w>
启 发</w>
后 期</w>
可 持续
口 头</w>
变 量</w>
发言 权</w>
卡 斯特
十 足</w>
化 学
包 装</w>
利 斯</w>
军事 化</w>
关塔 那
免 不了</w>
克罗地 亚</w>
储蓄 ，</w>
停滞不前 。</w>
停 顿</w>
倒 是</w>
会 议
优 先
乌 拉
乌 干
业 绩</w>
世界 贸易
万 亿
一 门</w>
一 本</w>
。 果</w>
p or
ners hi
li m
f or
c h</w>
amp nbsp</w>
T ）</w>
I ）</w>
Develop ment</w>
C oun
A K
9 0年代</w>
20世纪9 0年代末</w>
200 0年
198 1年</w>
196 0年</w>
17 0
1 3%</w>
0. 7%</w>
（ T</w>
（ D</w>
默 认</w>
鲨 鱼</w>
马斯特里赫 特
饥 饿
餐 馆</w>
领 先
须 知</w>
霍 尔
难以置 信</w>
陷入 困境</w>
陌 生
附 带</w>
销 售
金本 位</w>
重 蹈</w>
避 难</w>
通货膨胀 率</w>
通货膨胀 。</w>
通 向</w>
迟 迟</w>
输 家</w>
轮 值</w>
起 源于</w>
赤字 。</w>
贡 献
诱 惑
诊 所</w>
观 ，</w>
衰 退
行 。</w>
营 销</w>
莫斯 科
节 能</w>
节 制</w>
艾哈迈迪 内贾德</w>
艺术 家</w>
自由贸易 协定</w>
联合 政府</w>
翻 番</w>
美国 人
美 日</w>
罚 款</w>
维也 纳
累 计</w>
等 级</w>
称 得上</w>
禁 运</w>
社会 保障
破坏 力</w>
眼 睛</w>
男 孩</w>
激 动</w>
波斯 湾</w>
油 田</w>
核 聚变</w>
杀 手</w>
期 货</w>
有 条件</w>
有 意义</w>
替 换</w>
暴 涨</w>
时间 表</w>
日内 瓦
新西 兰</w>
新 近</w>
新 书</w>
支 付
操 作
摄 氏度</w>
捷克 共和国</w>
拉脱 维亚</w>
抗 争</w>
投机 者</w>
执 政党</w>
忠 实</w>
德 克萨
得出 结论</w>
很 长时间</w>
强 奸</w>
度 ，</w>
广 播</w>
常 任理事
布鲁塞尔 —</w>
尔 森</w>
尔 斯</w>
少 年</w>
小儿麻痹 症</w>
小 泉</w>
将 它</w>
密 尔
定 律</w>
安 慰</w>
失 效</w>
大 陆
大 萧条
大 经济体
处 置</w>
在 意</w>
固 定
四分之 三</w>
四 倍</w>
向 上</w>
各 自
吃 惊</w>
可 悲</w>
召 集</w>
另 有</w>
参 拜</w>
卢 森堡</w>
卡斯特 罗</w>
刚 开始</w>
刚 刚开始</w>
出 身</w>
出 租
冲 击
冰 岛</w>
写 照</w>
内 罗
内 外</w>
公 债
克什 米尔</w>
催 化
保 存</w>
侵 入</w>
依 赖
佛 教</w>
余 力</w>
任 。</w>
以 内</w>
他 信</w>
亚 当
举 例</w>
主 角</w>
中 俄</w>
世界 卫生
不同 寻常</w>
不 要
不 入</w>
不 佳</w>
三 位</w>
一 回事</w>
“ 不
v e
p er
l o
FT A</w>
CD S</w>
A b
9 日</w>
5 亿美元</w>
192 9年</w>
10 个</w>
1 4%</w>
1 000
鼓 吹
高 端</w>
高 潮</w>
马哈 茂
领 土
雅 典</w>
阿富汗 政府</w>
阿 亚
问 责
问 及</w>
重 ，</w>
重 蹈
酒 店</w>
透 露</w>
违 约
过 大</w>
路 易
超 过
赚 钱</w>
赖 于</w>
谬 误</w>
诺贝尔 经济学奖</w>
试 想</w>
苹 果</w>
背 道</w>
而 上</w>
考 试</w>
罢 工</w>
罗塞 夫</w>
纵 容</w>
红 利</w>
糖尿 病</w>
算 盘</w>
筹 资</w>
突 变</w>
盈余 ，</w>
电 台</w>
牺牲 品</w>
爱尔 兰
游戏 规则</w>
深 渊</w>
流 通</w>
流 。</w>
法西斯 主义</w>
沙 文
汇 聚</w>
水 源</w>
欠 缺</w>
核 试验</w>
条 路</w>
术 语</w>
本 ·拉
本·拉 登</w>
最后 一次</w>
更 早</w>
智 利
显而易 见
旅游 业</w>
新 世界</w>
收 支
摒 弃</w>
推 断</w>
接 入</w>
振 奋</w>
挫 败</w>
拥 挤</w>
拥 护</w>
抗 衡</w>
抗 击</w>
技术 创新</w>
托尼· 布莱尔</w>
所 作</w>
房 贷</w>
慢 性</w>
愉 快</w>
惠 及</w>
总 统
心理 学</w>
德国 央行</w>
当 你</w>
带 动</w>
市场 价格</w>
巴 解</w>
工 人
寡 头
宣 战</w>
定 要</w>
好 奇
大 跌</w>
多 得
处 罚</w>
增值 税</w>
基 辛格</w>
团结 一致</w>
回 想</w>
四 十年</w>
喇 嘛</w>
哈 塔
含 糊</w>
名 列</w>
同 步</w>
吉 拉
取 缔</w>
发 言</w>
博 物
卖 给</w>
区 间</w>
劫 持</w>
利 比
分 水
出 发</w>
兼 并</w>
养 老</w>
共同 点</w>
倡 导
借 鉴</w>
信用 卡</w>
信 ，</w>
佩 克</w>
伴 侣</w>
任 由</w>
些 许</w>
亚洲 地区</w>
事 务
书 记</w>
习惯 于</w>
之 力</w>
主义 者
两 点</w>
东 正
三 项</w>
一 手</w>
一 所</w>
。 相反，
“ 新
v en
s e
r e</w>
p e
n e</w>
h e
d i
as h
ar g
al ）</w>
Part nershi
3. 5%</w>
200 6</w>
20 年代</w>
195 0年</w>
， 连</w>
（ H</w>
齐 下</w>
麻 省
驾 驶</w>
马利 基</w>
马 歇尔</w>
飞 速</w>
集 权
陌生 人</w>
阿亚 图
遵 从</w>
遇 刺</w>
逍 遥
适 度</w>
追 加</w>
远 程</w>
这 句话</w>
这 一步</w>
迎 合</w>
过去 三十年</w>
迅 猛</w>
转 基因
蹂 躏</w>
赫鲁 晓
资不 抵债</w>
贫 富
观察 员</w>
裂 痕</w>
行 为
自 行
自 此</w>
股 权
联邦 储备
老 年</w>
美元 ，</w>
编 辑</w>
缔 造
线 上</w>
纽约 时报</w>
约旦 河
紧急 状态</w>
米洛 舍
算 是</w>
第二 天</w>
第三 方</w>
福 音</w>
破 产
研究 中心</w>
矛 头</w>
看 不见</w>
生 动</w>
生 们</w>
理 ，</w>
理 工
特 网</w>
牢 固</w>
爱 国</w>
热 带</w>
濒 临</w>
消失 了</w>
流 传</w>
沿 海</w>
欧 佩克</w>
格 拉斯</w>
极 力</w>
期 权</w>
有 机
最大 限度</w>
旧 金
既 不</w>
无一 例外</w>
新 秩序</w>
斯 克</w>
数 次</w>
推 销</w>
抛 出</w>
折 扣</w>
战争 。</w>
德 意志
当务之 急
弥 漫</w>
引 进</w>
并 不足以</w>
巴布 韦</w>
屋 主</w>
富 豪</w>
实用 主义</w>
实 证</w>
学 、
子 ，</w>
好 好</w>
女 权</w>
奥斯曼 帝国</w>
奥斯 陆</w>
奥斯 陆
奇 。</w>
天 堂</w>
大 大
塞浦路 斯
塞拉 利
基 点</w>
圣地 亚
圣 彼得
国际 足联</w>
国大 党</w>
国 （</w>
困 局</w>
回 落</w>
囚 禁</w>
周 ，</w>
周 刊</w>
同 期</w>
古 兰
发 电厂</w>
反 响</w>
危机 。</w>
卡 尔·
卖 出</w>
千 亿美元</w>
十年 代
化 石</w>
劳动 生产率</w>
利 库德
创新 者</w>
分 权</w>
出生 率</w>
几 种</w>
减 小</w>
军 备
内 塔尼亚</w>
关 门</w>
公共 品</w>
免 疫
催化 剂</w>
使用 者</w>
作 风</w>
位 列</w>
传 说</w>
从 不</w>
仇 恨
什么 时候</w>
人道 主义
亲 自</w>
五 大</w>
二 次</w>
乌里 韦</w>
乌 托
乃 是</w>
举 债</w>
主 导
专 制
不足 为
不动 产</w>
下 面</w>
上 升
一 幅</w>
一 席
一 员</w>
。 ”
、 巴基斯坦</w>
” ：</w>
” ，
“ 软
r u
men t）</w>
j ec
d uc
b er
a m</w>
S um
S ec
M e
M ar
In d
G -
F C
EC B</w>
A r
A I
9 个</w>
60 亿美元</w>
3 0年前</w>
2006 年
200 2
196 8年</w>
10 亿</w>
， 比
， 旨在</w>
， 奥巴马政府</w>
， 埃尔多安</w>
（ K</w>
默 多
香 港
首 尔</w>
风 。</w>
顺 从</w>
革命 ”</w>
青 睐</w>
青 年人</w>
雄 厚</w>
隔 绝</w>
阿拉 维
阿尔 巴
长 大</w>
长 。</w>
递 交</w>
送 到</w>
迷 惑</w>
违 规</w>
这 么多</w>
这 么
运 送</w>
较 好</w>
赫鲁晓 夫</w>
赞 赏</w>
调 解</w>
诚 信</w>
诗 人</w>
论 据</w>
解 救</w>
表 决</w>
行 ，</w>
虫 剂</w>
自由贸易 区</w>
自由 ，</w>
自由 主义者</w>
自然 而
自然而 然</w>
自杀 式</w>
自 行</w>
腐 败
聚 会</w>
罗 纳德·
经 验
细 分</w>
纺 织
红 色</w>
第 五</w>
税 务</w>
移动 电话</w>
礼 物</w>
相 连</w>
盈余 。</w>
癌 细胞</w>
生 计</w>
生 机
甚 少</w>
理论 家</w>
环保 主义者</w>
爱因 斯坦</w>
爱 国主义</w>
激励 机制</w>
激 情</w>
洛 杉
法 定</w>
水 平
毛 里
每 周</w>
正 确性</w>
来 者</w>
权 限</w>
机构 投资者</w>
朔 伊布勒</w>
有 道理</w>
有 机</w>
最高 法院</w>
最低 工资</w>
更 换</w>
易 事</w>
时 日</w>
日 报</w>
无法 控制</w>
无 休
方 位</w>
救 命</w>
政 见者</w>
撤 退</w>
排 挤</w>
捕 捉</w>
招 聘</w>
拘 留</w>
戈 登</w>
憎 恨</w>
悬而未 决</w>
总 能</w>
急 速</w>
思 议</w>
怒 火</w>
忠 诚
德 尔</w>
微 不足</w>
很有 可能会</w>
弊 端</w>
异 议</w>
异 。</w>
开 放
度 。</w>
带 头</w>
巴 以
尼亚 州</w>
尖 端</w>
富兰 克林
审 计</w>
宏 伟</w>
威尔 逊</w>
妥协 ，</w>
好奇 心</w>
奢 侈</w>
大 部</w>
大 片</w>
大 卫
多 于</w>
复 仇</w>
土耳 其
吞 噬</w>
各 方面</w>
右 翼
受 制</w>
发 行
参 考</w>
占 比</w>
协议 ，</w>
化 、</w>
努 力
劝 说</w>
力 图</w>
前瞻 性</w>
利比 里亚</w>
农 作物</w>
内 涵</w>
兴 建</w>
入 狱</w>
倾 听</w>
保 密</w>
伸 出</w>
会 见</w>
会 者</w>
伊斯兰 极端主义</w>
人 工</w>
亨 利·
二十 国集团</w>
二 世</w>
事 宜</w>
争 相</w>
争 吵</w>
中东 欧</w>
中 旬</w>
世界卫生 组织</w>
不可 思议</w>
不 遗
上 世纪
丈 夫</w>
丁 ·
一 同</w>
il li
e orge</w>
ar y</w>
N T
FD I</w>
Econom ic</w>
C ar
7 个</w>
6 00
5 年以来</w>
3 日</w>
25 个</w>
198 2年</w>
197 2年</w>
16 %</w>
15 日</w>
1 7%</w>
1 000亿美元</w>
， 美
， 毫不奇怪</w>
， 布什政府</w>
， I
黄 金
麻 风
高 压</w>
高 位</w>
高 价</w>
骇 人听闻</w>
预 知</w>
音 乐
非 理性</w>
霍 梅
随 意</w>
长 足</w>
银行 家们</w>
金砖 国家
金 ，</w>
金 价</w>
都 市</w>
迟 缓</w>
这 块</w>
达 赖
身 陷</w>
路 上</w>
跟 随</w>
贫 民
话 语
论 断</w>
解 到</w>
表 述</w>
衡 。</w>
著 称</w>
芝加 哥
船 只</w>
腰 包</w>
腐 蚀</w>
职业 生涯</w>
置 之不
维 克</w>
结 核
经济学 ”</w>
经合 组织
累 累</w>
紧缩 ，</w>
第三 大</w>
立 陶
积 压</w>
秘 密
碰 到</w>
着 陆</w>
相提 并</w>
相提 并
盈 利
由 来
用 作</w>
环 节</w>
牧 师</w>
熟 练</w>
热 量</w>
灵 丹
涌 向</w>
流 感</w>
流 出</w>
洛杉 矶</w>
波 多
没 收</w>
汉 密尔
毕 业</w>
死亡 人数</w>
欧元 。</w>
次 贷
梵 蒂
格 雷
格 林
样 本</w>
某 人</w>
枪 支</w>
松 散</w>
束手 无
束手无 策</w>
杀 虫剂</w>
服 装</w>
暗 淡</w>
普 罗
明 。</w>
无 误</w>
无 穷
施 以</w>
新 生
捉 摸</w>
挽 回</w>
振 兴</w>
挪 威
拨 款</w>
拉丁 美洲
抗 议者</w>
抑 郁</w>
托马 斯·
感 染
惊 。</w>
悠 久</w>
总 会</w>
思 路</w>
形 态
引 爆</w>
序 列</w>
幼 稚</w>
幸 存
平 庸</w>
带 入</w>
希 格
巨 资</w>
峰 会
岁 月</w>
屈 从</w>
宪法 法院</w>
宣 传
定 罪</w>
孱 弱</w>
学 界</w>
嫌 疑
好 莱坞</w>
奥 塞
契 合</w>
夺 去</w>
大错 特
大 都</w>
大 手
大 受</w>
多元 主义</w>
多 极</w>
墨 尔
基金 会
圈 子</w>
国际 清算
回 收</w>
哥本哈 根
同 情
变 ，</w>
发 病
厌 倦</w>
博物 馆</w>
南 极
单 单</w>
半 球</w>
十 倍</w>
医疗 卫生</w>
勘 探</w>
创 设</w>
切 尼</w>
分 五
出 访</w>
几 百万</w>
兹 别
共 处</w>
公 园</w>
免 疫</w>
储蓄 者</w>
侨 民</w>
佩 斯</w>
体 ，</w>
体 系
伦 ·
会 员</w>
亲 眼</w>
乘 数</w>
乌 兹别
丧 命</w>
不足为 奇</w>
不 做</w>
不 丹</w>
下 调</w>
下 属</w>
上 诉</w>
一次 性</w>
一 辆</w>
z ）</w>
wit ter</w>
t e</w>
r a</w>
ol u
in an
i l</w>
h ）</w>
h om
d ）</w>
anc e</w>
MD G</w>
H e
CE O
9 5%</w>
8 0</w>
4 月
4 00亿美元</w>
30 0</w>
201 7年</w>
20 个</w>
2 4%</w>
199 7</w>
198 6年</w>
191 4年</w>
18 个月</w>
18 0
12 个月</w>
1 个</w>
1 6</w>
， S
（N ational</w>
（ Q
马里 奥·
马哈茂 德·
预 期
革命 ，</w>
震 荡</w>
随 心
阿 姆
阐 明</w>
银行 联盟</w>
金 氏</w>
重蹈 覆辙</w>
里斯 本</w>
选 手</w>
连 贯</w>
这 家</w>
路 ，</w>
走 。</w>
购 物
货币 贬值</w>
负 责
贝尔 斯
调 停</w>
话语 权</w>
让 位</w>
讨 好</w>
角度 看</w>
西 岸
裁 员</w>
药 物
能 找到</w>
胜利 者</w>
胜 者</w>
肆 无
肆无 忌惮</w>
联 手</w>
耶 夫</w>
老 师</w>
美 分</w>
维 尔
绝 不
结 果
经济 损失</w>
经济 区</w>
经 营
精 明</w>
粗 暴</w>
第三 种</w>
符 号</w>
税 负</w>
程 ，</w>
称 作</w>
种 群</w>
相 处</w>
画 面</w>
狼 藉</w>
熟 虑</w>
灵 魂</w>
火 上
潜 艇</w>
温和 派</w>
渡 过</w>
深思 熟虑</w>
浓 厚</w>
流动 资金</w>
津 巴布韦</w>
河 流</w>
沙 尼亚</w>
殖民 主义</w>
武装 部队</w>
款 项</w>
概 括</w>
根 基</w>
查 理
枢 纽</w>
来 说</w>
村 民</w>
权 力
末 期</w>
有 赖于</w>
替 罪
景 气</w>
普遍 性</w>
普 ·
无 所</w>
无 动</w>
旗 帜</w>
族 群</w>
方 ，</w>
斯堪的纳 维亚</w>
断 言</w>
救 市</w>
收 效</w>
摩根 大
措 辞</w>
拿破 仑</w>
担 负</w>
抵 触</w>
扶 持</w>
手 握</w>
成百上 千万</w>
感 知</w>
意大利 人</w>
惩 罚
惨 遭</w>
情报 局</w>
息 息
忧心忡 忡</w>
忠 于</w>
忏 悔</w>
微 。</w>
当 权者</w>
弹 道
弱 小</w>
广 告
年 均</w>
州 长</w>
对 冲</w>
实 例</w>
娜 ·
威 廉
奢 侈
奢侈 品</w>
大有 裨益</w>
大 众
多 尔
多 万</w>
外 部
复 发</w>
声 望</w>
塞拉利 昂</w>
埃 克
坦 率</w>
圣战 者</w>
圣地亚 哥</w>
国际 象棋</w>
国际 市场</w>
国家 队</w>
四 分五
哈 佛</w>
向 往</w>
同 比</w>
吉尔 吉
合 情
合 乎</w>
去年 12月</w>
去年 11月</w>
危机 ，</w>
危 地
化 ”</w>
势力 范围</w>
劳 工
动 。</w>
加 盟</w>
加 尔
力 求</w>
剑桥 —</w>
前 面</w>
利率 。</w>
创 出</w>
列 入</w>
刑 讯</w>
分 量</w>
几 代</w>
减 支</w>
决策 者们</w>
决 赛</w>
农 地</w>
军事 基地</w>
关系 。</w>
关 税
共 担</w>
六 方
全 方位</w>
全 会</w>
儿 童
健康 状况</w>
保 证
俄罗斯 政府</w>
伯 格</w>
优 化</w>
伊拉克 政府</w>
代表 性</w>
代 谢</w>
争 斗</w>
了 解到</w>
乌拉 圭</w>
中 世纪</w>
东 盟
业 已</w>
专业 化</w>
不遗 余力</w>
下 而上</w>
上 次</w>
一席 之地</w>
一 票</w>
一 季度</w>
一 向</w>
。 而
。 光</w>
y n
u k
r am
os ep
osep h</w>
ol f
n it
m in
le x
har d</w>
d ’
as s
a il
S ）</w>
Q E</w>
G NP</w>
AK P</w>
8 00
7 年
6 0年</w>
30 亿美元</w>
3 个</w>
3 6
3 5年</w>
200 4
196 2年</w>
16 0
1 7</w>
. 5%</w>
， GDP</w>
） 所</w>
（C h
（ International</w>
齐 聚</w>
鼓 舞
黑 客</w>
鹰 派</w>
首 任</w>
顿 ·
顾 问
面 孔</w>
障 碍
随心 所欲</w>
锋 相对</w>
针 锋相对</w>
金融 稳定
里 约</w>
邻 邦</w>
那 时候</w>
避 难
逼 近</w>
逍遥 法
迫在眉 睫</w>
运动 。</w>
迈 克
过 量</w>
达赖 喇嘛</w>
趋 于</w>
走 进</w>
贸易 逆差</w>
诱 人</w>
诠 释</w>
论 。</w>
言 ，</w>
角 落</w>
英 法</w>
舒 适</w>
自 私</w>
胜 过</w>
肮 脏</w>
绝 佳</w>
经 纪
终 将</w>
纽黑文 —</w>
紧 紧</w>
类 别</w>
米洛舍 维奇</w>
第一 轮</w>
第 六
种 姓</w>
矿 物</w>
矿 产</w>
短 时间</w>
真 诚</w>
直 升
皮 涅
用 尽</w>
生机 勃勃</w>
甚 于</w>
理 性
玉 米</w>
特里 谢</w>
特里 娜</w>
爱 国
燃 煤</w>
热 点</w>
炮 制</w>
温 床</w>
淡 化</w>
海 峡</w>
浓 度</w>
派 出</w>
法 。</w>
水 电</w>
每 月</w>
武 库</w>
此 项</w>
正 逢</w>
正 如</w>
检 讨</w>
果 实</w>
极端 主义
最 先</w>
斯坦 福
斯 基
断 然</w>
文 学</w>
敏 锐</w>
政策 ，</w>
撤 回</w>
摇摇 欲
拉加 德</w>
拉 迪
担 保
投 身</w>
抑 制
扶 贫</w>
扰 乱</w>
打 印</w>
手 脚</w>
成 人</w>
慢性 病</w>
情报 机构</w>
情 境</w>
性 行为</w>
心理 学家</w>
心 协力</w>
张 ，</w>
弗朗 西
广 袤</w>
年轻 一代</w>
布 兰
局 长</w>
尔 斯·
对 立
对 照</w>
实 时</w>
孤立 主义</w>
多得 多</w>
多 哈
坦 白</w>
场 景</w>
在 乎</w>
圣彼得 堡</w>
土 地
因 特网</w>
四 大</w>
四 国</w>
嘲 笑</w>
哈 耶
听 众</w>
各自 为
司法 部</w>
史 蒂
可 笑</w>
可 图</w>
另一 边</w>
古 代</w>
发 电
友 谊</w>
原 子</w>
卡尔德 龙</w>
卡 特里娜</w>
十 个</w>
医 保</w>
出 国</w>
出 一
凝 聚</w>
冲 绳</w>
内 政
兴奋 剂</w>
共 鸣</w>
公 民们</w>
克 莱
克 斯
储蓄 。</w>
倾 斜</w>
借 用</w>
例 证</w>
例 如
人 力
人 。</w>
二氧化 碳
事 们</w>
争 辩</w>
主 人</w>
中 低</w>
严 苛</w>
两 家</w>
世界 观</w>
世界 级</w>
专 政</w>
不 计</w>
上 空</w>
一 间</w>
一 线</w>
一 把</w>
一 层</w>
一 定要</w>
“ 伊斯兰
t on</w>
o ci
ing ）</w>
inan cial</w>
er v
ed ic
ar m
abil ity</w>
N G
F ran
7 00
50 个</w>
5 美元</w>
4 4
2 2%</w>
193 3年</w>
15 个</w>
000 多</w>
，以 致</w>
， 拉美</w>
， 单</w>
（T ran
（R ic
（ “</w>
（ L</w>
麻省 理工
马 克·
首 个</w>
餐 厅</w>
风 ，</w>
韧 性</w>
面 纱</w>
面 目</w>
陈 旧</w>
阿布 哈
阿姆 斯特
逃 税</w>
迈克 尔·
过去 一年</w>
输 入</w>
貌 似</w>
调 低</w>
话 ）</w>
诉 诸</w>
评 判</w>
规 格</w>
西 非</w>
补 贴
补 偿
螺 旋</w>
虚 拟</w>
蓄 意</w>
菲 特</w>
草 根</w>
苛 刻</w>
自然 资源
臂 之力</w>
膨 胀
美国 家
置之不 理</w>
罪 魁</w>
罗纳德· 里根</w>
罗 斯</w>
结构性 改革</w>
纵 观</w>
纠 结</w>
系 数</w>
糟 。</w>
第三 条</w>
立 学校</w>
窗 口</w>
空 白</w>
空 军</w>
穆罕默 德</w>
穆 萨
秘 书</w>
研 制</w>
相提并 论</w>
直 观</w>
皆 知</w>
登 ·
电 力
由来 已
瑞 典
理查 德·
班加 西</w>
率 先</w>
狭 窄</w>
牧 民</w>
激 化</w>
演 员</w>
深 厚</w>
涉 嫌</w>
消费 品</w>
消 化</w>
海 岸
波斯 尼亚
波士 顿</w>
波 特
沃 伦</w>
汇 集</w>
民主 政府</w>
比 作</w>
每 桶</w>
毁 坏</w>
欧洲 ，</w>
橄 榄
格 尔</w>
核 不扩散
机 会
最 长</w>
替罪 羊</w>
更 高效</w>
更 紧密</w>
普 斯</w>
明 ，</w>
明 智
明 年
时 光</w>
无 权</w>
摇摇欲 坠</w>
捕 获</w>
指 明</w>
抬 高</w>
扣 除</w>
战 败</w>
想 知道</w>
恶 意</w>
志 愿
往 常</w>
归 还</w>
强 健</w>
弗兰 克</w>
开 销</w>
广 阔</w>
幸存 者</w>
市 政</w>
密 特
定 向</w>
官僚 主义</w>
如 出一
如 其
好 战</w>
大手 笔</w>
增 多</w>
地 域</w>
图 书
国 旗</w>
国 企</w>
哈耶 克</w>
合情 合理</w>
古 典</w>
口 气</w>
叙利亚 政府</w>
变 革
变 暖
发 布
双边 贸易</w>
十年 以来</w>
勾 结</w>
动 物
加 税</w>
制度 化</w>
到 位</w>
利 润
凯 利</w>
减 产</w>
冒 犯</w>
内 陆</w>
内 心</w>
养 活</w>
关键 点</w>
六 十年代</w>
公 告</w>
八 个</w>
全 职</w>
入 学
党 ，</w>
免 遭</w>
充 足
侯 赛</w>
使 人</w>
佛罗 里
体 内</w>
任 意</w>
代表 大会</w>
人 行</w>
产 值</w>
亚历 山
互 联</w>
为 所
中 将</w>
中 叶</w>
严 酷</w>
世界贸易 组织</w>
与 会者</w>
不要 说</w>
三 月</w>
三 名</w>
一 臂之力</w>
一 整
一 台</w>
一 千
。 哈马斯</w>
、 教育
· 马
v est
s on</w>
r é
lim ate</w>
il ）</w>
e w</w>
av id</w>
an t</w>
an i
Y ou
S A</w>
Re in
N C
M on
D D
BR CA
A d
2 8%</w>
1 9</w>
， 默克尔</w>
（A l
鼓吹 者</w>
默多 克</w>
麦 当
高加 索</w>
高 点</w>
马 丁·
频 率</w>
面 包</w>
面 值</w>
霍梅 尼</w>
震 慑</w>
难 怪</w>
降 息</w>
陈 水
陈水 扁</w>
阿 里</w>
错 失</w>
钻 石</w>
里程 碑</w>
部 件</w>
避 风
通 缩
选择 性</w>
退休 者</w>
远 ，</w>
还 款</w>
踏 上</w>
跟 进</w>
超级 大
贷款 ，</w>
贷款 。</w>
调 动</w>
诽 谤</w>
诱 使</w>
误 判</w>
证 会</w>
警 觉</w>
警 报</w>
西 伯
被 告</w>
表 象</w>
行 其
蒙 特
萨 缪
致 命
自由 市场
胃 口</w>
肥 料</w>
而 行</w>
美联 储
继承 人</w>
结核 病</w>
结 算</w>
结 果</w>
纳 斯
类 比</w>
简而 言之，</w>
税 制</w>
私 营企业</w>
神 学</w>
着 陆
看 重</w>
百 分之
疾 病
用 到</w>
生 。</w>
现 成</w>
玩 笑</w>
王 室</w>
犯 人</w>
特 使</w>
物 流</w>
火箭 弹</w>
火上 浇
漠 不
漠不 关心</w>
游 说
深 深
涅 托</w>
海 水</w>
流 ，</w>
泰 米尔</w>
法 令</w>
治 理
比尔· 克林顿</w>
比 不上</w>
死 胡
歪 曲</w>
模 式
校 园</w>
查 尔斯·
枪 匹
果 。</w>
构 筑</w>
极权 主义</w>
月 初</w>
曲 线</w>
明 白
旷 日
旷日 持久</w>
时 至</w>
旦 旦</w>
既 得
无休 止</w>
旗 号</w>
新生 儿</w>
斯蒂格 利
斯 州</w>
整 顿</w>
数 亿</w>
政府 部门</w>
支 援</w>
操 纵
推 荐</w>
掣 肘</w>
拼 命</w>
拥 抱</w>
拉美 地区</w>
拉姆 斯
抽 象</w>
投 向</w>
执 掌</w>
扎 尔
手 上</w>
战 火</w>
战 时</w>
成 本
愈演愈 烈</w>
惨 痛</w>
怀 有</w>
德 尔
影 子
引 渡</w>
引 来</w>
广 为</w>
常 任</w>
市 值</w>
巴 塞
岛 国</w>
山 区</w>
居 然</w>
层出不 穷
尽 头</w>
少数 几个</w>
将 令</w>
安 装</w>
存 有</w>
如出一 辙</w>
奥尔 默
大马士 革</w>
外 衣</w>
备 忘
基督 教
国民 党</w>
喜 马拉
听 说</w>
听 证会</w>
合作 社</w>
合作 关系</w>
司 令</w>
变 。</w>
反恐 战争”</w>
反 美</w>
双 相
即 可</w>
卡 车</w>
单 枪匹
医疗 费用</w>
化 为</w>
动 者</w>
前 线</w>
利率 ，</w>
利 差</w>
列 出</w>
准 入</w>
决 意</w>
冰 盖</w>
军 火</w>
军 备</w>
关键 时刻</w>
关塔 纳
公 顷</w>
公 正
公 投
全 都</w>
克 逊</w>
先 驱</w>
健康 保险</w>
偏 远</w>
倡导 者</w>
候 选</w>
仿 效</w>
令人 失望</w>
亲 属</w>
亚 马
事 例</w>
乱 ，</w>
乡 村</w>
九 个</w>
乍 一看</w>
乌干 达</w>
乌兹别 克斯坦</w>
主 任</w>
丹 尼
丢 失</w>
东 德</w>
专 长</w>
不 远</w>
不 能
一 无所
一 如
。 巴勒斯坦</w>
。 。</w>
” ）。</w>
vest ment</w>
re e
it y
at h
ar tin</w>
al -
a j
Sec ur
NP T</w>
L e
C l
C B
A ss
A A
7. 5%</w>
3 万亿美元</w>
200 亿美元</w>
200 3</w>
198 7年</w>
197 4年</w>
194 8年</w>
， 将</w>
齐 兹</w>
默 许</w>
麦 肯
魔 鬼</w>
骗 局</w>
马斯特里赫特 条约</w>
马克思 主义</w>
频 道</w>
顺 序</w>
顶 端</w>
非 凡</w>
青 少年</w>
阿 里
阿 联
防 治</w>
长期 性</w>
长期 利率</w>
错 ，</w>
银行 存款</w>
钓鱼 岛</w>
野 生
避 税</w>
通 知</w>
选 定</w>
这 样</w>
这 个人</w>
过渡 期</w>
过 低</w>
转 为</w>
资本 家</w>
资本 主义
费 舍
贸易 ，</w>
贸易 壁垒</w>
贸易 保护主义</w>
贫困 率</w>
财 阀</w>
负责 人</w>
谢 里夫</w>
诺贝尔 和平
诱惑 力</w>
该 州</w>
设 施
许 可
视 野</w>
西奈 半岛</w>
西伯 利亚</w>
行动 。</w>
行 不通</w>
虚 伪</w>
菲 尔
莱 特</w>
莫 桑
莫桑 比
苹 果
花旗 集团</w>
色 情</w>
自由贸易 协定
自由 主义
自 下而上</w>
背 上</w>
联 军</w>
翼 翼</w>
罗伯 特</w>
罗 姆</w>
缔造 者</w>
纳粹 主义</w>
纳 税</w>
紧迫 性</w>
管 用</w>
筹 码</w>
第 四个</w>
立陶 宛</w>
窃 听</w>
空 前</w>
税 法</w>
科学 技术</w>
票 数</w>
社会 保险</w>
社 团</w>
硬 币</w>
研究 所
看 清</w>
看 护</w>
看 好</w>
相 形
相形 见
相 匹配</w>
生 殖</w>
甘 地</w>
瑞 士
漂 亮</w>
满 意
涨 幅</w>
泰 罗
法塔 赫
法 语</w>
沃尔 福
永 康</w>
民 权</w>
步 。</w>
此 刻</w>
梵蒂 冈</w>
本 该</w>
本 地
本 世纪末</w>
月 底</w>
最 不</w>
更 健康</w>
智 库</w>
明 晰</w>
无 限期</w>
无 用</w>
新 年</w>
斡 旋</w>
文化 大革命</w>
文 字</w>
敌 视</w>
效率 低</w>
收 买</w>
提 炼</w>
推 崇</w>
挥 霍</w>
护 照</w>
折 磨
批评 家</w>
执政 者</w>
想 一
惊 叹</w>
情 局</w>
怨 恨</w>
性 格</w>
心 里</w>
德国 银行</w>
弱 化</w>
废 物</w>
底 线</w>
应 用于</w>
应 得</w>
常 用</w>
希拉 里</w>
巴黎 —</w>
巴 菲特</w>
巴 切
小心 翼翼</w>
导 演</w>
富兰克林 ·罗斯福</w>
密特 朗</w>
家 ，</w>
妥协 。</w>
头 版</w>
失败 者</w>
太阳 能
天安 门
大卫 ·
大 地震</w>
多 项</w>
外汇 市场</w>
外 逃</w>
备忘 录</w>
境 外</w>
塔 吉
埃塞俄 比亚
垄 断
地中 海
图书 馆</w>
唤 醒</w>
哈塔 米</w>
同 事们</w>
同 一</w>
各自为 政</w>
可 靠
可 比</w>
发病 率</w>
压 缩</w>
历 届</w>
印 巴</w>
华 沙</w>
千 名</w>
十 六
助 推</w>
加 泰罗
刺 激
创 性</w>
切 实
分 解</w>
几 十年内</w>
几 何
其 时</w>
共同 化</w>
公平 竞争</w>
公 立学校</w>
信 。</w>
保 有</w>
供应 量</w>
估 计，</w>
传 闻</w>
众 筹</w>
伊斯兰 教
伊斯兰 政党</w>
人民 共和国</w>
人 格</w>
人 文</w>
人 和
亲 身</w>
事 件
了 当</w>
了 不起</w>
主 办</w>
中 全会</w>
个 星期</w>
个 性化</w>
两 年后</w>
不 甚</w>
一点 点</w>
一大 步</w>
一大 批</w>
一 颗</w>
一 例</w>
一 丝</w>
。 恰恰
。 当
。 布什政府</w>
。 反</w>
… …
”、 “</w>
ó n</w>
y ri
w or
u p</w>
u m</w>
s te
s h
o y
meric an</w>
g l
g an
et h</w>
en g
c k
ab le</w>
a h</w>
T he</w>
S A
R ）</w>
K r
8 5%</w>
6. 5%</w>
5 倍</w>
40 0</w>
4 万亿美元</w>
300 亿美元</w>
3 D</w>
3 8%</w>
27 个</w>
25 美元</w>
200 9
194 7年</w>
100 亿美元</w>
1 亿美元</w>
1 2年</w>
， 失业率</w>
黎 波
马 萨
马 德里
风 潮</w>
领 取</w>
颁 发</w>
革命 。</w>
非 营
雅 克·
阿联 酋</w>
阿尔 茨
阿尔茨 海
阿 勒
铁 幕</w>
钞 票</w>
里 斯</w>
邻 近</w>
那 段</w>
那 么
追 寻</w>
还 给</w>
过 后</w>
迄 今</w>
边 境
蹒 跚</w>
跻 身</w>
路 。</w>
跟 上</w>
跌 幅</w>
超 额</w>
起 步</w>
质 量
货币 化</w>
调 。</w>
诺 言</w>
评论 员</w>
访 者</w>
设计 师</w>
议 员们</w>
订 立</w>
警 钟</w>
誓 言</w>
誓 旦旦</w>
莱因 哈特</w>
航空 公司</w>
致 富</w>
自 有</w>
自 我
自 力
脱 钩</w>
脂 肪
肉 类</w>
联 赛</w>
而 知</w>
美 丽</w>
罗 亚尔</w>
缅 甸
继 任</w>
细 菌</w>
细 胞
线 索</w>
纾 困</w>
纽 伦
纪念 碑</w>
约瑟 夫·
约 合</w>
索 马里
米 兰</w>
管 齐下</w>
管 治</w>
第三 支</w>
窒 息</w>
种族 灭绝
福 克斯</w>
着 重</w>
真 心</w>
看 一看</w>
直 截
直截 了当</w>
皇 室</w>
痕 迹</w>
电 报</w>
生 机</w>
现代 人</w>
犹太 教</w>
物 资</w>
父 辈</w>
熟 知</w>
灌 输</w>
温 暖</w>
混 合
深深 地</w>
深 。</w>
济 于
活 着</w>
泥 潭</w>
沃尔 克</w>
汉密尔 顿</w>
永 恒</w>
水 泥</w>
欧洲 央行
枪 击</w>
极 权</w>
杀人 犯</w>
有利 可图</w>
有 钱</w>
有 罪</w>
最 近
更 喜欢</w>
时 刻
时 代
无能 为
无可 否认</w>
方 设法</w>
新 鲜
斯 雷
斯 达
斯 卡
文 盲</w>
文 官</w>
数据 库</w>
敏 感
效 忠</w>
政治 化</w>
放射 性</w>
收 缩
摧 残</w>
插 手</w>
接 替</w>
接 壤</w>
据 称</w>
挖 掘</w>
拖 欠</w>
担 当</w>
投资 率</w>
戴维 ·
战斗 机</w>
战 前</w>
我 自己</w>
意识 形态
想 方设法</w>
惯 性</w>
悄 然</w>
恩 怨</w>
恐怖 主义。</w>
急 迫</w>
怀 着</w>
律 师们</w>
影 像</w>
弱 势
异 ，</w>
年 末</w>
年 中</w>
平 方
干 预
希腊 人</w>
希 望
市 公司</w>
巴塞 罗
巴切 莱特</w>
差 额</w>
就 这样</w>
就 该</w>
少 得</w>
小 农</w>
导 弹
宣 誓</w>
审 讯</w>
宇 航
学术 界</w>
委内瑞 拉
好 ，</w>
好 坏</w>
奴 隶</w>
奥尔默 特</w>
奥 运</w>
大 本
大 头</w>
多尔 科夫斯基</w>
多 极
外部 性</w>
外交 部</w>
外 币</w>
夏 季</w>
复 原</w>
处 决</w>
墨尔 本</w>
埋 下</w>
国际清算 银行</w>
固 执</w>
回 复</w>
告 诫</w>
合 格</w>
叫 停</w>
受 控</w>
发布 会</w>
发 点</w>
反 感</w>
参 谋
印 刷</w>
卫 星
卢卡 申科</w>
南 奥塞
单枪匹 马</w>
十字 路
十 周年</w>
化 身</w>
加利福 尼亚州</w>
副 主席</w>
刺 杀</w>
别 无
刊 登</w>
切实 可行</w>
分 红</w>
分 开</w>
出 发点</w>
几 项</w>
几 百
几 内
军 阀</w>
共同 努力</w>
六 大</w>
公 斤</w>
公 式</w>
免 税</w>
借 入</w>
信 誓旦旦</w>
保罗· 克鲁格曼</w>
侵略 性</w>
侯赛 因</w>
例 外，</w>
何 况</w>
低 价</w>
众 不同</w>
以 为</w>
代 名词</w>
人民 币
人工 智能</w>
五 年内</w>
互 不</w>
于衷 。</w>
临 界
中 情局</w>
两 天</w>
世 代</w>
不 言
不 行</w>
不 禁</w>
不 明白</w>
不 及
上 市公司</w>
三角 洲</w>
三 者</w>
三 条</w>
一次 又一次</w>
一 美元</w>
一 幕</w>
” 、</w>
y a</w>
s on）</w>
s l
in t
ic ha
icha el</w>
ic e</w>
h m
er s</w>
el ）</w>
ar e</w>
Institu te
I A</w>
H I
F ron
DN A
Comm issi
C P
C C
7 0年</w>
6 4
4 日</w>
3 8
19 00
0年 内</w>
， 转</w>
， 伊斯兰</w>
， ”
） ”</w>
（ 如</w>
龄 段</w>
高加 索
高 盛</w>
驯 服</w>
马萨 诸
马萨诸 塞
马 戏
飞 行
飞 地</w>
革命 者</w>
隐 患</w>
阿布哈 兹</w>
错 过</w>
金融 界</w>
金 。</w>
量化 宽松</w>
里 克·
逼 人</w>
退 回</w>
远 低于</w>
过渡 委员会</w>
赶 出</w>
贪 污</w>
财 富
负担 ，</w>
谈判 者</w>
课 税</w>
诚 意</w>
要 靠</w>
裂 。</w>
裁 判</w>
被 毁</w>
血 统</w>
蒙 蔽</w>
葛 兰
萨 利
英 美</w>
良 性</w>
至 此</w>
自力 更
自 问</w>
自 大</w>
脱 节</w>
肾 脏</w>
缔 约
统 一
红 线</w>
纠 缠</w>
繁荣 期</w>
米 ·
管理 局</w>
管理 人员</w>
管理 人</w>
算 计</w>
穆萨 维</w>
称 赞</w>
短期 利率</w>
相 媲美</w>
百 科</w>
病 情</w>
生 根</w>
理 事</w>
现 阶段</w>
王 子</w>
独立 ，</w>
犯罪 行为</w>
火上浇 油</w>
火 灾</w>
漫 画</w>
满 满</w>
滞 后</w>
游 客</w>
消费 量</w>
洛 夫</w>
波多 黎
法兰克 福</w>
沙文 主义</w>
水 域</w>
民粹 主义
民主 ，</w>
母 国</w>
殴 打</w>
次 数</w>
棱 两
核不扩散 条约</w>
核 燃料</w>
样 板</w>
标准 化</w>
构 造</w>
本 ·
最 差</w>
更 何况</w>
暴 乱</w>
智 能
昂山素 季</w>
时 宜</w>
方 面
方 。</w>
新 奥尔
斯蒂格 尔</w>
政 权
放 到</w>
放 下</w>
捷克 斯洛伐克</w>
挤 压</w>
拉 开</w>
报 复
抗 药性</w>
投 降</w>
把 戏</w>
扎 根</w>
截然 相反</w>
截 止</w>
懂 得</w>
想一 想</w>
惨 败</w>
怀 旧</w>
志愿 者</w>
德国 宪法法院</w>
引 诱</w>
并 用</w>
常 识</w>
差 ，</w>
屠 杀
察 觉</w>
密 度</w>
实际 利率</w>
实 物</w>
实 力
定居 者</w>
学 历</w>
威 胁
失 踪</w>
失 灵
大 行其
大 惊
大 厦</w>
多 达</w>
多 数
多 ·
基 什
基什 内
在 所
圣诞 节</w>
土 库
国家 安全
国内 市场</w>
嗤 之以
商 讨</w>
哥 斯达
周 永康</w>
告诉 我</w>
吹 嘘</w>
叶 ，</w>
可以 想象</w>
可 得</w>
受 审</w>
取 向</w>
印度 人民党</w>
卡 德
卡 尼</w>
卜 拉
协 同</w>
化 肥</w>
动荡 ，</w>
加勒 比
制 品</w>
创 意</w>
列 举</w>
分水 岭
减 速
关塔那 摩
公开 市场
公 约
公 海</w>
全球 性
入 。</w>
兜 售</w>
先 知</w>
元 首</w>
停滞不前 ，</w>
做 不到</w>
偏 爱</w>
假 期</w>
保护 区</w>
侵 袭</w>
使 命
作 用
住 所</w>
任何 地方</w>
人 造
人 类
人 生</w>
交 接</w>
交 出</w>
亚当 ·斯
争 执</w>
习 俗</w>
乌 马拉</w>
义 务
为 数</w>
为 一
中央 情报局</w>
中华 人民共和国</w>
两 条</w>
丝绸 之路</w>
与 众不同</w>
上 月</w>
三 年前</w>
三 中全会</w>
一 般</w>
一 心</w>
一 小时</w>
一 周</w>
一 厢
一 刻</w>
— “</w>
t ri
ri ed
p h
ov ern
on s</w>
ol l
o t</w>
o k
o ff
it al</w>
in c
hom as</w>
ers it
d es</w>
am es</w>
S te
In vestment</w>
F ）</w>
Coun c
C limate</w>
C N
8 年
70 亿美元</w>
7 5
50 美元</w>
21 世纪初</w>
201 2</w>
200 5</w>
200 4</w>
2 月
2 亿</w>
2 8个</w>
2 3%</w>
2 1%</w>
198 8年</w>
196 9年</w>
19 年</w>
12 日</w>
100 美元</w>
10 .
0. 0
， 那</w>
， 进</w>
， 然</w>
， 极
（A n
黎巴嫩 真主党</w>
麻风 病</w>
首 ，</w>
饲 养</w>
饮 用水</w>
饭 店</w>
额 外
颜 色</w>
颓 势</w>
露 面</w>
雷 曼</w>
集中 营</w>
雅 典
难 得</w>
陈 光
陈光 诚</w>
阿尔茨海 默
阴 暗</w>
防 火
阈 值</w>
锻 炼</w>
铲 除</w>
野 蛮
重 任</w>
逮 捕
适应 性</w>
追 逐</w>
远 见
进 去</w>
近 一半</w>
运动 ，</w>
过去 四年</w>
辅 助</w>
轮 到</w>
转 让</w>
车 辆</w>
身 居</w>
足 球
赞 誉</w>
赞 助者</w>
赔 偿</w>
贷款 利率</w>
贵 族</w>
贫富 差距</w>
贝鲁 特</w>
贝尔斯 登</w>
语 。</w>
议 院
要 知道</w>
袖手旁 观</w>
行政 长官</w>
蛋 糕</w>
萌 芽</w>
菲尔 普斯</w>
莫 申科</w>
艾滋 病毒</w>
自然 环境</w>
自 给
臃 肿</w>
脱 贫</w>
能 做到</w>
胡 斯
胜 于</w>
美国 参议院</w>
美元 。</w>
缓 冲
维 艰
维 斯</w>
续 性</w>
细 致</w>
纽伦 堡</w>
约翰 逊</w>
管 们</w>
简单 化</w>
等 候</w>
第一 批</w>
竭尽 所能</w>
突然 间</w>
突 显</w>
稍 微</w>
程 。</w>
私 募
离 岸</w>
破坏 ，</w>
相 称</w>
盟 军</w>
监 察</w>
皮涅 拉</w>
病 态</w>
疗 效</w>
电 池</w>
甩 卖</w>
生物 医学</w>
瓶 颈</w>
瓦哈 比
玻利 维亚
现 金
猩 猩</w>
犹太复 国主义</w>
特 例</w>
牵 制</w>
热 门</w>
灵 感</w>
火 ，</w>
潮 。</w>
深 层</w>
浓 缩
流 离</w>
流 氓</w>
派 ，</w>
波罗的 海</w>
波 动性</w>
水 库</w>
毛里 求
每 位</w>
每 一位</w>
武器 条约</w>
步 履
欲 为</w>
欣 赏</w>
模 棱两
格 鲁</w>
根 源。</w>
条 例</w>
本 届</w>
最高 点</w>
最 容易</w>
曼 谷</w>
更 需要</w>
更 是</w>
更 一般</w>
暴 徒</w>
普 尔
既 往</w>
无能为 力</w>
无 穷</w>
无 益</w>
无 济于
无 动
新 建</w>
斯雷 布雷
斯 图
数千 名</w>
数 万亿美元</w>
敞 开</w>
教 导</w>
效应 。</w>
政治 学家</w>
改 写</w>
操 控</w>
摩根大 通</w>
摊 子</w>
推 论</w>
持 有
拥 有者</w>
拉姆斯 菲尔德</w>
拉 动型</w>
抵 挡</w>
抗 氧化
投 保</w>
承 受
承 包
批 判
手 册</w>
所 致</w>
成 因</w>
感 。</w>
患 病</w>
恩 ·
忧 心</w>
徒 刑</w>
很 高兴</w>
弹道 导弹</w>
弗朗 索
开发 银行
开 会</w>
幸 存</w>
年 纪</w>
干 脆</w>
巴尔干 地区</w>
岌岌可 危
届 时</w>
就 让</w>
少 于</w>
小 于</w>
对 面</w>
富 于</w>
家庭 成员</w>
安理 会
安 纳
学 校
学 家们</w>
好 友</w>
天主 教徒</w>
壮 观</w>
增 兵</w>
堆 积</w>
在 位</w>
土库 曼
国家 ，</w>
团 伙</w>
喜 爱</w>
商 品
响 亮</w>
哈 特
咄 逼人</w>
咄 咄逼人</w>
周 边
听 从</w>
名 称</w>
台 风</w>
可 控</w>
可 卡
古 怪</w>
古 典
取而 代
取 胜</w>
发 生
反犹 主义</w>
又 要</w>
去 不
去不 返</w>
原 谅</w>
原 告</w>
卡特 尔</w>
博 士</w>
勒 庞</w>
加泰罗 尼亚</w>
加 权</w>
功 能
力 气</w>
利 维
出 版
出 乎
冲 浪</w>
六 月</w>
入 侵
光 荣</w>
先 后</w>
假 说</w>
值 ，</w>
信 赖</w>
侵 占</w>
供给 端</w>
供 水</w>
体 制
以 求</w>
交 往</w>
亚马 逊</w>
九 月</w>
主 们</w>
为所 欲为</w>
严 密</w>
两 派</w>
东正 教</w>
世 贸</w>
专 属</w>
不堪 重负</w>
不合 时宜</w>
不 移</w>
不 均</w>
下 定
上 调</w>
上 涨
上 市</w>
三 十
七 十年代</w>
一 年后</w>
一 切
一 分
” —</w>
u n</w>
u e</w>
on e</w>
on d
is ）</w>
ig h
c oun
ar k</w>
an s</w>
ac k
a ）
R ev
Kr ug
I R
I B
H ar
G ro
G re
EC T</w>
C or
9 0年代初</w>
80 0</w>
5 万亿美元</w>
5 8
3 亿</w>
2 个</w>
2 9
2 100年</w>
197 8年</w>
197 5年</w>
196 0年代</w>
195 7年</w>
195 6年</w>
18 9
12 个</w>
1. 6%</w>
000 亿欧元</w>
， 高</w>
， 政客</w>
， 卡扎菲</w>
， 克里姆林宫</w>
， F
（J oseph</w>
（D avid</w>
（ N</w>
高加索 地区</w>
高 峰
马戏 团</w>
马 克</w>
首 当
颖 而出</w>
领 地</w>
预 定</w>
非 正规</w>
零售 商</w>
零售 业</w>
陈 词
陆 地</w>
阿姆斯特 丹</w>
阿 什
阳 性</w>
闲 置</w>
鉴 于此</w>
野生 动物</w>
野 心
重 叠</w>
都 铎</w>
逾 越</w>
逝 世</w>
选举 法</w>
违 法</w>
进化 论</w>
进 度</w>
这 本
还 算</w>
辖 区</w>
输 掉</w>
转 嫁</w>
身 亡</w>
超 市</w>
赫 鲁</w>
赎 金</w>
费舍 尔</w>
贩 子</w>
贩 卖</w>
财 力</w>
请 愿</w>
议 会
言 不
覆 盖
西班牙 人</w>
西 尔
衡 ，</w>
行 程</w>
落 。</w>
菲 利
苏维 埃</w>
苏 哈
节 点</w>
艾哈迈 迪</w>
自豪 感</w>
脱 颖而出</w>
胜利 ，</w>
胜利 。</w>
肩 负</w>
联 想</w>
职 员</w>
而 言</w>
罚 金</w>
罗 雅
缺 位</w>
给 定</w>
经验 丰富</w>
经济 效益</w>
纷 争</w>
粉 碎</w>
米 兰
管 辖
端 倪</w>
竞 相</w>
空 间
空 洞</w>
穆 特</w>
稀 少</w>
租 赁</w>
秘 诀</w>
禁 飞
神 权</w>
神 奇</w>
社会 所</w>
社会 主义者</w>
破 碎</w>
相 邻</w>
直 人</w>
百分 比</w>
病 症</w>
病 学</w>
电 信</w>
申 根
瓦 尔</w>
现 已</w>
率 领</w>
特 质</w>
特 殊
特 有</w>
牙 齿</w>
版 图</w>
燃 起</w>
灾 区</w>
潜 能</w>
消 亡</w>
流 放</w>
流 域</w>
波 罗</w>
法西 斯</w>
法 郎</w>
法 官们</w>
沙 拉
民主 党
民 粹</w>
毫不 犹豫</w>
毒 者</w>
残 余</w>
死 后</w>
正 轨</w>
欧洲 投资银行</w>
欧元 集团</w>
次贷 危机</w>
桑托 斯</w>
根 基
核 能力</w>
核 查</w>
杜 绝</w>
李 明
李明 博</w>
权 宜</w>
机 ，</w>
机 密</w>
机 制
未 曾</w>
木 材</w>
服 刑</w>
有 意识</w>
月 度</w>
更 糟。</w>
更 有
暴 君</w>
智 商</w>
易 卜拉
易 于</w>
早 先</w>
旧金 山</w>
旧 有</w>
日 元
施 密
施密 特</w>
新奥尔 良</w>
斯 斯坦</w>
文 职</w>
数以 千
救 世
政策 。</w>
政治 局</w>
放 慢</w>
收 成</w>
播 放</w>
拉 登</w>
抵 抗
抗 抑郁
承 诺
所 用</w>
战 犯</w>
惧 怕</w>
情 节</w>
悲 剧性</w>
恶性 循环
恐怖 份子</w>
怪 异</w>
性 、
怀 孕</w>
快 ，</w>
快 要</w>
必要 时</w>
心 存</w>
很 难
往 来</w>
弱势 群体</w>
张 。</w>
式 各样</w>
开 脱</w>
庆 幸</w>
并 存</w>
干 净</w>
布雷顿森林 体系</w>
左翼 联盟</w>
左翼 联盟
崩 盘
展 览</w>
层 级</w>
尾 声</w>
尼 赫鲁</w>
尸 体</w>
小 镇</w>
导 师</w>
审 理</w>
定 向
孤 独</w>
存 储</w>
威 茨</w>
姗 姗
奖 牌</w>
奋 力</w>
大 自然</w>
大 火</w>
墨西哥 城</w>
塔利 班
堕 胎</w>
国际 标准</w>
国民 收入</w>
国会 预算
国 人</w>
咖 啡</w>
呢 ？</w>
启 示</w>
后 盾</w>
同情 心</w>
同 类</w>
合 力</w>
各 式各样</w>
可靠 性</w>
古兰 经</w>
变 异</w>
发 作</w>
反 叛</w>
友 善</w>
参谋 长</w>
参 照</w>
去 除</w>
危地 马拉</w>
南 部地区</w>
医 学
匆 忙</w>
勾 勒</w>
加沙 地区</w>
加 倍</w>
前 进
别 提</w>
利库德 集团</w>
利 用
利 他
判 定</w>
创 下</w>
分 成</w>
几 十年前</w>
农 民
军 国主义</w>
兴 盛</w>
公 报</w>
公 关</w>
全 盘</w>
克林 顿
先 锋</w>
充 裕</w>
倒 ”</w>
信 仰
保 费</w>
俄罗斯天然气工业 公司</w>
侯赛 因
但 愿</w>
伪 装</w>
伦 理
亿 英镑</w>
人 种</w>
亲 戚</w>
亚当·斯 密</w>
亚 太</w>
五 月</w>
五 分之
二十 年前</w>
乘 客</w>
举 步</w>
为 数
中 大</w>
中 共
两 年内</w>
东 扩</w>
东 北部</w>
东 亚
不得 而知</w>
不 谈</w>
不 曾</w>
不 明</w>
不 得</w>
不 容
下定 决心</w>
万 亿欧元</w>
一无所 知</w>
一如 既往</w>
一 窥</w>
一 处</w>
。 受</w>
“ 货币
“ 安倍
re s</w>
oc r
o v</w>
nd re
n o</w>
in s
in es
il i
i o</w>
f er
e ar
S I
Partnershi p
P h
P IS
NT C</w>
NG O</w>
L e</w>
K h
He al
G e
D i
6 个</w>
6 7
500 万</w>
50 万</w>
4 0年前</w>
30 日</w>
20世纪9 0年代初</w>
200 9年以来</w>
200 1</w>
198 5年</w>
193 1年</w>
1 4</w>
0. 3%</w>
， 巴</w>
（G lobal</w>
（Ch ris
（ R</w>
齐 心协力</w>
鲁 ·
高 调</w>
骚 扰</w>
马斯特里赫 特</w>
首当 其
首 选</w>
非营 利</w>
青 年
雨 林</w>
难 逃</w>
降 幅</w>
阿拉伯 革命</w>
阿拉伯 地区</w>
阿拉伯 世界
阿 里·
防火 墙</w>
门 。</w>
错 误
链 条</w>
铁 腕</w>
重 开</w>
通货 紧缩</w>
通 用</w>
逃 。</w>
违 法
这 条路</w>
还 记得</w>
还 有
还 债</w>
近 代</w>
过去 六年</w>
迁 往</w>
辛 格
越 南
超 导
超 凡</w>
起 因</w>
贸易 、</w>
贴 上</w>
贫民 窟</w>
账 单</w>
负担 。</w>
谅 解</w>
调 ，</w>
诺 贝
诱 因</w>
认 同
计划 ，</w>
解 密</w>
观 者</w>
见 惯</w>
行 渐
蛋 白</w>
萨尔 瓦
萨 拉
萨 卡
荒 唐</w>
茨 基</w>
英 雄
英 尺</w>
苏哈 托</w>
自 满</w>
脱 身</w>
胡斯 尼·
胡斯尼· 穆巴拉克</w>
耶 鲁
而 去</w>
美 中</w>
罗雅 尔</w>
综合 症</w>
综合 性</w>
经济 增长
经 常
终 点</w>
组 装</w>
纽黑文 ——</w>
精 诚</w>
粮 食
米 特
等 人</w>
第三 季度</w>
第一 ，</w>
突破 性</w>
稽 之
租 金</w>
离 心
离 婚</w>
禀 赋</w>
票 。</w>
矛 盾
着 实</w>
目 张
目 。</w>
皇 帝</w>
的 人</w>
疲 劳</w>
电子 邮件</w>
电 能</w>
生产 能力</w>
生 死
瓦哈 比</w>
瓦 尔
瓦 ·
热 爱</w>
渐 渐</w>
消 防
消 耗
浪 漫</w>
派 对</w>
洗 钱</w>
泽 纳
法兰克 福
泄 露</w>
沃尔福 威茨</w>
水 果</w>
民主 派</w>
毒 性</w>
武装 力量</w>
正 当
欧洲 委员会</w>
欧 亚</w>
横 跨</w>
横 行</w>
检 查
档 案</w>
格 林</w>
根深蒂 固
树 木</w>
标 榜</w>
来 迟</w>
杠杆 率</w>
权 主义</w>
期 望
有 活力</w>
有 余</w>
更 改</w>
晚 上</w>
是 说</w>
明 目张
旱 灾</w>
日俱 增。</w>
无 稽之
无 神
斯 塔
斗 士</w>
文 本</w>
数字 化</w>
数 。</w>
教 练</w>
教 徒
放 开</w>
收 费</w>
撼 动</w>
摄 入</w>
接 手</w>
据 报道</w>
换 来</w>
损 坏</w>
损 伤</w>
挺 身
指 南</w>
拍 摄</w>
拍 卖</w>
拉· 默克尔</w>
扫 清</w>
打 分</w>
打 击
扎尔 达
手 们</w>
所在 地</w>
戴 着</w>
战争 ，</w>
成 功
戏 剧</w>
戈 登·
愿 景
意 欲</w>
想 不到</w>
悲 哀</w>
悄 悄</w>
恰 逢</w>
息息 相关</w>
总 书记</w>
心 血
录 像</w>
弗朗西 斯</w>
开 设</w>
开 拓</w>
庆 贺</w>
幸 免</w>
希腊 银行</w>
希格 斯</w>
布 达
巴格 达
工 人们</w>
屈 辱</w>
尔 ，</w>
导 火
对 话
家 。</w>
室 内</w>
定 不移</w>
安 格
安 定</w>
姗姗 来迟</w>
如 是说</w>
她 说</w>
女 生</w>
失 所
天 空</w>
天 皇</w>
大大 地</w>
大 银行</w>
大 宗</w>
大 、</w>
多米 尼
多 种
外 流</w>
壁 垒
增 添</w>
增 值</w>
埃 尔·
垃 圾
坚 定不移</w>
国际刑事 法院</w>
国际 法庭</w>
团结 ”</w>
因 果
回 归
吸 毒者</w>
听 命</w>
否 则
吉尔吉 斯斯坦</w>
可 见
可 获得</w>
召 回</w>
取而代 之</w>
反 美
双相 障碍</w>
即 时</w>
危险 。</w>
卡德 罗夫</w>
卡 斯
博 科</w>
南奥塞 梯</w>
卓 识</w>
协调 一致</w>
半 个</w>
北 方
包 袱</w>
动 ，</w>
动 向</w>
前 辈</w>
前 列
制造 者</w>
制药 公司</w>
利 马</w>
删 除</w>
列 宁</w>
分 工</w>
几十 亿美元</w>
几何 时</w>
几 家</w>
冷 酷</w>
冬 天</w>
关系 密切</w>
公开市场 委员会</w>
克里 斯蒂
儒 家</w>
储 藏</w>
倍 感</w>
保守 主义者</w>
保 罗
俘 虏</w>
佩 戴</w>
作 斗争</w>
低 级</w>
位 ，</w>
传 输</w>
休 闲</w>
伊斯坦 布尔</w>
伊斯兰 恐怖主义</w>
伊斯兰 堡</w>
仰 仗</w>
令人 鼓舞</w>
付 钱</w>
付 费</w>
人 造</w>
交 战</w>
亚历山 大
互 利</w>
二 者</w>
二 季度</w>
乱 。</w>
买 到</w>
义 ，</w>
丽 莎
主 观</w>
中 韩</w>
两 类</w>
世界 银行
不 景气</w>
不 值</w>
三 方</w>
万 年</w>
一 胎</w>
一 派</w>
一 句话</w>
一 击</w>
一 。</w>
。 毫不奇怪</w>
。 政府</w>
un iv
u r</w>
ti f
s ）。</w>
p ac
o z
is h
is c
il l</w>
i e</w>
et ）</w>
b i
ari o</w>
an n
ag h
ac if
OM T</w>
O r
N D
IP CC</w>
G B
5 年前</w>
5 5%</w>
20世纪 20年代</w>
200 2</w>
200 0年以来</w>
20 国集团</w>
20 25年</w>
2 7%</w>
199 7
000 多
000 万美元</w>
0. 1%</w>
， 资本主义</w>
， 格鲁吉亚</w>
， 意</w>
， E
（S D
（ c
黑 暗
麻省理工 学院</w>
驾 驭</w>
马萨诸塞 州</w>
马 ，</w>
首当其 冲</w>
饿 死</w>
食 用</w>
霍 多尔科夫斯基</w>
震 撼</w>
雷 斯</w>
难民 营</w>
除 去</w>
阿萨 德
阿拉维 派</w>
钻 井</w>
重新 启动</w>
重 生</w>
邮 报</w>
迫 不及
迫不及 待</w>
迪 克
还有 什么</w>
较 快</w>
轻 率</w>
转移 支付</w>
车 臣
身 高</w>
足轻 重</w>
走 廊</w>
赫尔 辛
资 质</w>
责 。</w>
豪 华</w>
诺 斯
诺斯 艾
诱 导</w>
试 者</w>
论 述</w>
计 入</w>
言 人</w>
解 说</w>
视 同
袭击 者</w>
被 关押</w>
行动 ，</w>
行 之
虚 构</w>
蔬 菜</w>
葬 礼</w>
菲律 宾
莫桑比 克</w>
自力更 生</w>
胜 ，</w>
背 离</w>
肤 色</w>
聘 用</w>
联合国 宪章</w>
而 至</w>
者 。</w>
老 派</w>
美国 最高法院</w>
美国 国际
美 孚</w>
综 复杂</w>
细 微</w>
约瑟 夫</w>
约旦河 西岸</w>
素 。</w>
精 彩</w>
简 称
筛 选</w>
第二 季度</w>
第 十
章 程</w>
立 足</w>
立 特里
穆 兄</w>
税 基</w>
福 音
禁飞 区</w>
社会 科学</w>
礼 貌</w>
研究 生</w>
相形见 绌
相去甚 远。</w>
相关 者</w>
相关 性</w>
相 适应</w>
相 比较</w>
相 差</w>
盖 特
皮 书</w>
理想 主义</w>
理 会</w>
理 们</w>
猛 虎</w>
爆 发
灭 亡</w>
演 进</w>
源 泉
游说 者</w>
渔 船</w>
渐 行渐
涵 义</w>
消 极
消 散</w>
海 洛
流 产</w>
注 射</w>
泥 淖</w>
沙 尔</w>
汹 涌</w>
污 点</w>
毛里求 斯</w>
残 留</w>
武装 冲突</w>
正 如
植 入</w>
森 豪
桑 德斯</w>
案 子</w>
格鲁吉 亚
枯 竭
机 械
月2 7日</w>
最后 贷款人</w>
最低 限度</w>
更有 甚
普林斯顿 大学</w>
普 尔</w>
普 世
无 辜
无 家
无 上</w>
施 展</w>
方面 面</w>
方 方面面</w>
新 规则</w>
新 产品</w>
斯洛 文
斯 顿</w>
斯 宾
断 绝</w>
数百 名</w>
敞 口</w>
政治 性</w>
攸 关</w>
推 波
排 外
挺身 而出</w>
持 久
拥 护者</w>
拉迪 奇</w>
拆 除</w>
抵押 品</w>
抱 着</w>
抗氧化 剂</w>
找 工作</w>
扫 地</w>
扩 充</w>
战 事</w>
悲 伤</w>
恩 斯</w>
恐 惧
急 转
德 尔·
微 生物</w>
得 分</w>
得 住</w>
当务之急 。</w>
当 天</w>
强 人</w>
引 人</w>
开 支
开 办</w>
康 复</w>
并 进</w>
年 龄段</w>
年 均
平方 公里</w>
平 民
巴黎 银行</w>
巴 拉
差 。</w>
巨 星</w>
巧 合。</w>
尼古 拉·
尼加 拉
尼亚 ·
尤科 斯
尖 阁
小 孩</w>
容 纳</w>
安全 网</w>
学 生们</w>
季 莫申科</w>
威 力</w>
委员会 （
姆 拉迪奇</w>
奴 役</w>
奉 献</w>
失业 保险</w>
失 落</w>
太 迟</w>
天 内</w>
大 洲</w>
大 打
大 学生</w>
多 极化</w>
多 得</w>
多 国</w>
处 方</w>
增 加值</w>
塔吉 克斯坦</w>
埋 葬</w>
埃博拉 病毒</w>
坚 决
坚决 反对</w>
坐 等</w>
坎布里 奇</w>
地 下
图 像</w>
国际 性</w>
国 库</w>
国 们</w>
回 头</w>
四分五 裂</w>
四 月</w>
四 川</w>
四 季度</w>
喘 息</w>
唯 恐</w>
和 谈</w>
呼 吸
告诉 你</w>
君 主
后 退</w>
后 裔</w>
合 理
史 密
可 达</w>
可 耻</w>
只 好</w>
另一 回事</w>
古 拉
受 众</w>
发 明
反 省</w>
反 作用</w>
双 管齐下</w>
去年 9月</w>
厉 害</w>
厄 运</w>
厄 立特里
即 刻</w>
博 士
南斯 拉夫
单 元</w>
协定 。</w>
半 叶</w>
北 极</w>
化 疗</w>
勒 索</w>
动 摇
副 产品</w>
前 来</w>
前 任
制 宪</w>
利维 坦</w>
利 夫
创 办</w>
划 算</w>
分 散
出乎 意料</w>
凯恩斯 主义
军 区</w>
共产 主义者</w>
共产 主义
六 十年</w>
全 书</w>
入学 率</w>
党 。</w>
克 雅
克 拉
偏 袒</w>
保 全</w>
体育 运动</w>
体 会</w>
住 房
低 ，</w>
低 位</w>
传染 性</w>
优 越
众 人</w>
伊斯兰 运动</w>
伊斯兰 教徒</w>
价 。</w>
付 款</w>
什 维
亿 吨</w>
人力 资源</w>
人 身</w>
人 手</w>
亲 信</w>
交 织</w>
些 年</w>
亚 ·
五 十年</w>
五 倍</w>
事 者</w>
乙 醇</w>
之 道</w>
义 。</w>
为数 不多</w>
为 时</w>
丰 裕</w>
中， 政府</w>
两 地</w>
丝绸 之路
东 耶路撒冷</w>
东 方
世界 经济
世界 性</w>
世俗 主义</w>
丑 陋</w>
不安 。</w>
不 易</w>
不 明朗</w>
不 时</w>
不 动</w>
下 限</w>
下 次</w>
下 个月</w>
上 议院</w>
上 海
上 校</w>
上 层</w>
万 欧元</w>
七 个</w>
一 步
一 周
一 副</w>
。 除</w>
。 结果
。 危机</w>
“ 自
tr uc
ter ）</w>
t or
s i</w>
re at
r as
oo d</w>
ol d
oh amm
o th
nit ed</w>
i on
i m</w>
for m
em ocr
em issi
e h
acif ic</w>
a ir
SD G</w>
S ol
M ）</w>
K ib
F ried
E urop
C O
C F
B I
A f
6 5岁</w>
6 5%</w>
5 0年前</w>
40 亿美元</w>
4 5
3 9
3 7
200 万</w>
20 年后</w>
199 9年
198 9年
194 9年</w>
19 14
14 0
100 万</w>
0年 间</w>
， （</w>
， 查</w>
， 据</w>
， 卡梅伦</w>
， 两
， M
（W orld</w>
（Ric hard</w>
（ 即</w>
（ “
鲸 鱼</w>
风 力</w>
领先 地位</w>
领 海</w>
预防 性
顽 疾</w>
页岩 气
面 貌</w>
需求 ，</w>
雷曼 兄弟
零 ，</w>
集中 化</w>
集 合</w>
难以 为</w>
隐 蔽</w>
随 机
随 时
随 即</w>
陈词 滥
陈词滥 调</w>
阿卜杜 勒
阵 地</w>
门 ，</w>
长 寿</w>
销 毁</w>
鉴 于</w>
金 斯</w>
重新 设计</w>
重 商
酒 精</w>
遗传 学</w>
遍 及</w>
通 行</w>
通 信
退 缩</w>
进口 品</w>
这 座
这座 城市</w>
这 个月</w>
近 邻</w>
近 在
运 输
过去 50年</w>
过去 15年</w>
过去 10年</w>
达 州</w>
辩 解</w>
转 到</w>
身 着</w>
身 体
身 一
踌 躇
起 始</w>
资源 配置</w>
贸易 量</w>
负 增长</w>
贝卢斯科 尼
说 道</w>
说 到</w>
误 读</w>
诅 咒</w>
证 词</w>
证 。</w>
论 战</w>
许 多年</w>
讯 息</w>
讨 论
言 。</w>
角 。</w>
观察 家们</w>
见 过</w>
西方 政府</w>
西尔 维
裙 带</w>
补 充
行 长们</w>
药 品
苹果 公司</w>
节 俭</w>
艾 森豪
自 负</w>
自 主权</w>
能 看到</w>
肥 沃</w>
肤 浅</w>
联盟 ”</w>
联合 会</w>
耶 伦</w>
翻 译</w>
美国 国防部</w>
美国 国务院</w>
维 度</w>
结构性改革 ，</w>
经济学 家
经济 基础</w>
粉 饰</w>
米 歇
第二 年</w>
第一 季度</w>
笑 话</w>
竿 见
立 竿见
突 尼斯
突 发</w>
穿 过</w>
移 居</w>
科尔 宾</w>
离 不
福 利
神 职人员</w>
祈 祷</w>
社会 学家</w>
确 有</w>
研究 员</w>
知 肚
知 晓</w>
眼 看</w>
眼 球</w>
相互 作用</w>
直升 机</w>
盎 格鲁
盈 率</w>
白 宫
登 记</w>
登 盛</w>
留 出</w>
畏 惧</w>
电视 节目</w>
由来已 久</w>
生命 力</w>
生产 成本</w>
生 ，</w>
琳 ·
率 （</w>
猛 增</w>
犹太复 国
牲 畜</w>
物 体</w>
牢 牢</w>
版 权</w>
爱 德
爆炸 性</w>
然 大
热 切</w>
烈 ，</w>
火 车</w>
火 。</w>
激进 主义</w>
澳大 利亚
潮 ，</w>
液 压</w>
海洛 因</w>
派 ”</w>
泽纳 维</w>
波多黎 各</w>
波 特</w>
泡 沫
法国 大革命</w>
法 治
沿 用</w>
沦 落</w>
沙特 王国</w>
汇 报</w>
比 索</w>
比 对</w>
死胡 同</w>
正当 性</w>
正 是因为</w>
止 步</w>
欧 安
欢 欣
核 武器条约</w>
核 威慑</w>
核 化</w>
查理 周刊</w>
柏 拉
机 制。</w>
本 金</w>
朋 友们</w>
最 喜欢</w>
更有甚 者</w>
是 非</w>
昨 天</w>
明目张 胆</w>
明 日</w>
无 意
无 与
无与 伦
旗 下</w>
新 市场</w>
斯洛文 尼亚</w>
文 凭</w>
数千 亿美元</w>
数以千 计</w>
数 千</w>
敏感 性</w>
政治 犯</w>
撒 谎</w>
摩 擦
摇 身一
搜 寻</w>
控 股</w>
掌 管</w>
捷 径</w>
捷 夫</w>
挑战 性</w>
拉 斯·
抹 黑</w>
护 士</w>
抛 开</w>
投 诉</w>
投 下</w>
抑制 剂</w>
承包 商</w>
扎 实</w>
房 间</w>
感 ，</w>
意料 之外</w>
愈 演</w>
惨 剧</w>
总 收入</w>
快 。</w>
忧 。</w>
忆 录</w>
微 乎</w>
得 知</w>
得 意</w>
很难 说</w>
很 多年</w>
弹 药</w>
弹 头</w>
开发 商</w>
开 罗
开 火</w>
延 误</w>
应 运
庄 稼</w>
年 率</w>
希 望，</w>
布拉 格</w>
布 宜
布宜 诺斯艾
市 盈率</w>
巴罗 索</w>
工作 组</w>
工 薪
小 小</w>
富 裕
容 许</w>
家 乡</w>
定 时
安德 鲁·
学 者们</w>
季 节</w>
字 眼</w>
好 。</w>
奋 起</w>
奇 ，</w>
头 ，</w>
头 寸</w>
失 当</w>
大相径 庭
大 局</w>
多米 诺
多 方面</w>
外 表</w>
塞尔 维亚
塞 内
埃及 政府</w>
埃 尔
坏 账</w>
地 址</w>
在 任</w>
土 崩
国 情</w>
国 库
国 ——</w>
团结 。</w>
因果 关系</w>
回报 。</w>
回 忆录</w>
四 年前</w>
嘲 讽</w>
商 学院</w>
哥斯达 黎
和平 。</w>
告 别</w>
后 腿</w>
名 副
同性 恋
同 性</w>
合作 者</w>
只 限于</w>
反 腐败</w>
反 倒</w>
去 向</w>
南 欧
卖 掉</w>
协 会
十 几
北 美
劳动 法</w>
助 益</w>
助 手</w>
加 码</w>
割 裂</w>
副 总理</w>
前 苏联
前 方</w>
别无 选择</w>
刚 果
分 界线</w>
分 数</w>
出 自</w>
出 兵</w>
凭 空</w>
几 近</w>
减 半</w>
冲击 波</w>
农民 工</w>
军备 竞赛</w>
关 切
入 主</w>
克里姆 林</w>
光 景</w>
兆 。</w>
儒 教</w>
借 债</w>
例外 。</w>
体 。</w>
伯 格
伦 齐</w>
传 言</w>
会 谈
休 。</w>
伊 丽莎
代 言人</w>
人 际</w>
亲 密
交易 ，</w>
交 谈</w>
亚洲 开发银行</w>
五 角
买 房</w>
书 面</w>
乐 意</w>
乏 力</w>
乎 寻常</w>
为 时
中 方</w>
业 者</w>
专 栏</w>
不足 为</w>
不 谓</w>
不 相
不 懂</w>
不 匹配</w>
不 休</w>
不 予</w>
下 达</w>
一厢 情愿</w>
一 郎</w>
一 流</w>
一 根</w>
一 枚</w>
一 帮</w>
一 味</w>
一 口气</w>
一 世</w>
、 利比亚</w>
—— “
univ ersit
th at</w>
sl am
ri g
r us
p p
ou ld</w>
o i</w>
o f
o cial</w>
m on
l y</w>
iti ati
har t）</w>
es t</w>
enn eth</w>
e ,</w>
d is
ch er
c om</w>
b er</w>
arm en</w>
ar b
a u</w>
Secur ity</w>
P N
G 20峰会</w>
F und
E A</w>
B ern
B ank
AR P
9 月份</w>
6 个月</w>
4 1%</w>
3 年间</w>
21 世纪
20世纪 6
201 4
200 5
2 亿美元</w>
199 6
198 4年</w>
197 9</w>
194 4年</w>
193 0年</w>
18 7
17 个</w>
1. 8%</w>
1 0年前</w>
000 欧元</w>
&#160;&#160; &#160;&#160;
； 相反，</w>
， 花</w>
， 约</w>
， 拉
， 如
， 大萧条</w>
， 受</w>
（S yri
（M ichael</w>
（A b
（ 合</w>
（ 例如</w>
（ 例</w>
（ Y
高峰 期</w>
高 薪</w>
高 产</w>
马 英
香 烟</w>
首 领</w>
顾 。</w>
顽 强</w>
面 对面</w>
露 出</w>
需求 。</w>
隔 离
随时 随
随时随 地</w>
除 非
陆 军</w>
阿尔巴 尼亚
阵 痛</w>
防 御
长 度</w>
镕 基</w>
错 综复杂</w>
金砖 四国</w>
重 量</w>
重 整</w>
重 工业</w>
醒 悟</w>
酷 刑</w>
那么 重要</w>
那 维亚</w>
那 位</w>
那 个
通胀 预期</w>
通胀 预期
逐 出</w>
透 过</w>
迷 恋</w>
迪 拜</w>
连 通
这么 说</w>
这 本</w>
近 十年</w>
过渡 。</w>
过 滤</w>
过 少</w>
载 体</w>
转 折</w>
车 之
车之 鉴</w>
跟 着</w>
跌 落</w>
起 飞</w>
赫 ·
赦 免</w>
赖 斯</w>
赌 场</w>
贾 尼</w>
贸易 额</w>
贯 穿</w>
购物 中心</w>
购 入</w>
责任 感</w>
财 产
诺 夫</w>
详 尽</w>
诟 病</w>
识 别
记 者们</w>
认 定为</w>
解放 广场</w>
解 冻</w>
见 效</w>
要 你</w>
西岸 地区</w>
西 雅
衰 败</w>
表 露</w>
行之 有效</w>
行 星</w>
蕴 藏</w>
蒂 尔</w>
萨利 赫</w>
萨 赫
药 。</w>
英国 石油公司</w>
英 帝国</w>
节 日</w>
艾 伦·
航 天
舒 服</w>
自行 车</w>
自由 裁
自由 、</w>
自然 界</w>
自 欺
自 利</w>
腐 朽</w>
肺 癌</w>
肺 炎</w>
股 东
联 络</w>
而 已</w>
老 兵</w>
缺 席</w>
缔约 国</w>
维基 百科</w>
继 续
经 理们</w>
终 结
组 合
线 路</w>
索 沃</w>
素 ，</w>
米 歇尔</w>
米 哈
管 制
算 得上</w>
策 。</w>
窘 境</w>
窃 取</w>
突 发
穆尔 西
稀 释</w>
离不 开</w>
离 职</w>
离 任</w>
福 岛
社 团
示威 。</w>
碳 税</w>
碎 片</w>
碎 片
硬 着陆
破坏 性
石 头</w>
着 力</w>
目 光
目光 短
盎 格鲁</w>
症 结</w>
病 患</w>
疑 惑</w>
电 信
生 成</w>
理事 国</w>
珍 视</w>
玩 世
玩世 不
独立 。</w>
狂 欢</w>
特别 是</w>
特 洛
牵 扯</w>
物 价
爱 沙尼亚</w>
然 。</w>
热 衷</w>
海湾 地区</w>
海 量</w>
海 峡
派 驻</w>
法 院
治 疗
沙 皇</w>
沉 浸</w>
沃 克尔</w>
汽车 业</w>
汇 率
气候 变暖</w>
民主 联盟</w>
比 方</w>
每 日</w>
毁 于</w>
残 疾</w>
歧 视
欢 呼
次 大陆</w>
模棱两 可</w>
概 念
格 陵
格 格
根 源
查 德</w>
极端 化</w>
极 富</w>
机 制，</w>
朱 镕基</w>
本 拉登</w>
未 知
朝 向</w>
朊 病毒</w>
有 限
有 资格</w>
有 关系</w>
有 信心</w>
最 少</w>
曼 努
普 世</w>
易 事，</w>
易 事。</w>
明 显
明 ·
无穷 无尽</w>
无 限制</w>
无 害</w>
无 声
新 陈
新 德里
斯洛伐 克
斯 瓦
文 献</w>
敲 响</w>
数 个</w>
数 不清</w>
救 济
改 观</w>
收支 平衡</w>
收 容</w>
撒哈 拉
撒切 尔
撑 腰</w>
援 手</w>
提 法</w>
推波 助
接 过</w>
接 踵
接 班
捕 鱼</w>
捆 绑</w>
指 派</w>
拒 之
拉 宾</w>
批判 性</w>
扭曲 。</w>
打 压</w>
扎尔达 里</w>
手 法</w>
所 称</w>
戴 维</w>
戈登· 布朗</w>
憎 恶</w>
慢 地</w>
愤 慨</w>
想 办法</w>
想 像</w>
惩罚 性
恢 复
总 司令</w>
思 维
徒 劳
影子 银行</w>
彩 票</w>
归 于</w>
强 制
弱 者</w>
弗里德 曼
弗朗索 瓦·
弃 权</w>
异 见</w>
开 创性</w>
延 期</w>
应 用
庇 护
广 播
幻想 。</w>
席 尔
帕 斯
巴西 央行</w>
巴 斯
属 感</w>
居 于</w>
尼古 丁</w>
宽 恕</w>
宗 派
宏观经济 政策</w>
宏观 经济学</w>
安 心</w>
安 。</w>
安 ·
学 说</w>
媒 介</w>
委 会</w>
妖 魔
妄 想</w>
奥 马
契 机</w>
头 。</w>
失 色</w>
夫 ，</w>
太 子
大错特 错</w>
大 麻</w>
大 规模
大 气
多 余</w>
声 名
声 。</w>
士 们</w>
墨西哥 湾</w>
增 ，</w>
增 幅</w>
堡 垒</w>
基什内 尔</w>
基 层</w>
基 尼
坚 称</w>
地 。</w>
圣 经</w>
国务 卿
园 区</w>
喜马拉 雅
商业 化</w>
唐 纳德·
哈 尔
品 种</w>
命 题</w>
呼 吸</w>
周边 地区</w>
吧 。</w>
同 伴</w>
合 伙
各 级</w>
可见 一
只 要你</w>
口 。</w>
变 异
受 限</w>
受 益
取而 代</w>
取 暖</w>
发 泄</w>
发 动机</w>
反 之
参 观</w>
去 何
厘 清</w>
压 迫
历 经</w>
厂 商</w>
卡梅 隆</w>
千 瓦</w>
十 一月</w>
匿 名</w>
北 朝</w>
势 ，</w>
势 必</w>
劳 务</w>
助 力</w>
前 期</w>
利 益者</w>
列 岛</w>
列 宁
出生 于</w>
出 面</w>
出 卖</w>
几 千
减 低</w>
军 用</w>
再 来</w>
内罗 毕
内政 部</w>
内 幕</w>
内 。</w>
兹 ·
兵 力</w>
关塔纳 摩
关 切</w>
共和 国
全 然</w>
入 境</w>
克里 斯托
克里 斯
光 彩</w>
先 锋
充分 就业
借 来</w>
信任 度</w>
保证 金</w>
依 存
佩 林</w>
何 去何
佐 夫</w>
伯克利 —</w>
传 统
传 教士</w>
休 眠</w>
伊 尔·
伊 夫</w>
人 物
人 命</w>
交易 。</w>
亡 。</w>
亟 待</w>
五角 大楼</w>
二 级</w>
乔 纳
乐观 者</w>
之路 。</w>
之 策</w>
主义 者，</w>
中 立
中 和</w>
个 月
两 样</w>
两 个
东 京
不能 说</w>
不 良
不 分</w>
不 久</w>
下 注</w>
下 届</w>
上 ，</w>
上 街</w>
上 扬</w>
一次 机会</w>
一整 套</w>
一大 半</w>
一 败
一 等</w>
一 月份</w>
一 事</w>
一 举</w>
、 高</w>
、 非</w>
、 欧洲央行</w>
“ 无
· 安南</w>
w w
v i
us tic
us ta
us ines
u l</w>
te c
t ro
s ）
oun d
or t
on al
n er）</w>
le ）</w>
la h</w>
l an</w>
in a</w>
il ton</w>
h ag
er t
ens e</w>
en s</w>
ec on
e ），</w>
e ter</w>
e ff
c omp
a y</w>
Sum mer
St at
St ability</w>
S C
R ep
Pol ic
NA FTA</w>
M an
JP M</w>
Institute ）</w>
I D
F or
E x
Counc il）</w>
C oo
C omp
B o
B ar
80 亿美元</w>
60 0</w>
4 4%</w>
30 万</w>
20世纪8 0年代末</w>
2008年 9月</w>
20 2
2 1</w>
196 1年</w>
19 世纪
17 8
16 日</w>
150 亿美元</w>
12 .
1. 7%</w>
1. 4%</w>
1 亿</w>
1 亿
1 8</w>
， 阿拉伯</w>
， 量化</w>
， 然
， 欧元</w>
， 安倍</w>
， 国际
， 哥伦比亚</w>
， 哈梅内伊</w>
， 内塔尼亚胡</w>
， 一
（Syri z
黑 田
黑田 东
黑田东 彦</w>
黑 手
高 棉</w>
驾 驶
马英 九</w>
马拉 维</w>
马克 里</w>
马 ·
飞 行</w>
风险 ，</w>
频 发</w>
非 同
雕 像</w>
雅 虎</w>
难 者</w>
降 雨</w>
降 温</w>
陌 生</w>
陈 述</w>
阿尔茨海默 症</w>
防 线</w>
防 卫
队 长</w>
间 断</w>
门 口</w>
错 过
错过 了</w>
金 敬
金敬 姬</w>
量 级</w>
量 子</w>
重 庆</w>
里程 碑
里 约
邻 为
遥 遥
逮捕 令</w>
选 民
适 宜</w>
追 究</w>
连 续性</w>
近 邻
辕 北
蹴 而
跳 出</w>
走 弱</w>
赠 款</w>
赛 事</w>
赚 到</w>
资产负债表 ，</w>
责 怪</w>
贝 克尔</w>
谈 及</w>
调查 者</w>
诺 切
诸 如
该 法</w>
该 书</w>
议 事</w>
训练 有
训练有 素</w>
计 。</w>
警 醒</w>
解 脱</w>
解 职</w>
视同 仁</w>
观 测</w>
见 解</w>
西 德</w>
被 遗忘</w>
蚕 食</w>
藏 身</w>
蕴 含</w>
蔓 延
董 事
萨 里</w>
营 商</w>
菲 ·安南</w>
苏维 埃
良 心</w>
致 病</w>
致 歉</w>
至 高
自 足</w>
自 觉</w>
自 力</w>
自 主
聚 合物</w>
联邦储备 银行</w>
职 权</w>
聆 听</w>
老 路</w>
美国 ，
美 欧</w>
缠 身</w>
缔 结</w>
绝 望
结 盟
经纪 人</w>
经常 性</w>
线 性</w>
纪 录
纠 缠
繁 衍</w>
管辖 权</w>
算 术</w>
等 量</w>
第三 国</w>
第一 任</w>
笃 信</w>
站 起来</w>
立法 ，</w>
税收 政策</w>
程 序
称 呼</w>
积极 性</w>
秩 序
科威 特
科 巴
秉 承</w>
示 范</w>
碎片 化</w>
瞄 准</w>
省 级</w>
相形见绌 。</w>
相 信
盖特 纳</w>
皮 诺切
白 白</w>
病 菌</w>
电视 机</w>
用 电</w>
班 子</w>
珊 瑚
狱 中</w>
狂 热
特 工</w>
牛 肉</w>
爱德 华
爆炸 案</w>
燃 煤
熊 彼
煽 动性</w>
照 护</w>
焚 烧</w>
烙 印</w>
满意 度</w>
滑 落</w>
源 源
渔 民</w>
混 为一
混为一 谈</w>
消费 水平</w>
海 底</w>
浮 出</w>
浮 出
浮出 水面</w>
测 序</w>
派 兵</w>
津 贴</w>
洁 净</w>
泛 美
法 基
沿 海地区</w>
气 。</w>
民主 。</w>
民 营</w>
民 心</w>
每 个月</w>
毋 庸置疑</w>
步履 蹒跚</w>
此 外</w>
正 向</w>
次 贷</w>
模 糊
模 一样</w>
棋 盘</w>
梅德韦 捷夫</w>
核 威胁</w>
栏 作家</w>
柏拉 图</w>
构 思</w>
条约 ，</w>
杜 鲁
机 。</w>
本 意</w>
本 性</w>
未 有</w>
有 形</w>
有 失</w>
月2 日</w>
曾 多次</w>
更 全面</w>
暗 含</w>
明 了</w>
时 髦</w>
日本 央行</w>
日 韩</w>
日 涅
无稽之 谈</w>
无与伦 比</w>
无 须</w>
无 限
无 懈
无懈 可
施 瓦
斯雷布雷 尼</w>
斯 曼</w>
救 药</w>
政 ，</w>
收 敛</w>
支 配
摩 尔
摇身一 变</w>
摇摇 欲</w>
提 早</w>
推波助 澜</w>
换 句话</w>
捕 鲸</w>
捐 献
挑战 者</w>
挑战 。</w>
指 示</w>
拷 打</w>
拱 手</w>
拯 救
拟 定</w>
拉 里·
拉 美国家
拆 分</w>
打 包</w>
打 交</w>
所 有
慕尼 黑
意 想不到</w>
意 。</w>
性 价
性价 比</w>
急转 直
怀 念</w>
志 愿</w>
德国 队</w>
德国 联邦
德 法</w>
德 斯
德 拉克
微 ，</w>
微 观
很 早</w>
彻 尾</w>
彻 头
彻头 彻尾</w>
当 政</w>
归 属感</w>
弗 雷
弗 利
应运 而生</w>
应 急</w>
庆 典</w>
幸福 。</w>
并 购</w>
年 复
年 化</w>
平 行</w>
常 态
带 回</w>
布达 佩斯</w>
布拉 格
布 斯</w>
市场 准入</w>
巴黎 ——</w>
巴罗 佐</w>
巴 罗</w>
巴 厘
巴 以</w>
工 会
岌岌可 危</w>
尼加拉 瓜</w>
尼亚· 涅托</w>
尼 罗
对 等</w>
对 抗
寥 寥
寄 生
寄 予</w>
定 制</w>
官僚 们</w>
安 然</w>
季 奇</w>
子 弹</w>
子 公司</w>
妥 善</w>
好 过</w>
奥斯陆 协议</w>
奥 林
奋 战</w>
夺 回</w>
头 号</w>
头 发</w>
失 为</w>
天安门 广场</w>
天 性</w>
大 屠杀
大 亨</w>
夜 晚</w>
多 家</w>
多 位</w>
坚 持
坚 强</w>
坐 拥</w>
地 铁</w>
地 表</w>
在 家里</w>
土库曼 斯坦</w>
国 集团
国 、</w>
四 个月</w>
嚣 尘
喝 彩</w>
哀 叹</w>
和平 共处</w>
味 道</w>
周 末</w>
吸 毒</w>
后 遗
名副 其实</w>
名 列
同 盟
吉拉 尼</w>
吃 一
台 湾
可卡 因</w>
可 惜</w>
可 取</w>
发达 国家
发 声</w>
反对 票</w>
反 面</w>
反 型
双 胞
厘 米</w>
历 程</w>
厄立特里 亚</w>
危险 ，</w>
印 记</w>
卡 恩</w>
卡 尔</w>
南 辕北
华 沙
十九 世纪末</w>
十 月</w>
十 七
北极 熊</w>
包容 性
勒 庞
勒 姆</w>
势 。</w>
劳 尔</w>
动 车</w>
加 里
力 量
剥 离</w>
前 行</w>
前 南斯拉夫</w>
前 。</w>
制 订</w>
利用 率</w>
利 弊</w>
刚 果</w>
列 日涅
分裂 主义</w>
出租 车
出 局</w>
凶 手</w>
几内 亚</w>
几 天后</w>
几 个月
准备 金
决定 权</w>
农 场
冗 长</w>
内罗 毕</w>
内 ，</w>
兼 职</w>
典 礼</w>
其 父</w>
兴 趣
兴 旺</w>
公 民
八 月</w>
入 学</w>
免疫 系统</w>
克雅 氏
做 生意</w>
做 事</w>
偏 见
假 想</w>
债 ，</w>
债 。</w>
修正 主义</w>
信 托</w>
依赖 性</w>
供应 者</w>
何去何 从</w>
低 调</w>
低 劣</w>
伪 造</w>
传 媒</w>
传 到</w>
优 雅</w>
伊斯坦 布尔
企 ，</w>
价值 链</w>
价 ，</w>
以 待</w>
代表 们</w>
代 际</w>
仇 视</w>
人口 老龄化</w>
五 国</w>
互 信</w>
二十世纪 九十年代</w>
乔纳 森</w>
乐观 主义者</w>
乌托 邦</w>
主义 、</w>
临界 点</w>
中央 委员会</w>
个人 化</w>
两 院</w>
两 周</w>
两 个世纪</w>
业 主</w>
专 栏作家</w>
不可 分割</w>
不 胜
不 经
不 稳定
不 屑</w>
不 失为</w>
不 含</w>
不 合</w>
不 为人知</w>
下 议院</w>
下 任</w>
上 游</w>
三 点</w>
三 世</w>
一大 笔</w>
一大 堆</w>
一分 钱</w>
一 蹴而
一 课</w>
一 视同仁</w>
一 职</w>
一 模一样</w>
。 简</w>
。 正如</w>
。 G</w>
” ？</w>
“ 绿色
“ 天
“ 反恐战争”</w>
u el</w>
ti gl
r an</w>
op en
o al
m ar
l an
it te
is s
ic k
e ）。</w>
ci l</w>
cher ch
ch ）</w>
c omm
an ism
am b
W at
S EC</w>
R om
R og
P C
OM C</w>
In itiati
In f
IS P</w>
IC T
I F
F re
F inancial</w>
ES M</w>
DD T</w>
D S
C en
C ap
Bern ank
Ag enc
7 月份</w>
6 名</w>
4. 5%</w>
4 8
4 7
30 个</w>
3. 6%</w>
3 倍</w>
3 亿美元</w>
3 9%</w>
3 4%</w>
3 4
25 日</w>
20世纪7 0年代末</w>
201 4</w>
2 日</w>
2 P</w>
2 9%</w>
2 6%</w>
193 8年</w>
1900 年</w>
18 8
18 6
17 日</w>
15 亿</w>
15 0</w>
100 个</w>
， 高
， 称</w>
， 比方说</w>
， 据说</w>
， 委员会</w>
， 奥朗德</w>
， 声</w>
） ？</w>
（Q E
（N ew</w>
（J ames</w>
齐 。</w>
黑 市</w>
麦 加</w>
鲁 棒</w>
高 地</w>
骑 士</w>
马哈茂德· 阿巴斯</w>
马 杜
饭 碗</w>
飞行 员</w>
预 测
顿· 弗里德曼</w>
顾问 们</w>
零 和
集 结</w>
雅克· 希拉克</w>
难 过</w>
难 堪</w>
阿拉伯 联盟</w>
阿勒 颇</w>
阿 齐兹</w>
阿 基
阴 云</w>
问 鼎</w>
锡 安
银行 业务</w>
铀 浓缩
金融 时报</w>
重 组
重 压</w>
里程碑 式</w>
部 分
避风 港</w>
避难 所</w>
遥 不可</w>
逼 迫</w>
途 。</w>
送 入</w>
退 步</w>
违法 行为</w>
远见 卓识</w>
这本 书</w>
过 且
达 尔</w>
辅 相
辅相 成</w>
软 弱
转移 支付
起 眼</w>
走 入</w>
赫 蒂
赔 付</w>
资产负债表 。</w>
资 银行</w>
贷 者</w>
负债 率</w>
贝尔 格莱
谢 瓦
谋 取</w>
诺贝尔和平 奖</w>
诸 国</w>
说 到底</w>
诊 断
识别 区</w>
警 官</w>
触 目
触 动</w>
解 答</w>
角度 看
覆 地</w>
西尔维 奥·
西 欧
西 奈</w>
裨 益。</w>
裂 缝</w>
蒸 发</w>
落 定</w>
萨缪 尔
萨尔瓦 多</w>
萧条 ，</w>
菅 直人</w>
英 亩</w>
芝加哥 大学</w>
节 节</w>
艾森豪 威尔</w>
自 贸</w>
自 决</w>
能 耗</w>
能 效</w>
胚 胎</w>
胁 迫</w>
肯尼 斯·
股 份
联盟 。</w>
联合国 儿童
联合国 人权
职业 培训</w>
耶鲁 大学</w>
而 我</w>
而 为</w>
而 不
老 一
翻 天
翻天 覆地</w>
羡 慕</w>
美 俄</w>
罪 。</w>
绝 无
经济 萧条</w>
经济 史</w>
终 生</w>
终 正
纽约 市</w>
纺 织</w>
纸 币</w>
纳斯 鲁
纳 赛
精 密</w>
米歇 尔·
米哈 伊尔·
管理 委员会</w>
简而 言</w>
简 言之，</w>
签 字</w>
签 名</w>
第一 届</w>
竞 选
立竿见 影</w>
立 场
科 菲·安南</w>
科 罗
科 夫
私 利</w>
祖 母</w>
社会 民主党</w>
社会 关系</w>
研 讨
睡 眠</w>
睁 睁</w>
眼 睁睁</w>
真 如</w>
看 电视</w>
盼 望</w>
相 辅相成</w>
相 干</w>
直 言不
盟 友们</w>
盎 司</w>
益 ，</w>
皮 肤
皮 亚
皆 是</w>
白 色</w>
白 沙
疲 弱</w>
申 请
生 俱
甚 嚣尘
理想 化</w>
玷 污</w>
环境 保护
猛 进</w>
特拉维 夫
特 兰
牵 头</w>
照 看</w>
煎 熬</w>
热 内
烧 毁</w>
炫 耀</w>
灵丹 妙
灯 塔</w>
火 星</w>
滥 用
源源 不断</w>
混 杂</w>
深 重</w>
深 知</w>
深 处</w>
海岸 线</w>
洪 都
波 尔
泄 密</w>
沙特 人</w>
沙 漠
水 ，</w>
民 事</w>
毗 邻</w>
毒 枭</w>
残 局</w>
歧 途</w>
此 案</w>
欧盟 委员会
欧元区 政府</w>
欧元 、</w>
欣 慰</w>
欢欣 鼓舞</w>
桑托 勒姆</w>
格林 斯</w>
根基 。</w>
标准 普尔
权 利
未知 数</w>
未 雨
未 可知</w>
期 货
期 刊</w>
朝 圣</w>
有 理</w>
月 球</w>
最 古老</w>
智 ，</w>
时 装</w>
既得 利益
无济于 事</w>
无所 不能</w>
无 望</w>
无 度</w>
无 常</w>
旅 程</w>
旁 观者</w>
新鲜 事</w>
新 高</w>
新 模式</w>
新 思维</w>
斯堪的 那维亚</w>
斯 堡</w>
斯 亚
斯亚 贝
断 层</w>
文化 主义</w>
文 明
数以 亿
数以亿 计</w>
数 百年</w>
教育 者</w>
教 益</w>
效率 低下</w>
效应 ，</w>
政府 间
政府 军</w>
撤 资</w>
撕 裂</w>
携 带
措 施
措 手
措手 不及</w>
推 入</w>
推 倒</w>
推 举</w>
探 究</w>
探 底</w>
排 序</w>
捕 杀</w>
捐 助者</w>
挥 舞</w>
拖 垮</w>
拉 拢</w>
抚 养</w>
折 合</w>
执 照</w>
托 ·
打 仗</w>
扑 热
手 腕</w>
所 见</w>
戴维· 卡梅伦</w>
我 的
成 败</w>
慢 慢地</w>
意 ，</w>
想 当然</w>
息 痛</w>
怪 圈</w>
思 索</w>
忠诚 度</w>
德意志 银行</w>
德克萨 斯州</w>
德 鲁
德 罗·
得 逞</w>
往 事</w>
弄 巧
开放 性</w>
开 工</w>
建筑 物</w>
并 发
年 ，</w>
年 增长率</w>
幌 子</w>
带 走</w>
希 曼</w>
希 ·
布雷 维克</w>
布宜诺斯艾 利斯</w>
布 朗
巴 赫</w>
左 倾</w>
工程 学</w>
工作 场所</w>
嵌 入</w>
岸 信
屏 幕</w>
居 尔</w>
尽 早</w>
尤科 斯</w>
小 泉
小 岛</w>
寿 终正
对 称
宽 泛</w>
家 属</w>
实验 堆</w>
定 论</w>
安 吉
学 习
学 业</w>
子 。</w>
嫉 妒</w>
威廉 ·
姆 斯</w>
妖魔 化</w>
好 意</w>
奴 隶
奥 班</w>
奖 项</w>
失 利</w>
天安 门</w>
天 下</w>
大 都市</w>
大 道</w>
大 卫</w>
多种 多样</w>
备 选</w>
处 方
声名 狼藉</w>
塔尼亚 胡
基 辅</w>
基 数</w>
坏 处</w>
地中 海地区</w>
地 盘</w>
圣 者</w>
图 片</w>
国际 金融
国际 收支</w>
国库 券</w>
国会预算 办公室</w>
固定 资产</w>
困 难
回 击</w>
噶 玛
嗤之以 鼻</w>
商 榷</w>
哺 乳
启 用</w>
后 院</w>
合 众
可 口
可口 可
可 不</w>
召 力</w>
古 巴
变 局</w>
变 化，</w>
受 试者</w>
取 悦</w>
发 送</w>
反 日</w>
反 动</w>
双 重
原 定</w>
印 尼
卢 比</w>
卡 路
卡 拉</w>
南极 洲</w>
南 非
南 亚
升 至</w>
十几 岁</w>
勒 德</w>
勃 列日涅
劳 永
动 武</w>
加 纳
加 州
副 部长</w>
前 南
制 服</w>
列 车</w>
分子 ，</w>
分 娩</w>
出 价</w>
几个月 前</w>
几 点</w>
准 确性</w>
再 生
兼 而
关系 ，</w>
六方 会谈</w>
全 胜</w>
全 美</w>
全 局</w>
克劳 德·
克 多
克 他
元 气</w>
僵 尸
催 化</w>
假 象</w>
债券 ，</w>
借款 者</w>
保险 业</w>
俄罗斯天然气工业 股份
俄 语</w>
便 饭
使 团</w>
余 ，</w>
余 。</w>
位 数</w>
伤 口</w>
伙伴关系 （Tran
优 于</w>
休 假</w>
介 绍</w>
今年 9月</w>
今年 11月</w>
亲密 关系</w>
亲 近</w>
亨利· 基辛格</w>
亚 伯
五 十
二 致
二 等</w>
买 卖
乐 团</w>
乍 看</w>
乌托 邦
义 词</w>
举 例
中间 派</w>
中 性</w>
严 谨</w>
两 座</w>
东 非</w>
东 北</w>
不扩散 核武器条约</w>
不 顾
不 平等
不 再
下 周</w>
下 一次</w>
上 网</w>
上 个世纪</w>
三 十年代</w>
一 百年</w>
一 己</w>
一 封</w>
一 团
一 劳永
一 分</w>
一 刀
。恰恰 相反，</w>
。 （
。 后者</w>
。 卡
、 高
、 逊尼派</w>
、 哥伦比亚</w>
” ；</w>
“安倍 经济学”</w>
é s</w>
v ers
u t</w>
s y
r ad
qu es</w>
or e</w>
o w</w>
o s）</w>
it ）</w>
is t</w>
har les</w>
f i
es s
er em
er al</w>
ep end
en ni
el l</w>
el d
ef ense</w>
e -
d er
d el</w>
c om
c ap
ard ）</w>
an i</w>
al l</w>
ad j
a k</w>
W orld</w>
W or
U N
T ub
T h
Sch um
S tigl
S har
Rein hart）</w>
PIS A</w>
P ri
P ac
P EC</w>
O D
N ational</w>
M c
L ug
G ）</w>
G row
E uropean</w>
Ch ang
CA FTA</w>
A ir
A N
9 岁</w>
8 0年代</w>
7 0年代</w>
5 日</w>
5 7
3 月份</w>
3 7%</w>
3 1
3 0年代</w>
25 岁</w>
23 and
2010年 间</w>
2010年 以来</w>
2008 年前</w>
2. 1%</w>
2 摄氏度</w>
195 8年</w>
194 5年
193 2年</w>
18 世纪</w>
17 .
15 0年</w>
14 日</w>
14 个</w>
11 ”</w>
10 万</w>
1. 5</w>
1. 25美元</w>
1 4年</w>
0. 9%</w>
， 避免</w>
， 监管者</w>
， 海</w>
， 核</w>
， 加州</w>
， H
） 和
（S al
（G re
（F re
（F ran
（ O</w>
鼓舞 人心</w>
黎波 里</w>
麻 疹</w>
麦肯 锡
高 管们</w>
高 等</w>
驱 散</w>
马 格
马 尼
首 批</w>
首 屈
首屈 一
风 暴
额 。</w>
顺 理
革命 卫队</w>
非 常
非 国家</w>
非 传统</w>
雄心 壮
难 觅</w>
院 校</w>
际 ，</w>
附 属</w>
防御 性</w>
队 员</w>
门 类</w>
镜 子</w>
镜 头</w>
锐 减</w>
链 接</w>
针 对</w>
重 构</w>
里约 热内
里 斯坦</w>
采 集</w>
酗 酒</w>
酋 长</w>
鄙 视</w>
部 份</w>
郊 区</w>
遣 返</w>
遗 。</w>
逐 年</w>
逃 亡</w>
适 龄</w>
送 进</w>
退 税</w>
迥 然
进 驻</w>
进 攻
过去 25年</w>
过去 12个月</w>
过且 过</w>
过 激</w>
迁 就</w>
边 上</w>
辞 去</w>
较 量</w>
轮 流</w>
轩 然大
身 穿</w>
踏 步</w>
跨国 企业</w>
越 战</w>
超 乎</w>
起 伏</w>
走 过</w>
赫尔辛 基</w>
赫 希曼</w>
赞 助
赛 ，</w>
赔 款</w>
资本 主义，</w>
资本 主义”</w>
资 者</w>
费 力</w>
费 利
购买 者</w>
谣 言</w>
谢瓦 尔德
谚 语</w>
谋 生</w>
语 气</w>
该 项</w>
该 行</w>
诋 毁</w>
评 分</w>
评 估
访 华</w>
许可 证</w>
认同 感</w>
计算 机
誉 为</w>
触目 惊
规 管</w>
规 则
裕 仁</w>
裂 ，</w>
被 逮捕</w>
衣 服</w>
行 贿</w>
血 红
螺 旋
蚊 子</w>
薪 资</w>
薪 。</w>
董事 长</w>
萨卡 什维
获 准</w>
莫 内</w>
荷 尔
若 干
芬 森</w>
艰 辛</w>
舰 队</w>
舒 曼</w>
至高 无上</w>
自治 权</w>
自动 稳定
自 认</w>
自 尊</w>
腾 飞</w>
腐 化</w>
脚 跟</w>
脑 病</w>
能 不能</w>
胆 敢</w>
肝 脏</w>
肌 肉</w>
联邦 基金
联邦 公开市场委员会</w>
耕 地</w>
耐 药性</w>
而 非</w>
老 虎</w>
网 页</w>
维 奇
绥 靖</w>
统 领</w>
绘 制</w>
结 队</w>
终 究</w>
组织 者</w>
纺织 品</w>
纳 米
纳 泽</w>
约翰· 梅
索 罗斯</w>
糖尿 病
糊 涂</w>
米特 里·
米兰 —</w>
笨 拙</w>
立法 机关</w>
税 （</w>
税 额</w>
稍 稍</w>
移 开</w>
科 夫</w>
离心 机</w>
离 谱</w>
禁 止
票 ，</w>
神 学院</w>
社 论</w>
示威 ，</w>
示威 游行</w>
确 凿</w>
硬 件</w>
破坏 。</w>
石油 公司
相似 性</w>
相互 依赖</w>
相 悖</w>
直 白</w>
直 指</w>
痛 恨</w>
症 候</w>
症 。</w>
疫 情</w>
疏 忽</w>
用 药</w>
生俱 来</w>
生 生</w>
生 死</w>
理 。</w>
珍 珠
现代 性</w>
玩世不 恭</w>
玉 米
献 身</w>
猜 想</w>
犹 豫
特别提款 权
牛津 大学</w>
牛 市</w>
燃 油</w>
照 明</w>
煤 电</w>
然 无
热 潮</w>
热 浪</w>
热 心</w>
炎 热</w>
灾 乐
火 焰</w>
濒 危</w>
激 素</w>
漠 视</w>
满 怀</w>
深 ，</w>
海湾 战争</w>
海 牙</w>
浏 览</w>
流 量</w>
流 言</w>
流 血
流 派</w>
派 。</w>
洪 灾</w>
波 动
波 利斯</w>
法兰 西
法 庭
法 、
沥 青</w>
沙拉 菲
沃尔 芬森</w>
沃尔 玛</w>
沃尔 夫</w>
沃尔 夫
汽 油
污染 者</w>
气 ，</w>
比 如</w>
毒 贩</w>
每 小时</w>
每 一年</w>
母 鸡</w>
正 直</w>
欧洲 银行
欧安 组织</w>
欧 安</w>
橙 色</w>
桑 尼亚</w>
桑 乔</w>
核 武库</w>
核 心
校 长</w>
栖 息
栖息 地</w>
标 明</w>
柴 油</w>
极 右翼
来 说
杜 马</w>
权 宜
机 能</w>
本 轮</w>
本 位</w>
未 免</w>
期 盼</w>
有 道
有 名</w>
有 兴趣</w>
最低 工资
最 重</w>
最 深</w>
最 前沿</w>
曼 ·
更 美好</w>
暴 风
普罗 迪</w>
普林斯顿 —</w>
普 拉
昭 示</w>
春 季</w>
明显 地</w>
明 知</w>
时 点</w>
时 不时</w>
日 美</w>
日 程
无 耻</w>
无 效
无 奈</w>
旁 边</w>
方 略</w>
斯特 拉
斯托 克
斯 德
断 力</w>
文 。</w>
整 性</w>
数 周</w>
散 播</w>
散 布</w>
教 材</w>
效 。</w>
政 客
改革 者们</w>
撬 动</w>
撒切尔 夫人</w>
携带 者</w>
提 示</w>
推 卸</w>
接班 人</w>
接 任</w>
探 寻</w>
排 队</w>
损失 。</w>
捐献 者</w>
捐 献</w>
捏 造</w>
拟 议</w>
招 来</w>
拉 ，</w>
拉 古
抱 负</w>
投票 者</w>
投票 箱</w>
承受 能力</w>
扪 心
扪心 自问</w>
打 电话</w>
打 断</w>
打 出</w>
打 入</w>
所 在</w>
战 术
愤 世
意外 。</w>
惩 戒</w>
惊 喜</w>
情 商</w>
恶 魔</w>
恶 。</w>
恐怖 主义，</w>
恐 慌
性 别
思 潮</w>
怀 抱</w>
忘 掉</w>
心血 管
心 怀
形 色
形 形色
当 做</w>
弗 ·
异 乎寻常</w>
开 玩笑</w>
建 构</w>
库 ，</w>
庄 严</w>
幻 灭</w>
幸 灾乐
年复 一年</w>
年 头</w>
平均 值</w>
干 部</w>
干 细胞</w>
席尔 瓦</w>
布兰 查德</w>
布 隆
巴基斯坦 政府</w>
工 时</w>
崩 塌</w>
崇 拜
岸信 介</w>
岛 上</w>
屏 障</w>
屏 蔽</w>
居 住
层出不穷 。</w>
局 外人</w>
尼日 尔
尼日 利亚
就 读</w>
尖阁 列岛</w>
小 额
小 觑</w>
小 姐</w>
对外 贸易</w>
对冲 基金
寄生 虫</w>
寄 望</w>
宣 判</w>
实验 性</w>
实 践
完 毕</w>
安 哲
安 哥
安 卡拉</w>
宇 宙
学 院
孤 儿</w>
委 婉</w>
姐 妹</w>
妄 为</w>
女 王</w>
女 权主义</w>
奥林 匹
奥巴 桑乔</w>
套 利</w>
失 职</w>
失 。</w>
夫 妻</w>
天主 教
大 额</w>
大 英帝国</w>
大 爆炸</w>
大 涨</w>
大 师</w>
够 了</w>
多 亿美元</w>
多 亏</w>
处 死</w>
处 处</w>
堆 积
埃 德
坦 桑尼亚</w>
坎布里 奇
均 为</w>
圣战 主义</w>
国际刑事 法庭</w>
国家 级</w>
国 营</w>
回 去</w>
四 次</w>
四 名</w>
四 十年前</w>
哈 姆
咨 询
和平 进
周 转</w>
后遗 症</w>
后 苏联</w>
后 天</w>
同 理，</w>
同 日</w>
同 声</w>
各 异</w>
司 空</w>
史蒂 文
可 望</w>
可 以</w>
口 袋</w>
受 雇</w>
受 阻</w>
受 挫</w>
发 誓</w>
发 芽</w>
发 病</w>
发 源</w>
反 恐怖</w>
反 差</w>
双胞 胎</w>
去年 7月</w>
原 状</w>
卡 洛
博 科
卖 淫</w>
单 极</w>
华尔街 日报</w>
升 迁</w>
十字路 口</w>
十二 月</w>
十 分之一</w>
医 学院</w>
包 裹</w>
募 集</w>
助 理</w>
加 尔</w>
功能 性</w>
前列 腺癌</w>
制度 。</w>
到 访</w>
分 支
分 发</w>
击 溃</w>
出租 车</w>
出 境</w>
凯 南</w>
减 记</w>
减 慢</w>
净 值</w>
农场 主</w>
内 塔尼亚胡
兼而 有</w>
兼 顾</w>
兼 容</w>
兴 未
关塔那摩 监狱</w>
关 头</w>
共识 ，</w>
公共 卫生
公 立</w>
公 益</w>
公 寓</w>
八 九十年代</w>
全球 变暖
全 权</w>
入 ，</w>
光 环</w>
停 战</w>
值 。</w>
借 给</w>
俾 斯
保险 公司
俄罗斯天然气工业股份 公司</w>
依 法</w>
供 求</w>
佛罗里 达州</w>
佛罗 伦
余 下</w>
低 端</w>
低 头</w>
伯 特·
传染 性
传 导</w>
传 奇</w>
会 计
优 越</w>
伊 尔
以 邻为
以 上</w>
今年 12月</w>
什么 呢</w>
人物 们</w>
人民 。</w>
人 间</w>
人 性化</w>
亵 渎</w>
亚历山大 ·
五 年后</w>
互 惠
二 月</w>
争 ，</w>
争 。</w>
主义 者们</w>
主 动性</w>
丹尼 尔·
个 小时</w>
个 体
两 面</w>
两 起</w>
两 方</w>
两 支</w>
两 周
两 个人</w>
东 帝
世界经济 展望</w>
世界 杯
世 卫
与 生俱来</w>
不再 相信</w>
不 肯</w>
不 祥</w>
下 游</w>
下 放</w>
下 列</w>
上 旬</w>
上 届</w>
三 边</w>
三 角</w>
三 年内</w>
三 。</w>
万 灵丹
一劳永 逸</w>
一 ，</w>
一 阵</w>
一 艘</w>
一 案</w>
一 年内</w>
。 默克尔</w>
。 身为</w>
、教育 、</w>
、 “</w>
“ 阿拉伯之春
“ 量化宽松
“ 流动性
w e
v er
un d</w>
ub li
ti v
th er
t ），</w>
t or</w>
pol ac
p re
ow ）</w>
open hag
oo d
ol og
ohamm ad</w>
o is</w>
ndre w</w>
il le
ic s</w>
g r
er ）
enc y</w>
el m
con s
b or
at t
as e</w>
ad ）</w>
W e
U S</w>
Tr ad
S ci
Re g
R us
Pro tec
P l
O ）</w>
NC D</w>
NA SA</w>
Me ch
M B
L GB
Krug man）</w>
Kib ak
Institu te</w>
ICT Y</w>
Heal th
H ou
G lobal</w>
G CC</w>
F AR
E A
D ）</w>
D emocr
CA F</w>
BRCA 1</w>
9 年后</w>
9 9%</w>
9 00
8 月份</w>
6 2%</w>
6 00亿美元</w>
5. 5%</w>
4 8%</w>
4 3%</w>
300 万</w>
30 岁</w>
3. 8%</w>
3. 4%</w>
3 2
24 小时</w>
22 个</w>
201 8年</w>
2009年 初</w>
20 年内</w>
2. 0</w>
2 2</w>
199 2
195 1年</w>
193 6年</w>
19 %</w>
18 个</w>
15 年前</w>
13 日</w>
13 亿</w>
10 倍</w>
1 3</w>
0. 1</w>
&#160; &#160</w>
， 逊尼派</w>
， 身为</w>
， 穆沙拉夫</w>
， 波
， 法塔赫</w>
， 格林斯潘</w>
， 斯
， 弗里德曼</w>
， 年</w>
， 凯恩斯</w>
， 伯南克</w>
， 以</w>
， A
（U nited</w>
（T homas</w>
（N or
（M ich
（Ab d
（ F</w>
黑手 党</w>
黄 花
麻 烦
麦当 娜</w>
鲍 威尔</w>
高 铁</w>
驾 车</w>
驱 动型</w>
首脑 们</w>
首屈一 指</w>
饲 料</w>
饮 料</w>
风 光</w>
领 会</w>
顾 忌</w>
项 。</w>
靠 谱</w>
非 贸易</w>
霸 权
难以 捉摸</w>
随 便</w>
险 恶</w>
限 ，</w>
陆 克
阿 赫蒂
阿 盟</w>
阿 斯
阿 德
防 空
防 护</w>
门 外</w>
长 于</w>
钦 斯基</w>
鉴 定</w>
金 牌</w>
量 ，</w>
野心 勃勃</w>
重商 主义</w>
重 估</w>
里 亚
采 矿</w>
配 额
配 偶</w>
道 而
造 福</w>
通 谕</w>
通 讯
通 勤</w>
递 增</w>
选举 委员会</w>
逆转 。</w>
逃 往</w>
迪 顿</w>
连 任。</w>
进 出口</w>
近 20年</w>
运 往</w>
过度 负债
过 剩
辛 苦</w>
轿 车</w>
轩然大 波</w>
身 影</w>
蹊 径</w>
越南 战争</w>
超 额
起 义
赶 不上</w>
走 低</w>
赫尔 佐
赤 贫</w>
赞 成
资金 流</w>
资 历</w>
费 率</w>
贫困 地区</w>
贫 苦</w>
质 ，</w>
贝尔格莱 德</w>
贝 京</w>
谷 物</w>
谦 逊</w>
谢瓦尔德 纳泽</w>
谢 尔
谋 杀
谈判 员</w>
调 控</w>
诺 伊
该 案</w>
论 ，</w>
议 论</w>
计划 生育</w>
警 力</w>
触目惊 心</w>
角 力</w>
视 。</w>
见 底</w>
见 不
衰 弱</w>
血 压</w>
薪 金</w>
蓝 领</w>
萨 科</w>
萧条 。</w>
营 。</w>
莫 迪
莫 不</w>
草 率</w>
英 文</w>
苏丹 政府</w>
花旗 银行</w>
艾哈 德</w>
艾 肯
良 性
航空 母
至 上</w>
自 营</w>
腐 烂</w>
脚 。</w>
股 息</w>
联邦 制</w>
联合国儿童 基金会</w>
联 网</w>
联 储
而 喻</w>
而 今</w>
老 生</w>
群 结队</w>
美国 证券
美国 共和党</w>
美 方</w>
美 印</w>
缺 陷
编 造</w>
缓 。</w>
维艰 。</w>
维基 解密</w>
维 耶
维 吾
继承 者</w>
结盟 运动</w>
经 理人</w>
纾 困
纽约 州</w>
纽约 —</w>
纳赛 尔</w>
纯 一郎</w>
约翰· 麦凯恩</w>
约翰· 克里</w>
红 衣</w>
累 进
紧 缺</w>
紊 乱</w>
粗 略</w>
米尔 顿·弗里德曼</w>
米尔 顿</w>
管理 机构</w>
签 约</w>
筹 集
策 略
答 应</w>
等 待
等 价</w>
笃 定</w>
立 足
立 大学</w>
突 如其
突如其 来</w>
空 话</w>
空 缺</w>
穆 巴拉克
稀 土</w>
移民 ，</w>
称 职</w>
种 植
私募 股权
禁 运
神经 元</w>
社会 地位</w>
碰 巧</w>
确 诊</w>
研讨 会</w>
眼 镜</w>
看 做</w>
相 识</w>
相 继</w>
相 等</w>
直言不 讳</w>
盗 窃</w>
盖 茨
监督 者</w>
益 处
盈利 性</w>
皮肤 癌</w>
皇 家
百 出</w>
百 人</w>
登 陆</w>
病 ，</w>
疲 惫</w>
留 意</w>
留 存</w>
留 住</w>
电 磁
电 影
用 语</w>
用 品</w>
生产 率
生 气</w>
瓦 尔·
琼 斯
现 身</w>
狭 小</w>
独裁 主义</w>
独 家</w>
爱 戴</w>
烹 饪</w>
烂 额</w>
灵 巧</w>
滋 长</w>
湄 公
清 。</w>
深 信</w>
涉 足</w>
消 弭</w>
海 军
测 定</w>
洪 森</w>
洛 佩斯</w>
泰 勒</w>
法基 斯</w>
法 郎
法 案
沙 皇
沈 阳</w>
水 车</w>
水 稻</w>
水 涨
水 。</w>
民主 党政府</w>
民 进
毫 发</w>
比尔· 盖茨</w>
比 尔</w>
每 隔</w>
武 断</w>
步 ，</w>
此 外
正 逐
歇 斯
欧洲 银行联盟</w>
欢 呼</w>
次世界 大
模 范</w>
棋 手</w>
检 视</w>
格陵 兰
格 尔
栖 身</w>
染 指</w>
枚 举</w>
林 ，</w>
林 肯</w>
构 架</w>
板 块</w>
杯 水车</w>
来 年</w>
杜鲁 门</w>
朴 正
朝 韩</w>
朝 一日</w>
服 饰</w>
有 朝一日</w>
有 幸</w>
月2 2日</w>
最高 峰</w>
最后 一刻</w>
替代 性</w>
曾 几何时</w>
暧 昧</w>
普京 ，</w>
晚 期</w>
易卜拉 欣</w>
易 见</w>
早 前</w>
既 得</w>
无 私</w>
无 数次</w>
无 形</w>
新 能源</w>
新 疆
新 月
新 成员</w>
新 人</w>
斯蒂格利 茨
斯特 恩</w>
斯德 哥
斯宾 塞</w>
料 ，</w>
教 条
教 室</w>
救世 主</w>
救 灾</w>
效 用</w>
故 乡</w>
政府 ，</w>
放 过</w>
收 窄</w>
支 行</w>
撒 克逊</w>
摩尔多 瓦
提 问</w>
提 拔</w>
接 到</w>
捐 赠
挨 饿</w>
挥 霍
挡 住</w>
拿 起</w>
拜 登</w>
招 牌</w>
拘 禁</w>
拉 胡
报复 。</w>
报 告
抛 售</w>
投机 性
执政 党
执 委会</w>
打 折</w>
扑热 息痛</w>
才 华</w>
手 ，</w>
房 者</w>
成功 率</w>
成 熟
成 形</w>
成 不变</w>
憧 憬</w>
愤世 嫉
愚 弄</w>
想 出</w>
惯 用</w>
情 。</w>
恶 行</w>
恰 如其
总 而言</w>
怪 ，</w>
怨 气</w>
性 命</w>
必 需
必 然
心 灵</w>
微 型</w>
形形色 色</w>
当 真</w>
当 权</w>
当 属</w>
异 见
异 端</w>
异 口
建设 性
序 幕</w>
庇护 所</w>
广 为人知</w>
年 青</w>
年 限</w>
年 以前</w>
平 坦</w>
平 和</w>
帽 子</w>
帐 篷</w>
布拉 特</w>
布尔 什
市场 经济
巴厘 岛</w>
巴以 冲突</w>
巴 冲突</w>
巴 克
已 经
工薪 阶层</w>
岁 时</w>
尼古 拉斯·
就 象</w>
尤 先
少 有</w>
小 怪</w>
对 内</w>
寥寥 无
寥 寥</w>
富 足</w>
密 谋</w>
宿 主</w>
容 量</w>
家 常
家 、
害 者</w>
宫 廷</w>
客 人</w>
审 计
审 批</w>
定 量</w>
定 于</w>
宏观 经济学家</w>
完 美
完 整性</w>
安哲 秀</w>
安 娜</w>
学 前
孟 买
存 货</w>
存 活
存 亡</w>
孕 妇</w>
嫌疑 犯</w>
嫌疑 人</w>
姊 妹</w>
妓 女</w>
好 奇</w>
奥斯 本</w>
失 去
太 空
太 子</w>
大萧条 。</w>
大打 折扣</w>
大 选
大 好</w>
外交 官们</w>
外 面</w>
声 势</w>
堆积 如
基础 设施
埃克 森</w>
埃克 森
埃 里克·
垫 底</w>
坏 人</w>
坍 塌</w>
在 职</w>
国内 生产
国 ）</w>
四 分</w>
善 举</w>
唤 起</w>
和平 ，</w>
和平 、</w>
和 法国
吞 没</w>
名 著</w>
同 理</w>
同 侪</w>
合 谋</w>
各 派</w>
台 ，</w>
台 面</w>
可见一 斑
可 支配
可 图
可 再生
只 用</w>
只 得</w>
另一 端</w>
受 助</w>
发电 量</w>
发 掘</w>
双 手</w>
友 好
去年 10月</w>
原教旨 主义
原子 能
历 时</w>
印 钞</w>
印 钞
卡拉 季奇</w>
卡扎 菲
博 格</w>
南 方
协议 。</w>
千 百万</w>
千 年
北京 奥运会</w>
北 冰
劳 伦
动荡 不安</w>
加 一</w>
副 手</w>
前 南</w>
到 时</w>
创新 型</w>
刚果 民主
列 。</w>
刑 法</w>
刊 物</w>
分离 主义</w>
分子 。</w>
分 销</w>
分 明</w>
分 摊</w>
出口 额</w>
出 错</w>
冷 淡</w>
冷 战
冰 山
写 作</w>
再 平衡</w>
再 三</w>
内 部
关 。</w>
共 和</w>
公 决
全 年</w>
入 歧途</w>
党 （P
光 灯</w>
僚 们</w>
傀 儡</w>
停 地</w>
倾 销</w>
债 主</w>
倒 下</w>
信仰 者</w>
信 托
信 念
保 持
侧 面</w>
供 需</w>
供 奉</w>
例如 ，</w>
佐 维耶
低 谷</w>
低 水平</w>
低 。</w>
估 量</w>
伯 特</w>
众 议院
伊斯兰 政府</w>
伊丽莎 白
任 性</w>
价值 观
仲 裁</w>
代 理
仓 促</w>
什 图
人民 ，</w>
亲 朋</w>
产业 界</w>
交易 量</w>
交易 者</w>
交易 ”</w>
互 补</w>
互 补
互 惠</w>
二十世纪 八十年代</w>
二十 五年</w>
争 论
了 然</w>
也 门
乔治· 奥
乏 味</w>
主 宰
临 界</w>
中 非
严 惩</w>
两 部</w>
东亚 地区</w>
东 风</w>
业 务
世界 末日</w>
世 袭</w>
专 用</w>
专 员</w>
不言 而喻</w>
不相 上
不相上 下</w>
不 出</w>
不 决</w>
不 停地</w>
不 便</w>
上升 ，</w>
上 行</w>
三 年后</w>
万 计</w>
万 能</w>
一年 一度</w>
一 成不变</w>
。据 估计，</w>
。 非</w>
。 美
。 利比亚</w>
。 S
…… ”</w>
”（ E
”、 “
“ 自由
· 辛格</w>
w ar
ven tion</w>
usta in
ul t
tr e</w>
tin g</w>
ti ve</w>
ti on）</w>
th or
re p
per ation</w>
p on
ov e
or y</w>
on ia</w>
om b
olu tion
olf gan
olfgan g</w>
ol ck
ne y）</w>
l o</w>
jec t</w>
in anc
i an</w>
h al
h ab
g overn
ff ice</w>
er r
er a</w>
ent e</w>
ell ）</w>
el le</w>
e ac
d g
c o</w>
b ra
b e
ation s</w>
as t</w>
am ）</w>
am i</w>
ad o</w>
ad a</w>
ac i
W T
T I
Summer s）</w>
Stigl it
S W
Rog off
Q E
P en）</w>
P an
P A
O PEC</w>
M F
Lug ov
LGB T</w>
L H
I A
HI V
G u
FD I
F ound
D V
D S</w>
Con s
B r
B M
B C</w>
Ag ree
90 亿美元</w>
60 岁</w>
6 3
6 0年前</w>
50 周年</w>
5 1%</w>
5 000亿美元</w>
4 7%</w>
4 5</w>
30 亿</w>
3. 2%</w>
3 年以来</w>
3 6%</w>
3 2%</w>
25 0</w>
20世纪 初</w>
201 6
201 3</w>
2008 年后</w>
2007 年以来</w>
20 年间</w>
2. 4%</w>
2. 3%</w>
2 名</w>
199 8
199 0年以来</w>
197 1年
196 5年</w>
194 5年后</w>
190 7年</w>
19 日</w>
18 4
15 00
11 个</w>
1. 5
1 月份</w>
0. 4%</w>
，两 者</w>
， 除</w>
， 银行</w>
， 莫迪</w>
， 法国</w>
， 拜</w>
， 声称</w>
， 哈
， 发展</w>
， 卡
， 北</w>
， 克林顿</w>
（U S</w>
（N P
（F D
（E FS
齐 心</w>
齐 头
齐头 并进</w>
默 默
鸽 派</w>
驱 赶</w>
马杜 罗</w>
马尼 拉</w>
马利 基
马 其
马 佐维耶
香港 政府</w>
首 轮</w>
餐 桌</w>
飞 涨</w>
风险 评估</w>
风险 性</w>
风险 。</w>
预 言
顺理 成
顺理成 章</w>
顺 应</w>
顶 点</w>
面 ，</w>
面 子</w>
非 民主
非 军事</w>
零和 博弈
难 点</w>
难 忘</w>
隶 属于</w>
隐 性
除 掉</w>
限 。</w>
降 价</w>
陆克 文</w>
阿根廷 政府</w>
阿尔巴 尼亚</w>
阿亚图 拉</w>
阶 级
防空 识别区</w>
问 题
问 问</w>
门 户</w>
长 者</w>
铺 平</w>
金 色
金 字
量化宽松 （QE
重 道
重 合</w>
配 备</w>
道德 观</w>
通胀 ——</w>
途 中</w>
逆转 ，</w>
迷 人</w>
迫在眉 睫
迥然 不同</w>
连 任，</w>
远 地区</w>
进 取</w>
这 支</w>
近 似</w>
近 些年</w>
近 二十年</w>
运 河</w>
边 远</w>
辟 蹊径</w>
较 多</w>
轻 型</w>
软 性</w>
转 机</w>
转 播</w>
转 入</w>
蹶 不振</w>
路易 斯
跨 过</w>
距 今</w>
足轻 重。</w>
足 额</w>
趋 之
趋之 若
起 效</w>
起 平
起平 坐</w>
赶 走</w>
走 越
赫尔佐 格</w>
贾 帕
贾帕 克
贾帕克 萨</w>
贸易 协定</w>
贯 性</w>
贫困 线</w>
贫 富</w>
质 问</w>
负 。</w>
谷 底</w>
谈 起</w>
课 题</w>
课 堂</w>
说 不
语 ，</w>
该 市</w>
议 席</w>
让 ·
订 单</w>
计划 。</w>
计 时</w>
警 卫队</w>
言 巧
要 害</w>
西雅 图</w>
西 奥
西 亚
裙 带
虚 张
虚 幻</w>
蒙特 利
蒙 羞</w>
落 败</w>
落 下</w>
萨缪尔 逊</w>
萨 尼</w>
获 知</w>
莫 测</w>
莫 汉
荣 耀</w>
范 龙
英国 独立
英 勇</w>
苗 头</w>
芯 片</w>
节 性</w>
自欺 欺
自杀 性</w>
自 诩</w>
自 生
自生 自
自 卫
脑 袋</w>
脑 海</w>
脑 后</w>
能 力
胡 萝
背 道而
肯 尼亚
肇 事者</w>
联盟 ，</w>
联合国 环境
联合国 政府</w>
老 练</w>
翻 版</w>
翻 倍</w>
美国 大使馆</w>
美 妙</w>
美 利
罪 于</w>
罗 默</w>
网 民</w>
编 制</w>
绵 状</w>
绩 效</w>
给 与</w>
结构性改革 。</w>
经营 者</w>
终 极
终 。</w>
纽 波特
纽 带</w>
纳德· 凯恩斯</w>
纳 尔
纪录 片</w>
累 进</w>
米 利
管 局</w>
算 法</w>
简 称</w>
筹 款</w>
策略 性</w>
策 划
笼 子</w>
第二 条</w>
第一 手</w>
第一 年</w>
第 八
第 九
童 年</w>
童 工</w>
站 稳</w>
立 宪</w>
突发 事件</w>
空 想</w>
稻 草</w>
税 款</w>
稀 松</w>
称 道</w>
科 尔</w>
种族 歧视</w>
种族 主义
福岛 核电站</w>
福 尔</w>
禁 锢</w>
票 率</w>
矿 业</w>
石 化</w>
短 信</w>
睿 智</w>
相 差
直 播</w>
盯 着</w>
目光短 浅</w>
监 会</w>
皮诺切 特</w>
皮亚 斯
病 原
病原 体</w>
疲 力
略 显</w>
电力 公司</w>
电 价</w>
甲 烷</w>
生物 学家</w>
甚嚣尘 上</w>
甘 地
理查德· 尼克松</w>
理 顺</w>
珊瑚 礁</w>
玩 弄</w>
玛 格
独立 战争</w>
狗 狗</w>
狐 疑</w>
状 态
特 种
特 律</w>
爆 出</w>
熊彼 特</w>
照 不
热 钱</w>
热 带
烈 。</w>
点 火</w>
炸 毁</w>
漩 涡</w>
滑 稽</w>
游 刃
渡 边
清算 所</w>
涨 价</w>
涅 姆
涅姆 佐夫</w>
海湾 合作
海洋 法
海 ，</w>
海 绵状</w>
海 报</w>
活 生生</w>
活 下去</w>
洪都 拉斯</w>
洞 察</w>
泛 滥
法国 银行</w>
法 耶
法 拉
法 塔</w>
沙 ，</w>
沙 里夫</w>
沉 闷</w>
沉 没</w>
水涨 船
水 量</w>
水 资源
水 坝</w>
民 选
民 营企业</w>
比 。</w>
每 吨</w>
殖民 者</w>
正逐 步</w>
欧亚 联盟</w>
欣 欣
欣欣 向
欣 喜</w>
梁 振
根深蒂固 ，</w>
核 弹头</w>
柯 比</w>
枷 锁</w>
枯竭 。</w>
板 上
条 件
权宜 之
权 贵
权 衡。</w>
杂 交</w>
本地 人</w>
本· 伯南克</w>
本 年度</w>
未雨 绸
朔 迷
有 意思</w>
有 悖
月2 3日</w>
最后 期限</w>
更 灵活</w>
智 库
普林斯顿 ——</w>
普 查</w>
显而易见 ，</w>
显 眼</w>
早 。</w>
日俱 增</w>
日 ，</w>
既 非</w>
无意 中</w>
无家 可
无 形
施 政</w>
新陈 代谢</w>
新 颖</w>
新 旧</w>
新 意</w>
斯蒂格利 茨</w>
斯特 劳
斯德哥 尔
斯亚贝 巴</w>
斯 克
斗争 ，</w>
文 艺
文 ·
散 。</w>
政治 学</w>
政府间 气候变化
政府 债券
政 见</w>
放 出</w>
攻击 性</w>
改 变
收 场</w>
摩根 士
摩根士 丹
摊 牌</w>
援 救</w>
插 曲</w>
提供 商</w>
推 算</w>
接 受
排 量</w>
据 点</w>
挑 衅
按 时</w>
指 标
持 平</w>
拘 捕</w>
拘 押</w>
拉 合
报 章</w>
抢 劫</w>
折 不
抗 体</w>
投资 额</w>
投机 性</w>
把 握
批评 者们</w>
扩张 性
执行 委员会</w>
托 克
打 倒</w>
扑 朔迷
手 。</w>
所 想</w>
截 止
战略 家</w>
战术 性</w>
战 壕</w>
我的 祖国</w>
成 群结队</w>
慷 慨
慎 重</w>
愤 怒
意 向</w>
愈 烈，</w>
惰 性</w>
惊 ，</w>
情 ，</w>
恰如其 分</w>
性 ”。</w>
急 性
德尔· 卡斯特罗</w>
德 ，</w>
德 米特里·
得 益</w>
征 求</w>
往 日</w>
当 众</w>
归 来</w>
强 人
弗 洛
引 力
异口 同声</w>
开 除</w>
延 后</w>
废 料</w>
广 义
幻想 ，</w>
并发 症</w>
平 滑</w>
平 壤</w>
布 里斯
巴尔干 半岛</w>
巴塞尔 II
巴 拿
已经 完成</w>
工人 阶级</w>
工业 园区</w>
就 位</w>
尤先 科</w>
尘 埃</w>
小泉 纯一郎</w>
小心 谨慎</w>
小 麦</w>
小 丑</w>
小 、</w>
导火 索</w>
害 性</w>
实 权</w>
宗派 主义</w>
安格 拉·默克尔</w>
安哥 拉</w>
安 静</w>
安 慰
学 费</w>
婚 礼</w>
威 吓</w>
姓 名</w>
好 日子</w>
好 感</w>
好 几年</w>
奥 利
奖 者</w>
奇 特</w>
头 衔</w>
失 衡。</w>
失 望，</w>
失 望。</w>
太平洋 地区</w>
太子 党</w>
天 鹅</w>
天 。</w>
大西洋 联盟</w>
大本 营</w>
大 米</w>
大 桥</w>
大 旗</w>
大 失所
大 吃一
大 利</w>
大 举</w>
夜 间</w>
多米诺 骨
多 长时间</w>
多 一点</w>
外国 银行</w>
外 贸</w>
外 科</w>
处方 药</w>
境 遇</w>
堆积如 山</w>
基 辅
培 尼亚·涅托</w>
坦 诚</w>
坠 毁</w>
地 质</w>
地 质
圣 经
圣 保罗
土耳其 政府</w>
国家 党</w>
国家 主义</w>
因 子</w>
回 响</w>
囊 括</w>
囊 中</w>
商 议</w>
售 出</w>
哮 喘</w>
哪 位</w>
哪 一个</w>
哥斯达黎 加</w>
哈 拉
哈 德</w>
吻 合</w>
吸 收
启 蒙</w>
听 证</w>
吧 ，</w>
否决 权</w>
后 悔</w>
后 备</w>
名列 前
同 。</w>
合作 性</w>
合伙 人</w>
右 倾</w>
可见一斑 。</w>
召 唤</w>
另一 些人</w>
古拉 格</w>
古典 主义</w>
叛 乱
变 更</w>
变 幻
受 贿</w>
受 危机</w>
发 端</w>
反对 党</w>
反 转</w>
反 射</w>
原则 ，</w>
卵 子</w>
印 刷
卡路 里</w>
占 主导</w>
博士 学位</w>
南 非洲</w>
华 人</w>
午 夜</w>
十二 五
十 五年</w>
医 治</w>
匪 浅
化石燃料 ，</w>
动荡 。</w>
加拿 大
加勒 比</w>
加 速
功 劳</w>
前 不久</w>
刹 车</w>
制 裁
别 墅</w>
利他 主义</w>
利 性</w>
利 己
判 断力</w>
创 立
划 归</w>
分支 机构</w>
分 。</w>
击 毙</w>
出 名</w>
出 产</w>
凭 什么</w>
几十 个</w>
几 千年</w>
几 。</w>
冷 却</w>
冲 天</w>
冰山 一
农 药</w>
农 田</w>
写 到</w>
内 讧</w>
内 向</w>
养老 金
兹 事
其 间</w>
关键 所在</w>
关联 。</w>
关 爱</w>
六 倍</w>
公正 性</w>
八 十年代
八 个月</w>
全国 人民
全 额</w>
全 力
免 职</w>
克 尔
先 天</w>
僵 持</w>
偿付 。</w>
停 电</w>
倡 议
倍 受</w>
俾斯 麦</w>
信 件</w>
促 进
便 捷</w>
依 托</w>
余 波</w>
体制 改革</w>
伊 德</w>
任 重道
以色列 国</w>
从 头</w>
今年 6月</w>
人民 民主党</w>
人 皆知</w>
人 与
人 ”</w>
亲 美</w>
亲 王</w>
亲 人</w>
亮 点</w>
交易 委员会</w>
交 付</w>
亡 ，</w>
五 名</w>
二十世纪 初</w>
二十 多年</w>
事 事</w>
乐 趣</w>
乍 得</w>
乌 斯</w>
之不 易</w>
之 年</w>
举 足轻重</w>
主 办
中 年</w>
中 小</w>
个人 主义</w>
个 案</w>
两 百万</w>
两 极</w>
两 届</w>
两 分</w>
两 件事</w>
东帝 汶</w>
世卫 组织</w>
不确定 性，</w>
不安 ，</w>
不同 地区</w>
不可 挡</w>
不久 后</w>
不 闻</w>
不 起眼</w>
不 符</w>
下 ，</w>
上 证
三 支</w>
万 吨</w>
七 月</w>
七 国集团</w>
七 十年</w>
一败 涂</w>
一 蹶不振</w>
一 群
一 眼</w>
一 目
一 现</w>
一 毛
一 架</w>
一 堂</w>
一 地</w>
一 侧</w>
。结果 ，</w>
。 意</w>
。 平心</w>
。 奥巴马政府</w>
” ），</w>
“ 老
“ 安全
—— 比方说</w>
· 沃伦</w>
usines s</w>
us ）</w>
un a</w>
ul lah</w>
u ）</w>
u ro
u ch
t ）
s ），</w>
s on
s ch
re d
re cherch
ou t</w>
or g</w>
onal d</w>
ment al</w>
m ）</w>
m s</w>
m e
lex and
l es
in t</w>
ie v</w>
ic al</w>
i p
i on</w>
g el
f o</w>
enc e）</w>
e w
e urop
d w
ber g</w>
au de</w>
ar k
ar ine</w>
an k</w>
adj iev</w>
You Tub
T F
S erv
R ig
Part y
PN V</w>
P ARP
Mech anism
Mar k
M od
M ir
M a
Lugov oi</w>
LH C</w>
L a</w>
IP L</w>
IC SI
IC C
IB M</w>
Gro up
GDP 之
F OMC</w>
ES M
E FS
Comm itte
B l
A nd
9 9
8. 5%</w>
70 亿</w>
7 6
6 万亿美元</w>
6 3%</w>
5. 6%</w>
5 7%</w>
4 月份</w>
4 倍</w>
4 2
3. 7%</w>
3 %。</w>
20世纪9 0年代中期</w>
2010年 5月</w>
2008 ~
20 日</w>
2. 7
2 7</w>
2 50
199 0</w>
199 0
197 7年</w>
196 7年
196 3年</w>
193 7年</w>
19 19年</w>
18 日</w>
10 美元</w>
10 亿
1. 3%</w>
1 万亿欧元</w>
1 3年</w>
0. 2</w>
&#160 ;</w>
， 鲁哈尼</w>
， 金融
， 联邦政府</w>
， 欧洲
， 布莱尔</w>
， 将
， 否则
， 占</w>
， 力</w>
， 公司</w>
， 克鲁格曼</w>
， G
（W olfgang</w>
（S h
（P eter</w>
（NP T）</w>
（G eorge</w>
（C armen</w>
（A r
（A merican</w>
（ 如
！ ）</w>
默 罕默
默 拉</w>
黎巴嫩 政府</w>
黎 明
黄金 时代</w>
麦 卡
鸦 片
鸟 类</w>
高等 教育
高 龄</w>
高 低</w>
骗 子</w>
马里奥· 德拉吉</w>
马其 顿</w>
马佐维耶 茨基</w>
马 约</w>
马 琳·
马 。</w>
食 其
飞 往</w>
风 雨
题 为</w>
频 频</w>
顾 名
顾名 思
韩 国
韦 伯</w>
非洲 地区</w>
非同 寻常</w>
非 理性
非 。</w>
霍尔 丹</w>
霍 华
雷 乌斯</w>
雏 形</w>
集权 主义</w>
集 群</w>
雄心壮 志</w>
阿赫蒂 萨里</w>
阿布 扎
阿富汗 战争</w>
阿 波罗</w>
阵 线
销 量</w>
销 商</w>
金 日
金 斯
量化宽松 ，</w>
量化宽松 政策</w>
量 身</w>
野 田
重 燃</w>
重 归</w>
重 写</w>
里约热内 卢</w>
采 伐</w>
醒 来</w>
酒 吧</w>
部 队
那 天</w>
那 个人</w>
道 扬
道扬 镳</w>
遏 止</w>
通 力</w>
递 减</w>
逍遥法 外
逊 色</w>
逊 尼</w>
选举 权</w>
选 为</w>
逃 过</w>
退休 人员</w>
追 赶</w>
迷 你</w>
迪 克·
迥 异</w>
远 未可知</w>
这样 的人</w>
近 距离</w>
过渡 性</w>
过 错</w>
过 境</w>
边 沁</w>
辱 感</w>
辞 令</w>
输 油</w>
身 材</w>
身 患</w>
蹩 脚</w>
踪 迹</w>
踌躇 满
路 障</w>
跌 入</w>
超级大 国，</w>
超 前</w>
赶 紧</w>
赫尔 穆
赫尔穆 特·
赌 徒</w>
赋 权</w>
资金 源</w>
贾 迈
贸易 平衡</w>
贸易 壁垒
贸易 。</w>
贸易 、
贴 现</w>
贱 民</w>
质 询</w>
货币政策 。</w>
败 坏</w>
负债 累累</w>
贝 鲁</w>
贝 南克</w>
调查 局</w>
说 起来</w>
说 不定</w>
诱 发</w>
该 片</w>
该 地</w>
话 语</w>
诛 笔
诉讼 ，</w>
诉讼 。</w>
诉 人</w>
评论 家们</w>
设计 者</w>
议 长</w>
议 制</w>
让 出</w>
计划 署</w>
警 卫</w>
角度看 ，</w>
视 听</w>
规划 者</w>
要 紧</w>
西班牙 银行</w>
西 北</w>
西 北
装 作</w>
袖手旁 观。</w>
表 格</w>
补 。</w>
藐 视</w>
蒂 斯</w>
落 幕</w>
萨卡什维 利</w>
萨 斯</w>
萨 斯
菲 德尔·卡斯特罗</w>
获 奖</w>
莱 恩</w>
莫 斯</w>
英国独立 党</w>
苦 ，</w>
苦 涩</w>
苏格兰 民族
苏 黎
苏 尔
苏 共</w>
花 招</w>
艾滋病 、
色 子</w>
船 长</w>
航空母 舰</w>
航 天</w>
至 多</w>
臭 氧</w>
自给 自足</w>
自生自 灭</w>
自治 区</w>
自 食其
自 作
腾 挪</w>
胜 负</w>
背道而 驰</w>
肯尼斯· 罗格夫</w>
耸 人听闻</w>
耶 稣
耳 熟
耳熟 能
耗 时</w>
老一 辈</w>
老 式</w>
翻 地
美国国际 集团</w>
美 好
美 地区</w>
美 伊</w>
罪 ，</w>
罢 免</w>
罗马 帝国</w>
罗 宾
缩 影</w>
缄 默</w>
维吾 尔
维 生
绝不 可能</w>
经济学 人</w>
细 菌
组 成
约翰·梅 纳德·凯恩斯</w>
繁 琐</w>
紧 要
索 尼
索 尔
筹 划</w>
筹 。</w>
第四 季度</w>
第二 ，</w>
第二 项</w>
第二 代</w>
第一 夫人</w>
空 调</w>
空 中
穆罕默德· 穆尔西</w>
穆斯林兄弟 会
稠 密</w>
税 基
移民 潮</w>
积极 分子</w>
科 技
离 岸
禁 区</w>
社团 主义</w>
社会 秩序</w>
碳 氢</w>
硅 谷
破 除</w>
矿 石</w>
短 命</w>
知 ，</w>
看 得
看 守</w>
相关 。</w>
相 容
相 伴</w>
直接 货币
直 线</w>
盖 洛
盈余 （</w>
盈余 ——</w>
百 计</w>
痴 迷</w>
痢 疾</w>
留 任</w>
电 气
电 动车</w>
申请 者</w>
生物 技术</w>
生存 能力</w>
瑞 行</w>
班加 罗
珍 妮
玩 具</w>
玛 丽
献 金</w>
猜 疑</w>
狂 欢
狂 妄</w>
犯罪 分子</w>
牺牲 者</w>
特别提款权 （SD
物 业</w>
牛 一毛
牙 还
爱 好
爱 丽
然 ，</w>
焕 然
烟 民</w>
灵活 度</w>
火 如
演 绎</w>
渗 入</w>
渔 场</w>
渐进 式</w>
混 凝
深 海</w>
深 入
深 信
淡 水</w>
消防 员</w>
消费 主义</w>
海洋 生物</w>
海 盗</w>
海 牙
测 绘</w>
流 通
洛 克
波 利
泛美 开发银行</w>
法耶 兹</w>
沿 袭</w>
沃尔 特·
污染 物</w>
求 是</w>
永久 化</w>
水 污染</w>
民进 党</w>
民 生</w>
毫无 必要</w>
毒 气</w>
毒 品
每 一步</w>
每 一天</w>
死 者</w>
此 时
此时 此刻</w>
正 视</w>
歌 曲</w>
欺 骗
欧洲 人民党</w>
欧洲 ”</w>
欣欣向 荣</w>
欢 迎
橙 色
橄榄 枝</w>
榜 首</w>
楷 模</w>
梁振 英</w>
桌 上</w>
格格 不入</w>
格 拉
根 据
核 试验
核 实</w>
标 语</w>
果 ，</w>
极 快</w>
板 球
松 弛</w>
来 之不易</w>
条约 。</w>
权威 性</w>
权 ”</w>
杀 灭</w>
朴正 熙</w>
本 世纪
期望 值</w>
期 徒刑</w>
望 而
有效 市场
有悖 于</w>
有 限度</w>
有 影响</w>
曼努 埃尔·
更 可靠</w>
暴 行，</w>
普 及
晚 ，</w>
晚 餐</w>
晚 。</w>
明 文</w>
时 限</w>
时 性
日本 民主党</w>
日 前</w>
无限 量</w>
无可 厚
无 聊</w>
无 期</w>
无 暇</w>
无 损</w>
无 处</w>
无 偿</w>
方 程
方 兴未
新兴 经济</w>
新 车</w>
斯里兰 卡
斯坦福 大学</w>
斩 首</w>
文 ，</w>
文 森</w>
整 治</w>
数以 万计</w>
敬 而
敬 仰</w>
救 赎</w>
政 教</w>
政 变，</w>
政 。</w>
放 之
改革 家</w>
收 归</w>
支持 度</w>
支 离
支 票</w>
操 之
摩根士丹 利</w>
摩 根</w>
摩 加
摆 上</w>
搁 浅</w>
援助 ，</w>
掩 护</w>
控制 线</w>
接 待</w>
掠 夺
排 列</w>
挑 剔</w>
指 引
拿 出来</w>
拜 访</w>
拉里· 萨默斯</w>
拉 马拉
拉 底</w>
担 。</w>
抽 取</w>
抹 杀</w>
抹 去</w>
抵押 贷款
披 上</w>
折不 扣</w>
折 衷</w>
抗 药
投 入
承 销</w>
承 载</w>
批 发</w>
执政 ，</w>
执 着</w>
扑 灭</w>
扎 卡
所 为
截止 期</w>
戈 德斯
慈善 家</w>
愤世嫉 俗</w>
感染 者</w>
意大利 政府</w>
想 见</w>
恶 名</w>
恪 守</w>
恣 意</w>
恐怖主义 、
总统 们</w>
总 产量</w>
急转直 下</w>
怀疑 者</w>
忘 却</w>
心 知肚
心 思</w>
德克萨 斯</w>
德 克
微 笑</w>
得 罪</w>
得 当</w>
得 不
很 远</w>
很 自然</w>
很 复杂</w>
征 用</w>
彼得 雷乌斯</w>
弹 劾</w>
弱 国</w>
弗里德曼 （M
弗朗 哥</w>
异 教徒</w>
建 国
废 弃</w>
底 部</w>
底 特律</w>
应 急
广 东
幻 象</w>
幸 运
年均 增长率</w>
平 起平坐</w>
平 板</w>
平 时</w>
常任理事 国</w>
帮 忙</w>
帮 凶</w>
帝国 主义
布 坎
币 值</w>
巴沙 尔
巴塞罗 那</w>
巴 尼
巴 尔</w>
巴 塞尔</w>
差 强人
巡 逻
岌岌可危 。</w>
属 性</w>
展 期</w>
屋 顶</w>
尾 部</w>
尼泊 尔
尼克 松
尼 安德
就是 我</w>
小 泽</w>
小 川</w>
封 存</w>
对 阵</w>
富 ，</w>
家庭 部门</w>
家 用</w>
审 慎
审 判
实 施
实 效</w>
实 性</w>
实 地</w>
实 事
实事 求是</w>
定 理</w>
完 全
守 法</w>
守 住</w>
学前 教育</w>
存款 利率</w>
字 母</w>
威 权</w>
威 信</w>
姑 且</w>
如 火如
女 们</w>
奥尔 穆特</w>
奖 赏</w>
奖 。</w>
奔 赴</w>
夺 得</w>
夸 大
头 部</w>
失 策</w>
夭 折</w>
太平洋 合作
太 郎</w>
大马士 革
大经济体 ，</w>
大相径庭 。</w>
大惊 小怪</w>
大宗 商品
大失所 望</w>
大 把</w>
大 家庭</w>
大 宪章</w>
大 增</w>
夥 伴</w>
多米尼 克·
多极 世界</w>
多 条</w>
多 党</w>
多 伦
复 活</w>
增长 。</w>
塞内 加尔</w>
塔 克
塑 料
基金 ，</w>
基础 性</w>
基本 法</w>
基 尔
培 植</w>
坐 落</w>
地 上</w>
在 校</w>
在 场</w>
圣 保罗</w>
土崩 瓦
国际 能源
国际 形象</w>
国家 ，
国 界
围 墙</w>
回 暖</w>
回 合
四 月份</w>
喜 好</w>
喀 布尔</w>
哺乳 动物</w>
哈里 发
哈特 （Carmen</w>
哈 罗
咨 文</w>
咒 语</w>
呼 唤</w>
周 小川</w>
告 急</w>
吸 取
吴 登盛</w>
启 蒙
听 说过</w>
向 好</w>
同性恋 者</w>
同 道</w>
同 志</w>
同 僚们</w>
合法 性，</w>
合 规</w>
合 成
史蒂文 斯</w>
史 。</w>
台 词</w>
可 比
可 循</w>
可 变
另 辟蹊径</w>
另 类</w>
另 一次</w>
口 诛笔
口 味</w>
叠 加</w>
受 援</w>
发生 冲突</w>
发 起
发 指</w>
反 共</w>
双 双</w>
参 数</w>
参 半
去年 5月</w>
历 次</w>
印钞 机</w>
卡 罗
占领 者</w>
占领 区</w>
占 用</w>
华盛顿 邮报</w>
千 禧
千 人</w>
十九 世纪初</w>
十 多年前</w>
十 四
北极 圈</w>
北冰 洋</w>
北 大西洋</w>
北 大西洋
勋 爵</w>
勃列日涅 夫</w>
势 不可挡</w>
助 方</w>
力 争</w>
前 身</w>
前 台</w>
刻 板</w>
制药 业</w>
制度 ，</w>
利益 集团</w>
利 雅
利 美</w>
利 害</w>
创造 性
创 始</w>
刑 罚</w>
分 隔</w>
分 道扬镳</w>
击 落</w>
击 。</w>
出租车 司机</w>
出版 物</w>
出 逃</w>
出 柜</w>
出 乎</w>
凡 尔
几 千</w>
几 分</w>
减 去</w>
决 非</w>
冰 箱</w>
农 村
军 舰</w>
再 次
兴 业
关塔那 摩</w>
关 进</w>
共识 。</w>
兰 德</w>
六方 会谈
六 国</w>
六 分之一</w>
公 路
公 决，</w>
八 国</w>
全球 化
全国人民 代表大会</w>
全力 以
全力以 赴</w>
全 身</w>
入 胜</w>
克雅氏 病</w>
光 。</w>
充 实</w>
元 凶</w>
偿付 ，</w>
偏 远地区</w>
信 心
保 健
俄罗斯 帝国</w>
便饭 。</w>
侯赛因 ·
侥 幸</w>
例 行</w>
佩 雷斯</w>
作 证</w>
作 法</w>
余 年</w>
何 在</w>
佐 科
低 速</w>
伯克利 ——</w>
伪 善
伦理 学</w>
伤 及</w>
伟 人</w>
会 否</w>
优 良</w>
优 美</w>
众 。</w>
伊 玛
伊 利
价格 指数</w>
仲 裁
从 小</w>
介 质</w>
今 夏</w>
仇恨 ，</w>
人造 卫星</w>
人权 宣言</w>
人 心，</w>
人 心
人 事</w>
人 、
亚洲 基础设施
五 个月</w>
二氧化碳 ，</w>
二 人</w>
争 夺
书 写</w>
习 以为
九 牛一毛
九 十年代
乘 坐</w>
乌克兰 政府</w>
举例 来讲</w>
举 止</w>
主 因</w>
中间 人</w>
中国 银行</w>
中国 国家
中 风</w>
中 产</w>
两 端</w>
两 件</w>
东 西方</w>
世纪 以来</w>
世界 主义</w>
不知 情</w>
不 觉</w>
不 等</w>
不 疑</w>
不 甘
不 满
不 消</w>
不 正当</w>
不 折不扣</w>
不 发达</w>
下 决心</w>
上涨 。</w>
上升 。</w>
上 级</w>
上 文</w>
上 帝
三 重</w>
三 十年前</w>
万亿 日元</w>
七 月份</w>
七 年前</w>
一群 人</w>
一目 了然</w>
一个 多</w>
一 遍</w>
一 言</w>
一 章</w>
一 期</w>
一 场
一 吨</w>
一 去不返</w>
。 简而言</w>
。 查</w>
。 政客</w>
” ，“</w>
” 式</w>
” ——
“ 过度
“ 直接货币
y n</w>
x ）</w>
w ar</w>
v al
uc le
ubli c</w>
ter n
t s</w>
t i</w>
t -
s p
s ,</w>
re c
r í
r ag
pl us</w>
p ar</w>
ov er
openhag en</w>
m a</w>
l’ U
li n</w>
illi am</w>
il d
igh t</w>
gan iz
g ram
europ é
er s）</w>
er c
ed ）</w>
econ om
e ，
e z</w>
e y</w>
e i</w>
d é
d -
au g
ati ve</w>
ati c</w>
as i
anc e）</w>
an s
am a）</w>
all y</w>
ac ques</w>
ac il
a i</w>
W ar
V olck
Trad e</w>
T reat
Sum m
St re
SD R
S u
S p
S oci
S ha
S e
S al
Q u
Pol onia</w>
Partnershi p</w>
Pan el</w>
P ow
P C</w>
O 们</w>
M ac
M L
L ib
L O
J ustic
Grow th</w>
GDP ，</w>
GDP 。</w>
En erg
D efense</w>
D R
Commissi on</w>
Cl aude</w>
CP I</w>
C ，</w>
C our
C al
C B</w>
BRCA 2</w>
BI S</w>
B ）</w>
B BC</w>
Ac t）</w>
AI G</w>
8 亿美元</w>
7 0年前</w>
60 美元</w>
6 月份</w>
6 7%</w>
500 指数</w>
5 年内</w>
5 3%</w>
5 1
40 美元</w>
4 6%</w>
4 2%</w>
4 0年代</w>
3 50
3 3%</w>
3 1%</w>
25 00
21 个</w>
20世纪8 0年代初</w>
2015年 底</w>
2011年 间</w>
2009 年间</w>
200 亿欧元</w>
20 亿</w>
20 3
2 美元</w>
2 4年</w>
198 0</w>
195 3年</w>
194 5年以来</w>
193 9年</w>
17 世纪</w>
14 .
13 个</w>
12 月份</w>
12 亿</w>
11 .
10 日</w>
1. 7
1. 6
1. 4
1 20%</w>
1 0年内</w>
0. 6%</w>
： 即</w>
，比 方</w>
， 许多
， 穆尔西</w>
， 政客们</w>
， 古
， 冷战</w>
， 假</w>
） ：</w>
（N A
（M it
（L e
（C P
（ V</w>
（ I</w>
黑 天鹅</w>
麦当 劳</w>
麦克 纳
鸠 山</w>
鳕 鱼</w>
鲜 血</w>
鱼 群</w>
魏 玛
高 温</w>
高 望
高 明</w>
高 失业
高 举</w>
驱 逐
马里奥· 蒙蒂</w>
马来 人</w>
马德里 —</w>
马 耳
马 科
马 格里
马 六
首尔 ——</w>
首 付</w>
饮 水</w>
飞 猛进</w>
风雨 飘
风 顺</w>
风 点火</w>
风 波</w>
颠 倒</w>
颗 粒</w>
颗 粒
颗粒 物</w>
领 教</w>
领 悟</w>
领 头
领 事
预 估</w>
面 。</w>
非 金融
非 盟</w>
非 政府
非 国家
非 关税
霍华 德</w>
需求 量</w>
雷曼兄弟 公司</w>
零 部件</w>
零 时</w>
零 利率
雨 果
雨果 ·
雄 辩</w>
雀 跃
难以 承受</w>
难 。</w>
院 长</w>
限 制性</w>
限 制
降 水</w>
陈 腐</w>
陆 上</w>
附 件</w>
阿拉伯 邻国</w>
阿拉伯 半岛</w>
阿布 格莱
阿卜杜 勒</w>
阿亚图 拉
阿 以
阴 谋
间 歇
问 卷</w>
问 世</w>
长 长</w>
长 征</w>
长 国</w>
长 、</w>
销售 额</w>
金融 市场
金 矿</w>
量 子
野田 佳
野田佳 彦</w>
重 金</w>
重 量级</w>
重 要
里 尼</w>
里 奥</w>
避风 港
遗 漏</w>
通货 紧缩。</w>
通胀 、</w>
通 俗</w>
选 拔</w>
追随 者们</w>
迪 南
迪 ·
迟 疑</w>
迟 到</w>
连 贯性</w>
连 海</w>
远 东</w>
迈 阿
过度 负债</w>
过去 四十年</w>
过去 十年间</w>
达沃 斯
达尔 福尔</w>
辽 阔</w>
边境 线</w>
辩 称</w>
辜 负</w>
辙 。</w>
输 血</w>
载 入</w>
轰 然</w>
轰 炸
软 件
轮 廓</w>
转基因 食品</w>
身 受</w>
身 。</w>
踪 影</w>
跃 升</w>
足球 场</w>
足 球队</w>
趋之若 鹜</w>
超级 明星</w>
超级 巨星</w>
超 然</w>
赶 到</w>
赵 连海</w>
赵 紫
赵紫 阳</w>
赞 叹</w>
赛 义
赎 回</w>
资本 金</w>
资产 ，</w>
贫 乏</w>
质 疑
货币 战争</w>
货币 主义</w>
财政 紧缩
财 经</w>
谬 论</w>
谈 。</w>
诺贝 尔</w>
误 入歧途</w>
诊 疗</w>
评论 者</w>
记 忆
议 性</w>
计 数</w>
角 逐</w>
视 觉</w>
视 线</w>
覆盖 面</w>
要 强</w>
西班牙 政府</w>
西 巴尔干地区</w>
襟 见
裂 变</w>
袭 ，</w>
衰 减</w>
补贴 ，</w>
衣 钵</w>
血 管</w>
蜡 烛</w>
蛊 惑</w>
蛊 惑
虚 拟
蒙 羞
董 建
董建 华</w>
萨赫 勒
萨缪 尔森</w>
萨尔 柯
萨尔柯 齐</w>
萨 克斯</w>
萨 克
萦 绕</w>
菲律宾 人</w>
获 选</w>
获 胜者</w>
莫汉 ·辛格</w>
莫 雷
莫 ·
莎 士
莎士 比亚</w>
范龙 佩</w>
范 。</w>
苦 心</w>
若干 年</w>
苏 菲</w>
节 约
致 癌</w>
致 癌
自由贸易 协定，</w>
自由 党</w>
自 救</w>
自 拔</w>
自 信。</w>
脾 气</w>
脚 ，</w>
脑 子</w>
能源 公司</w>
胡 德·
胡 作
胜 地</w>
胜 。</w>
肺结 核
育 儿</w>
肥 胖
股东 们</w>
聪 明
聚 居</w>
聘 请</w>
联邦基金 利率</w>
联邦储备 委员会</w>
联邦 存款
联合国 维
联合国 安理会
联合 体</w>
联储 银行</w>
联 储</w>
耳熟能 详</w>
耕 种</w>
而 皆
而皆 准</w>
而 战</w>
而 成</w>
者 ”</w>
老 鼠</w>
老 旧</w>
美 式</w>
美 化</w>
罪 过</w>
罗姆 尼
编 写</w>
绿 皮书</w>
维克 托·
维 基</w>
统计 学</w>
绝 。</w>
经济学 界</w>
经济 ，</w>
组织 。</w>
线 ”</w>
纺织 业</w>
纳斯鲁 拉</w>
纳 吉
纳 伊夫</w>
繁荣 ，</w>
紧迫 感</w>
索 取</w>
系统 性
精 通</w>
粮 农
粉 丝</w>
米 特·
米特· 罗姆尼</w>
米 切
管 制，</w>
筹 备</w>
等待 着</w>
第一 条</w>
第一 家</w>
第一 份</w>
第 2
笑 容</w>
竞争 力
竞争 。</w>
竖 起</w>
立法 机构</w>
突 飞猛进</w>
穿 着</w>
穆斯林 ，</w>
穆 勒</w>
积 蓄</w>
科巴 拉加德</w>
科 特
福 山</w>
神经 科学</w>
祝 福</w>
祖 父</w>
社会 生活</w>
社会 党</w>
示 弱</w>
碳 化</w>
确 定性</w>
破 旧</w>
破 天
研究 者们</w>
石油 危机</w>
短 处</w>
矫 正</w>
知识 产
瞬 间</w>
睦 邻</w>
着 眼</w>
真 ，</w>
看得 见</w>
相信 自己</w>
盲 点</w>
盖洛 普</w>
监 禁
皮亚斯 十二
皮亚斯十二 世</w>
皮 肤</w>
皈 依</w>
百上 千万</w>
白 领</w>
白 芝
症 ，</w>
疲软 ，</w>
疮 百
留 学生</w>
畅 销
电 话
电 器</w>
申 根</w>
生活 水准</w>
生 畏</w>
甘 愿</w>
瓦 齐
理 发
现 货</w>
环 球
玫 瑰
玛 沙尔</w>
王 储</w>
独 力</w>
狡 猾</w>
状 况
犯罪 率</w>
犯 错</w>
犬 类</w>
特别提款权（SD R）</w>
特 赦</w>
特 许
特 立
牵 线</w>
物 力</w>
物 。</w>
牢 狱</w>
片 面</w>
片 段</w>
父 母亲</w>
爱德华 ·
爱尔兰 政府</w>
燎 原</w>
煽 风点火</w>
煽 动者</w>
照 旧</w>
烟 雾</w>
炼 油
点 头</w>
炸 药</w>
炸 弹
激 愤</w>
漏 油</w>
溃 败</w>
湄公 河</w>
渎 职</w>
清 ，</w>
混凝 土</w>
深 恶
深恶 痛
深 思</w>
深 切</w>
液 化
海 路</w>
海 而皆准</w>
海 地
浮 动
流行 病学</w>
洛 尔</w>
泰 党</w>
法 国，</w>
沙 。</w>
求 者</w>
水平 。</w>
水 利</w>
水 、</w>
氧 化</w>
民 事
比 比
残 疾
武 之地</w>
欧 地区</w>
次 序</w>
横 向</w>
模 拟</w>
棕 榈
棉 花</w>
梅 特
框 架
格 格</w>
查 看</w>
染 色
林 书
林书 豪</w>
极 地</w>
来 袭</w>
杜 赫</w>
权威 。</w>
本 雅
本 月初</w>
本 尼
本 世纪初</w>
朝鲜 战争</w>
有 前途</w>
月2 4日</w>
最后 时刻</w>
最 伟大</w>
曾 相识</w>
更 广大</w>
更 准确</w>
景 。</w>
普京 。</w>
明白 无误</w>
明 证</w>
早 餐</w>
早 晚</w>
旧金 山
日本 自卫队</w>
日 战争</w>
无辜 者</w>
无神 论者</w>
无法 无
无法 忍受</w>
无家可 归</w>
无动 于
无动于 衷</w>
无 线</w>
无 核化</w>
无 意识</w>
方 向
新德里 —</w>
新 高。</w>
新 开发银行</w>
新 奇</w>
新 世纪</w>
新 “</w>
斯蒂格利茨 （Joseph</w>
斯特 拉斯
数以 百计</w>
数 不胜
数不胜 数</w>
散 发</w>
教 皇
救 治</w>
敌 方</w>
政府 。</w>
政 要
政 权，</w>
放之 四
放之四 海而皆准</w>
放 款</w>
攻击 ，</w>
攻 讦</w>
改革 ，</w>
操之 过
撕 毁</w>
摩 天
推 动者</w>
控 诉</w>
排 出</w>
掏 钱</w>
捐赠 者</w>
捐 助方</w>
捉 襟见
挪 用</w>
挑战 ，</w>
拿破 仑
拯救 地球</w>
抵押 品
抵抗 力</w>
抱 歉</w>
报 价</w>
折磨 。</w>
折 旧</w>
投票 站</w>
投入 品</w>
投 放</w>
扶 助</w>
扬 言</w>
扫 除</w>
扫 描</w>
扣 押</w>
托 管</w>
打 的</w>
扑朔迷 离</w>
才 华
所未 有</w>
戴 蒙</w>
战 乱</w>
成 瘾</w>
成 文</w>
成 型</w>
成 品</w>
成 倍</w>
戈德斯 通</w>
意 孤
意 外，</w>
惨 淡</w>
惊 慌</w>
悲观 者</w>
悬 殊</w>
悉 尼</w>
恶 魔
总 值
怨 声
思 明</w>
必然 结果</w>
德 高望
微 软
得不 偿
得 票率</w>
得 势</w>
彼得 ·
彼 得</w>
当 事
归 类</w>
归 。</w>
强 者</w>
强 硬
强 壮</w>
张 扬</w>
弗里德曼（M ilton</w>
式 化</w>
弄 清</w>
异 见者</w>
异 化</w>
开 车</w>
开 诚
开 花</w>
开 动</w>
应 能</w>
广告 商</w>
幽 默</w>
幸灾乐 祸</w>
并 驾</w>
年 薪</w>
常 ，</w>
常 有</w>
席 会议</w>
带 薪</w>
帆 风顺</w>
布坎 南</w>
布 罗
巴黎 联合国</w>
巴拿 马</w>
巴塞罗 那
巴勒斯坦 政府</w>
巴 方</w>
巴 巴</w>
巴 军</w>
巴 伐
已 逾</w>
巨 变。</w>
工 艺</w>
崇拜 者</w>
崇 尚</w>
峰会 ，</w>
层出不 穷</w>
尽 人皆知</w>
尼古 拉</w>
就 使</w>
尔德 斯坦</w>
尔 州</w>
少 ，</w>
小 报</w>
小 布什政府</w>
射 杀</w>
对话 者</w>
对称 性</w>
富 国
宾 夕
宾夕 法
容 忍
家庭 生活</w>
宪法 条约</w>
宪 政
实 。</w>
定 律
官僚 机构</w>
完美 无
完 工</w>
宋 思明</w>
安倍 政府</w>
安 ，</w>
安 瓦尔·
安 乐
安乐 死</w>
宇航 局</w>
宇航 员</w>
孙 子</w>
存款 人</w>
委员会（ Inter
委员会（Inter govern
委员会（Intergovern mental</w>
妈 妈</w>
妄 图</w>
如火如 荼</w>
好 结果</w>
奥斯 维
奥 特
夸大 其
失 序</w>
天 文
天 上</w>
大错特 错。</w>
大萧条 ，</w>
大 踏步</w>
大 肆
大 联盟</w>
大 灾难</w>
大 声
大 危机</w>
大 加</w>
大 佬</w>
大 一</w>
多数 派</w>
多 远</w>
多 花</w>
多 方</w>
多 亿</w>
多 ——</w>
外 线</w>
士 气</w>
墨 索
增 至</w>
境 ，</w>
填 写</w>
塔 伊
堵 塞</w>
堂 皇</w>
城 镇
坟 墓</w>
坚 不可
坎 昆</w>
坎 帕
均 匀</w>
场 面</w>
场 地</w>
场 上</w>
地方 性</w>
地 雷</w>
地 狱</w>
地 步</w>
地 处</w>
地 主</w>
在 家</w>
圣诞 老人</w>
圣 诞</w>
圈 套</w>
国际能源 署</w>
国民 银行</w>
国家 集团</w>
国家 ——</w>
国债 。</w>
国 父</w>
国 境</w>
国 力</w>
固 化</w>
回 流</w>
器 官
喜 剧</w>
喀 麦
啤 酒</w>
唐 吉
哥本哈根 共识
哥伦比亚 大学</w>
哈马斯 ，</w>
哈梅内 依</w>
哈 维尔</w>
咖 啡
命 。</w>
周 旋</w>
告 终</w>
启 示
吝 啬</w>
君 子</w>
吓 人</w>
后 ，</w>
名 号</w>
同 理
同 化</w>
合法 性
合 一</w>
各 处</w>
号 称</w>
号 召力</w>
台 。</w>
可口可 乐</w>
可再生 能源
只 顾</w>
另一 面</w>
口 风</w>
受 难</w>
受 苦</w>
受 够了</w>
取 舍</w>
发行 量</w>
发展 银行</w>
发 改
反对 派
反 复
反 垄断</w>
双 眼</w>
参 战</w>
原 住
厚 望</w>
历 任</w>
危 言
印 第
卡斯 帕
卡塔 尔
卡 门</w>
卡 特</w>
卡 普
博弈 论</w>
博 尔
南 极</w>
协 同
华盛顿 共识
华 丽</w>
半 决赛</w>
千 疮百
十八 大
十八 世纪</w>
十七 世纪</w>
北约 部队</w>
北 韩</w>
化石燃料 补贴</w>
勒 ·
动 手</w>
动 式</w>
动 乱
力 学</w>
剑桥 —
前瞻 性
前 列</w>
前 一年</w>
制造 品</w>
利 卡
利 伯
创造 者</w>
划 时代</w>
分离 主义
分 配
击 中</w>
出 钱</w>
出 击</w>
凶 残</w>
几 名</w>
减速 。</w>
准 确
冷 眼</w>
决 非
冲突 ，</w>
冲 销</w>
冠 冕
农 民们</w>
再次 出现</w>
再 现</w>
其 如此</w>
兴业 银行</w>
关联 ，</w>
关 注
关 怀</w>
关 口</w>
关 停</w>
关 上</w>
共 进</w>
共 产</w>
兰 ·
公投 ，</w>
公共 债务
公共 交通</w>
公 职人员</w>
公 会</w>
全国 过渡委员会</w>
兑 换
克里斯托 弗·
克里 斯</w>
克他 命</w>
克 ，</w>
光 鲜</w>
先 行</w>
兆 瓦</w>
充 沛</w>
偶 像</w>
停 下</w>
做 成</w>
候选 者</w>
俱乐 部
信任 感</w>
信 誉
保护 主义。</w>
保 释</w>
保 尔森</w>
依 附</w>
供 养</w>
例外 论</w>
低 薪</w>
位 。</w>
似 曾相识</w>
伴 有</w>
传 授</w>
伙伴关系（Tran s</w>
优 劣</w>
伊丽莎白 ·沃伦</w>
伊 扎
以邻为 壑</w>
以 示</w>
以 牙还
代 码</w>
仙 台</w>
付 诸
付 给</w>
他 信
仇恨 。</w>
什 叶</w>
人民 解放军</w>
人 肉</w>
人 心。</w>
人 ——</w>
亨 廷
产 出
产 假</w>
亦 即</w>
亟 需</w>
亚努科 维奇
五 项</w>
五 岁</w>
五 大
互 换
互 助</w>
互 为</w>
于衷 ，</w>
二十世纪 三十年代</w>
二 。</w>
事务 委员会</w>
争 议性</w>
乱 伦</w>
书 名</w>
九 月份</w>
乔治· 索罗斯</w>
乔 治</w>
乔 杜
乐 园</w>
之路 ，</w>
主导 型</w>
主义 、
临 近
中心 （C
中央 集权</w>
中央 集权
中东 战争</w>
中 文</w>
两 面
两 组</w>
两 百
两 年
两 代</w>
东道 主</w>
东 流</w>
东 巴基斯坦</w>
丛 生</w>
世 隔绝</w>
专 门
与 世隔绝</w>
不言 自
不知 不觉</w>
不可 逾越</w>
不可 行</w>
不可 取</w>
不 致</w>
不 稳</w>
不 列
下 旬</w>
下 层</w>
上海 合作
上 班</w>
三 人</w>
一般 来说</w>
一百 年前</w>
一切 顺利</w>
一 飞
一 页</w>
一 桩</w>
一 意孤
一 律</w>
一 帆风顺</w>
一 头</w>
一 千万</w>
一 剂</w>
一 体</w>
一 举
。 萨达姆</w>
。 比方</w>
。 拜</w>
。 拉
。 例如，</w>
、 沙特</w>
、 尼日利亚</w>
、 大
“ 民主
“ 坏
“ 地球
“ 剃
—— 如
— 例如</w>
v e）</w>
ustain able</w>
un e</w>
ucle ar</w>
u thor
truc t
tin g
ti s
ti an</w>
t on
t o
t an
si ve</w>
si d
recherch e</w>
ran s
pol iti
ov i
or d</w>
olu tion</w>
o u</w>
m ar</w>
l’U E</w>
l ）</w>
l ic
l as</w>
in s</w>
in k
ig ）</w>
if ）</w>
i y
hi ）</w>
es c
erem y</w>
er k
en k
em p
e x</w>
e m</w>
d o
ch n
c ot
b n
b a
at s
at e）</w>
as ）</w>
arb on</w>
ani el</w>
and ）</w>
an g</w>
ad r</w>
ac k</w>
a x</w>
a is
W al
TI P</w>
T TIP</w>
S y
S tu
S i
S S
S N</w>
Res ear
Polic y</w>
PARP 抑制剂</w>
P P
P EC
OD A</w>
O s
M ove
M os
Kibak i</w>
JP 摩根</w>
J oh
Ind epend
ICSI D</w>
I T</w>
H ol
GDP之 比</w>
GDP 年增长率</w>
G r
G D</w>
Fried man）</w>
FAR C</w>
F acil
E m
E duc
Cor por
C o
Ar m
Air bn
Agenc y）</w>
A uthor
A s
A merican</w>
A l</w>
A C
9月 11
9 名</w>
9 8%</w>
8. 5
8 7%</w>
8 000亿美元</w>
7. 4%</w>
7 8
60 周年</w>
6 6%</w>
6 2
500 万美元</w>
5 月份</w>
5 9
5 6%</w>
5 5
4. 1%</w>
4 9%</w>
3 年前</w>
3 50</w>
24 岁</w>
20世纪7 0年代以来</w>
2012 年间</w>
2011年 7月</w>
201 1年以来</w>
2007 年间</w>
2006 年以来</w>
2001年 9月</w>
2000年 间</w>
200 %</w>
20 岁</w>
20 国</w>
20 周年</w>
20 倍</w>
20 40年</w>
2. 2%</w>
1月 1日</w>
199 0年代末</w>
198 2
197 0</w>
194 6年</w>
194 0年</w>
18 00
16 个</w>
15 年后</w>
100 万
10 万
1 7年</w>
1 1年</w>
000 多名</w>
0. 8%</w>
0. 6</w>
0. 25%</w>
， 阿巴斯</w>
， 菅</w>
， 肯尼迪</w>
， 肯尼亚</w>
， 罗姆尼</w>
， 索</w>
， 科</w>
， 相反，</w>
， 由
， 理</w>
， 撒切尔</w>
， 持</w>
， 山
， 城市</w>
， 取而代之</w>
， 反</w>
， 双方</w>
， 制药公司</w>
， 利比亚
， 任</w>
， 中</w>
， 。</w>
， S</w>
（V ik
（M a
（J o
（I slam
（F inancial</w>
（E S
（C omm
（C D
（C C
（A l</w>
（A hm
（ 简称
（ Y</w>
（ IC
鼻 子</w>
黑 帮</w>
黎巴嫩 南部</w>
黎巴嫩 、
鸡 蛋</w>
鲜 活</w>
鲜 为人知</w>
魄 力</w>
高 超</w>
高 血压</w>
高 盛
高 校</w>
高 效率</w>
高 墙</w>
高 危</w>
骤 降</w>
马琳· 勒庞
马哈 蒂尔</w>
马丁· 路
马 蒂
首 。</w>
饥饿 。</w>
飘 忽</w>
风雨飘 摇</w>
风 景</w>
风 头</w>
颠 覆
额 ，</w>
颜 面</w>
颇 多</w>
领导 者们</w>
领导 人们</w>
领 衔</w>
预 兆</w>
音乐 会</w>
韩 国政府</w>
靠 边
非洲 ，</w>
非 民主</w>
非 正统</w>
非 暴力</w>
非 暴力
静 悄悄</w>
霍 尼
霍 乱</w>
霍 乱
零 星</w>
雨 表</w>
集团 公司</w>
难民 潮</w>
难以 为
难以为 继</w>
隧 道</w>
障碍 ，</w>
隐 喻</w>
陷入 僵局</w>
陆 续</w>
附 庸</w>
阿拉 斯
阿 鲁
阿 迈
阿 列
阿 克
防 空</w>
阔 斧</w>
阐 释</w>
闲 暇</w>
问责 制</w>
闭 幕</w>
锦 标
铸 造</w>
银行 间
铁 丝
钟 爱</w>
钟 摆</w>
金融 学</w>
金色 黎明
量 。</w>
野蛮 人</w>
重 温</w>
里 ，</w>
里 斯·
都 柏林</w>
都 市
部 委</w>
避 孕</w>
遗 迹</w>
遗 弃</w>
道 琼斯
遇 见</w>
遇 害</w>
通 行
通 用
通 报</w>
通 吃</w>
逐 一</w>
逍遥法 外</w>
逊 ·
逃 逸</w>
逃 生</w>
逃 出</w>
退 让</w>
迫 近</w>
连 锁
远 非
远 期</w>
远 在</w>
进口 商</w>
进 出</w>
这些 话</w>
这个 城市</w>
迈阿 密</w>
过渡 ，</w>
过去 七年</w>
过去 40年</w>
达 ·
边 倒</w>
辩 解说</w>
辈 子</w>
载 道</w>
轻 视</w>
轻 蔑</w>
轻 描
轻描 淡
轻描淡 写</w>
软 禁</w>
转 身</w>
路易 斯·
跨 度</w>
跌 眼镜</w>
足 。</w>
超 高</w>
起 诉讼</w>
起 草
起 色</w>
起 码</w>
起 手</w>
走 狗</w>
走 下去</w>
资 助者</w>
费利 佩
费 尔
费尔 南
费 。</w>
贷 方</w>
贴 近</w>
贴 现
贴 切</w>
质 子</w>
责任 心</w>
责 ，</w>
责 难</w>
责 备</w>
财政 紧缩，</w>
贡献 。</w>
负 数</w>
负 值</w>
贝鲁 特
贝 塔
豁 免
谦 卑</w>
谋 划</w>
谋 。</w>
调 停
诺 华
语 言
诗 歌</w>
词 语</w>
诀 窍</w>
记 载</w>
议定 书
议 价</w>
让 给</w>
讨价还 价
警 察
解 开</w>
角度 ，</w>
角 ，</w>
规 矩</w>
要 职</w>
要 挟</w>
要 价</w>
西 蒙
西 奥·
襁 褓</w>
装 饰</w>
袭 来</w>
被 否决</w>
衰 竭</w>
补贴 。</w>
补 足</w>
补 给</w>
行 驶</w>
血红 蛋白</w>
虚 设</w>
藏 匿</w>
蓝 色</w>
蒙 蒂
蒙 特</w>
落 ，</w>
萨赫勒 地区</w>
萨尔 科齐</w>
获 益
莱因 哈特（Carmen</w>
莱 昂
荒 漠
茫 然</w>
茨 基
若 非</w>
若 泽
苏联 帝国</w>
苏格兰民族 党</w>
苏格 拉底</w>
花 一现</w>
艾肯 格林</w>
艾 略
艾 尔
艳 羡</w>
艰 苦
航 线</w>
致命 性</w>
致 死
自然 科学</w>
自 私
自 信，</w>
自 传</w>
膳 食</w>
脸 上</w>
股 本
肇 始</w>
联合国人权 委员会</w>
联合国 难民
联 网
耸 听</w>
耳 ，</w>
而 同</w>
老 龄</w>
老 百姓</w>
老 板
老板 们</w>
耀 武
耀武 扬
美国 队</w>
美国 司法部</w>
羁 押</w>
罪 ”</w>
罗 德里
罗德里 克</w>
网络 化</w>
缺 水</w>
缴 税</w>
缅甸 政府</w>
绿 洲</w>
绿 党</w>
维吾尔 族</w>
维 加
绳 之以
统计 局</w>
统治 者们</w>
绝无 仅有</w>
绝对 优势</w>
经济 制度</w>
经济 体制</w>
终 ，</w>
组织 ，</w>
组织 、
纵 向</w>
约 而同</w>
繁荣 。</w>
繁 重</w>
繁 殖</w>
繁 文
繁文 缛
紧 ，</w>
紧 绷</w>
紧 张
索 菲
索 。</w>
粗 俗</w>
米切 尔</w>
米 ·卡
篡 改</w>
管 线</w>
管 治
算 ，</w>
简 言之
简 报</w>
策划 者</w>
第四 大</w>
第二 任</w>
第三 项</w>
第三 世界</w>
第 七
第 9
第 12
笑 柄</w>
竞争 ，</w>
竞 技
立 方
空 缺
空 头
空 域</w>
空 军
空 。</w>
穷 苦</w>
穴 居
税 金</w>
税 后</w>
税 、</w>
税 ——</w>
称 霸</w>
称 号</w>
积 聚</w>
积 分</w>
秘 鲁
科学 界</w>
科 普
私 生活</w>
离 谱
禁 用</w>
神 秘
碳 水</w>
碳 排
破坏 者</w>
知识 界</w>
知 觉</w>
着 迷</w>
真 心
真 切</w>
相关 性。</w>
相似 点</w>
相互 影响</w>
相 形</w>
直接 影响</w>
直 选</w>
盲 人</w>
目 录</w>
盛 名</w>
盖茨 基金会</w>
皮 凯
白芝 浩</w>
白沙 瓦</w>
白 ，</w>
白 血
瘟 疫</w>
痼 疾</w>
痴 呆
病 。</w>
疫 苗
畸 形</w>
留 学</w>
畅销 书</w>
畅 销</w>
画 家</w>
电 脑
甲 级</w>
用 工</w>
用 场</w>
生活 费</w>
生产 方式</w>
生 日</w>
生 土
生土 长</w>
生 于</w>
瓦 鲁
瓦 隆
瑞典 民主党</w>
理查 德</w>
现金 流</w>
现实 主义者</w>
现 如今</w>
环 绕</w>
玩 意</w>
玛格 丽
猛 然</w>
狂 潮</w>
犹太人 大屠杀</w>
犹 如</w>
犬 儒
特殊 性</w>
特 派
牵 连</w>
牟 利</w>
牛 奶</w>
爪 牙</w>
爆 破</w>
照不 宣</w>
焕然 一新</w>
热带 雨林</w>
热 议</w>
热 浪
烦 恼</w>
点 ，</w>
火 车
火 山</w>
潜 意识</w>
演 讲
游刃 有余</w>
游 离</w>
温 斯
温 室</w>
渐进 性</w>
清 迈
深 度
深 圳</w>
涌 动</w>
消费 ，</w>
消费 者们</w>
消费 。</w>
海 关</w>
浩 劫</w>
测 试
流动 性，</w>
流 逝</w>
活 体</w>
泰 米尔
泰 爱
油 ，</w>
没 落</w>
没 法</w>
沟 通
沃 克·
沃克· 布什</w>
沃 ·
汉 森</w>
民粹 主义，</w>
民族 主义，</w>
民主 转型
民主 制</w>
民主 主义</w>
每 逢</w>
每 十年</w>
母 猪</w>
毋 庸</w>
段 ，</w>
残疾 人</w>
步 子</w>
此 而已</w>
歇斯 底
欧洲 经济
欧洲 复兴
欢呼 雀跃
欠 债</w>
模式 ，</w>
模式 。</w>
梅特 涅</w>
梅 纳
桑 迪</w>
桑 ·
桎 梏</w>
案 ，</w>
根源 ，</w>
根本 上</w>
根 筋</w>
根 植</w>
标准普尔 500指数</w>
标 记</w>
标 的</w>
标 普</w>
柬埔 寨
染 上</w>
某 处</w>
极端 主义。</w>
极 右翼</w>
板上 钉
杰 里
杰 明·
杰 弗
杰 克
来 了</w>
条 款
杜 瓦</w>
机 客</w>
本地 化</w>
本 杰明·
本 文</w>
末 尾</w>
未雨绸 缪</w>
未 见</w>
期货 交易</w>
期 望。</w>
有 生
有 点
有 染</w>
月2 8日</w>
最 终
替代 物</w>
更 合理</w>
曲 折</w>
暴 行
暴 增</w>
晶 体
晴 雨表</w>
景 观</w>
景 气
普通 百姓</w>
普 鲁
普 雷
晓 。</w>
显而易见 。</w>
昭 然</w>
星 星</w>
昙 花一现</w>
明白 ，</w>
时 节</w>
时 事</w>
早 日</w>
早 年</w>
日俱 增，</w>
日 军</w>
日 。</w>
无所 事事</w>
无所 不在</w>
无关 痛
无人 机
无 谓</w>
无 果</w>
无 忧</w>
无 影
无 事</w>
无 一</w>
旗 鼓
旅 行者</w>
旅 客</w>
方 程</w>
方 才</w>
新加 坡
新 ，</w>
新 概念</w>
新 教徒</w>
新 古典主义</w>
斯瓦 特</w>
斯特劳 斯</w>
斯德哥尔 摩
斯 ，</w>
斯 文森</w>
斯 勒</w>
断 裂</w>
断 定</w>
文 物</w>
数 学家</w>
数 千年</w>
数 万</w>
敬而 远</w>
敬 畏</w>
教 授
救 世</w>
效 能</w>
政治 阶级</w>
政 绩</w>
放 血</w>
收入 者</w>
收 税</w>
收 复</w>
收 养</w>
支离 破碎</w>
摩 萨
摇 摆
搬 到</w>
搞 清楚</w>
搜 查</w>
援助 。</w>
援 助者</w>
揭 开</w>
揭 发</w>
提 起诉讼</w>
描 写</w>
推 敲</w>
接 口</w>
捣 毁</w>
换 届</w>
挥霍 无度</w>
持有 量</w>
持久 战</w>
持 股</w>
持 枪</w>
拿 走</w>
拦 截</w>
拉胡 德</w>
拉斯 维加
拉夫 桑
拉 近</w>
拉 奎
拉 夫·
拆 毁</w>
押 者</w>
抢 夺</w>
投 射</w>
抓 获</w>
抑 或
抑或 是</w>
把握 住</w>
技术 革新</w>
批评 家们</w>
扯 皮</w>
托克 维尔</w>
打 上</w>
所作 所为
所 述</w>
战 机</w>
成 份</w>
懒 惰</w>
慎 之
慈善 事业</w>
感 激</w>
感 冒</w>
愈 发</w>
惹 恼</w>
想 必</w>
惊 异</w>
恶 ，</w>
总体 来说</w>
怨声 载道</w>
怀 。</w>
忠 告</w>
志 同
志同 道
心血管 疾病</w>
心 全
心全 意</w>
德罗· 威尔逊</w>
德 语</w>
德 涅
德 斯坦</w>
得不偿 失</w>
很 简单
形 状</w>
归 入</w>
强 调
强 化
弗洛 伊德</w>
弗朗索瓦· 奥朗德</w>
弗拉 芒</w>
弗利 卡</w>
开 幕</w>
开 头</w>
开 去</w>
建 树</w>
廖 夫</w>
庭 审</w>
度 量</w>
庞 大，</w>
底 下</w>
应 验</w>
库 克</w>
广东 省</w>
广 岛</w>
幼 儿</w>
年 长者</w>
年 代
年 GDP增长率</w>
平 ，</w>
干 涸</w>
干 扰
干 事</w>
常任理事 国
帝 王</w>
希特 勒
希 尔
希 伯
布莱 尔
布 ·
市场 经济体</w>
巴 士</w>
巧 合</w>
左翼联盟 （Syriz
工业 园</w>
工 地</w>
工 具
巡 逻</w>
屑 一
居 留</w>
居 功
层出不穷 ，</w>
屁 股</w>
尼罗 河</w>
尼日尔 三角洲</w>
尔 克</w>
少 。</w>
小 额</w>
小 行星</w>
将 就</w>
封 面</w>
封 建
对立 面</w>
对 其
寒 冷</w>
富 。</w>
密 松
密 不可
宿 命</w>
宽 容
家 族
家 园
宫 颈
宪 章
实 意</w>
实 处</w>
定 点</w>
定 下</w>
官 司</w>
宗 旨</w>
宗 主</w>
安德 烈
安全 港</w>
安全 局</w>
安 排
安 娜
守 护者</w>
学校 教育</w>
学 龄</w>
孤 儿
季 节性</w>
存款 准备金
字 面</w>
孔 。</w>
嫖 娼</w>
威尔 士</w>
委 书记</w>
姑 息</w>
如 指
如 意</w>
如 人
好 运</w>
奴隶 制</w>
女 童</w>
女 士</w>
奥巴马 ，</w>
失灵 。</w>
失去 控制</w>
失 速</w>
失 措</w>
太平洋 伙伴关系
天 翻地
天 平</w>
大陆 ，</w>
大 跌眼镜</w>
大 赛</w>
大 街</w>
大 经济体</w>
大 灾</w>
大 海</w>
大 法官</w>
大 棒</w>
大 刀
大刀 阔斧</w>
大 会
外汇 储备
外 语</w>
夏 威
增长 ，</w>
增长 源</w>
增 高</w>
塔 赫</w>
基尼 系数</w>
城 乡</w>
埃尔多 安
坠 落</w>
坚 固</w>
坎布里奇 ——</w>
坎 坷</w>
场 外</w>
地 平
圆 桌</w>
国际货币基金组织 （IMF
国际 法院</w>
国际 原子能
国 ；</w>
国 。
团结 ，</w>
回报 ，</w>
回 馈</w>
回 购
回 头
喷 洒</w>
善 政</w>
唐纳德· 特朗普</w>
唐吉 诃
哈 桑·
和平 奖</w>
命 ，</w>
命 令
吞 下</w>
向 后</w>
后 台</w>
后 勤</w>
同 谋</w>
同 虚设</w>
同 业</w>
吉 米·卡
合 计</w>
合 宪
合 体</w>
各 部门</w>
各 家</w>
吃 饭</w>
吃 掉</w>
司 令
史密 斯</w>
史 ，</w>
可持续 性
可 贸易</w>
可 贵</w>
可 卡</w>
另 一半</w>
句 号</w>
古 钦斯基</w>
古 柯</w>
口诛笔 伐</w>
口 吻</w>
口 中</w>
变 身</w>
变 数</w>
变 换</w>
受害 人</w>
发 电站</w>
发 射
反美 主义</w>
反型 脂肪</w>
友 邦</w>
原 地</w>
原 因
即 逝</w>
危言 耸听</w>
危 急</w>
印 证</w>
印 美</w>
卫 士</w>
卢旺 达
卡拉 巴赫</w>
博科 圣地
博 达
南 地区</w>
卖 方</w>
卖 家</w>
单 身</w>
卑 鄙</w>
升 职</w>
千 美元</w>
千 克</w>
千 丝
千丝 万
千丝万 缕</w>
十六 世</w>
十八大 三中全会</w>
十 月份</w>
十 三
医 药
医 生们</w>
医 改</w>
医 务
北 非
北 爱尔兰</w>
化学 武器</w>
化 ——</w>
匆 匆</w>
努力 工作</w>
努 力。</w>
动摇 。</w>
劣 质</w>
劣 等</w>
加 油
加 拉加
办 公</w>
办 事</w>
力 、
前所未 见</w>
制 片
制 成</w>
制 ”</w>
到 此</w>
到 底
利润 率</w>
利己 主义</w>
利夫 尼</w>
判 刑</w>
初 次</w>
初 创</w>
划 清</w>
划 为</w>
切尔 诺贝
分水 岭</w>
分 给</w>
分 歧
分 校</w>
分 得</w>
分 子们</w>
击 破</w>
击 手</w>
出口 导向型</w>
出口 品</w>
出 力</w>
凸 现</w>
凶 险</w>
几 年来</w>
决策 ，</w>
决 不</w>
冲突 。</w>
冠冕 堂皇</w>
军事 演习</w>
军 演</w>
写 下</w>
再 融资
兼 具</w>
共产 党
公投 。</w>
公 子</w>
全面 战争</w>
全 心全意</w>
全 套</w>
入 者</w>
克里米 亚
克格 勃
克林顿 政府</w>
光 明
先 行者</w>
充足 率</w>
充分就业 。</w>
储备 银行</w>
偷 走</w>
停 下来</w>
偏 低</w>
借 贷者</w>
借 此
倒 霉</w>
倒 数</w>
修 好</w>
信 心，</w>
保罗· 沃尔克</w>
保护 者</w>
保 单</w>
俄 军</w>
侨 汇</w>
使命 感</w>
作 者们</w>
作 弊</w>
作 业</w>
低碳 经济</w>
低 落</w>
低 息</w>
位 子</w>
优 柔
众 ，</w>
伍 德罗·威尔逊</w>
伊斯兰 世界</w>
份 量</w>
任 期
任 内</w>
仲裁 者</w>
以牙还 牙</w>
以 防</w>
代 议制</w>
代 议</w>
他 的
从 政</w>
介 意</w>
今 时</w>
仅 存</w>
什 科
人与 人</w>
人 流</w>
人 权。</w>
亲 手</w>
亨 利</w>
产 品
亦 趋</w>
交通 事故</w>
交 火</w>
交 响
亚 特兰
五 月
五 六十年代</w>
互联 网
二 号</w>
事件 ，</w>
争夺 战</w>
争 锋</w>
书 店</w>
也 称</w>
也 想</w>
九 个月</w>
乐 土</w>
之 而
之 春</w>
久 ，</w>
举 出</w>
主 持
为 难</w>
丹 麦
临 床
中央 银行
中国 资本</w>
中 层</w>
两 步</w>
两 性</w>
两 岸
两 天后</w>
两 代人</w>
东 扩
东 南亚
丛 林</w>
世界 人权宣言</w>
世 。</w>
专 横</w>
与 日俱增</w>
不顾 一切</w>
不知 所
不得 已</w>
不堪 一击</w>
不合 格</w>
不可 及</w>
不 齐</w>
不 过
不 见
不 结盟运动</w>
不 约而同</w>
不 屑一
不 公平
不 全</w>
不 ”</w>
下 级</w>
上 瘾</w>
三 维</w>
三 百
三 月份</w>
三 季度</w>
三 周</w>
万 事
一飞 冲天</w>
一蹴而 就
一步 步</w>
一小 步</w>
一举 一
一个 多
一 边倒</w>
一 记</w>
一 触
一 氧化
一 桶</w>
一 杯
一 时间</w>
一 无</w>
一 宗</w>
一 国
一 团</w>
一 去</w>
一 万
。然 而
。 逊尼派</w>
。 理</w>
。 照</w>
。 格林斯潘</w>
。 巴基斯坦</w>
。 委员会</w>
、教育 、
”（ S
“软 ”</w>
“自 愿
“剃 头
“伊斯兰 国”</w>
“不 ”</w>
“ 非
“ 集体
“ 近邻
“ 团结”</w>
“ 双
á s</w>
ww w</w>
w as</w>
v is
universit és</w>
un t
u re
ti c</w>
t p</w>
t oc
si b
s ur
ro m</w>
ric h</w>
ric h
re y</w>
re t
r n
qu ot</w>
pac e</w>
our c
ou r</w>
ou d</w>
or a</w>
oo g
om e</w>
ol d</w>
o ），</w>
o l</w>
n e）</w>
man n）</w>
m oud</w>
m e</w>
m a
li g
lexand er</w>
le y</w>
l ar
iti es</w>
it y）
ing ）
in ter
in i
in e
ill enni
illenni um</w>
ig ital</w>
id o</w>
i P
ht tp</w>
h u
h er
g res
et s</w>
en ti
en e</w>
emissi ons</w>
eg el</w>
e z
e ment</w>
e k
dw ard</w>
d u</w>
d es
c l
b e</w>
az pro
ar t</w>
ar n
ar e）</w>
an a</w>
amp# 45</w>
am p</w>
ah moud</w>
ag e</w>
a ），</w>
a w</w>
WT O</w>
V al
Uni on）</w>
U M
T witter</w>
T im
T ill
Stiglit z）</w>
Soci et
Serv ic
S tr
S ing
Rogoff ）</w>
Rig ht
Resear ch</w>
R am
P ，</w>
P E
P A</w>
O b
MF F</w>
M ag
M F</w>
IMF ）</w>
IC ）</w>
IC C</w>
G- 7</w>
G en
G C</w>
Fron t</w>
F A</w>
E ID
Develop ment）</w>
DS M</w>
D el
D ec
Coo peration</w>
CC S</w>
CB O</w>
Bernank e）</w>
B ur
B row
An war</w>
Airbn b</w>
AA A</w>
A 级</w>
A meric
A V
A F
9 万亿美元</w>
9 11</w>
8 1%</w>
70 0</w>
7 7
7 5年</w>
6 亿美元</w>
5. 7%</w>
5 8%</w>
5 6
5 4%</w>
4. 3%</w>
300 美元</w>
30 多个</w>
3. 9%</w>
3. 3%</w>
3 %，</w>
26 个</w>
25 年前</w>
25 00亿美元</w>
201 0
2009年 4月</w>
2008年 11月</w>
200 5年以来</w>
200 1年以来</w>
200 1
20 万</w>
2. 8%</w>
2. 7%</w>
2 50亿美元</w>
2 4</w>
199 8</w>
199 4年
199 2</w>
199 1年以来</w>
199 1年
198 9</w>
197 6年</w>
1914 年
191 8年</w>
191 7年</w>
19 个</w>
18 岁</w>
18 5
18 3
15 年内</w>
15 岁</w>
15 亿美元</w>
15 00亿美元</w>
10 亿欧元</w>
1. 1%</w>
00 0年</w>
？ “</w>
－ 内贾德</w>
， 鉴于</w>
， 萨达特</w>
， 联合国</w>
， 穆斯林</w>
， 新
， 战</w>
， 工党</w>
， 尼克松</w>
， 失业
， 卡塔尔</w>
， 加利福尼亚</w>
， 决不能</w>
， 冰岛</w>
， 光
， 他信</w>
， N
， JPM</w>
， IMF
， ECB</w>
， B
） 利率</w>
） 中，</w>
（P h
（M ohammad</w>
（L arry</w>
（J an
（Gre en</w>
（G u
（C oun
（C on
（A ndrew</w>
（ 比方说</w>
（ 占</w>
（ m
齐 ，</w>
齐 省</w>
默 默</w>
默 克尔
黑 猩猩</w>
黑 洞</w>
黎波 里
麻 街</w>
麻 木</w>
麦肯 锡</w>
麦 利亚
鸣 得意</w>
魔 法</w>
魔 咒</w>
高 院</w>
高 阁</w>
高 居</w>
高 原</w>
骚 动</w>
驱 动
马耳 他</w>
马琳·勒庞 （M</w>
马格 尼
马尔 代
马尔代 夫</w>
马克· 卡尼</w>
马丁·路 德·
马· 本·拉登</w>
食品 药品
食 物
飞 船</w>
风 度</w>
领头 羊</w>
领土 ，</w>
领先 者</w>
预 见
预 备</w>
颁 奖</w>
顿· 丘吉尔</w>
顾 ，</w>
顺 便</w>
项 目
顶 着</w>
顶 峰
顶 住</w>
音 机</w>
鞋 子</w>
靠边 站</w>
非洲 联盟</w>
静 观</w>
静 态</w>
青 红
青红 皂
青红皂 白</w>
霍 尔</w>
霍 姆
震 动</w>
需求 源</w>
雾 霾</w>
雷 茨</w>
雷 杰
雷杰 普·
雷杰普· 塔伊
雷杰普·塔伊 普·
雨 后
雨后 春
雨后春 笋</w>
雇 员们</w>
集 市</w>
雅 加
难 受</w>
难 于</w>
隐 忧</w>
隐 形</w>
陶 醉</w>
险 胜</w>
除 此
降 下来</w>
陆 路</w>
陆 战
阿迈 尔·
阿拉伯 民族主义</w>
阿布 ·马
阿亚图 拉·
阿 西
阿 罗</w>
阿 曼</w>
阿 塔
防 务
闻 ，</w>
闻 名
闯 入</w>
问 津</w>
门 徒</w>
长期 投资</w>
长 途</w>
长 串</w>
镜 像</w>
锦 赛</w>
锡安 主义</w>
铺 设</w>
钥 匙</w>
钢 铁
钉 子</w>
金融 衍生品</w>
金融 服务
金融 公司</w>
金融 、
金日 成</w>
金字 塔</w>
金 墉</w>
重 型</w>
重 债
里 士
酬 劳</w>
酋 长国</w>
部 门
部 位</w>
邦 ，</w>
那个 时代</w>
那 一刻</w>
避 险</w>
遴 选</w>
遥遥 无期</w>
遗 嘱</w>
遗 体</w>
道 路
选 人</w>
送 给</w>
送 往</w>
退 役</w>
迫 于</w>
连 同</w>
远 距离</w>
进 退
进 军</w>
这些 年</w>
这个 世纪</w>
近 海</w>
迎 头
过去 3
过 重</w>
过 敏</w>
过 关</w>
过 之而
达尔富 尔
达尔 文
达 伊
辩 护者</w>
辍 学</w>
较 差</w>
较 于</w>
轻 度</w>
软 着陆
转 向
身体 健康</w>
身 负</w>
踌躇满 志</w>
跑 步</w>
走 私
赫 曼</w>
赤字 （</w>
赤字 国</w>
赔 偿
赎 罪
资本 流
资产 阶级</w>
费 林</w>
贷款 者</w>
贴现 率</w>
购 置</w>
购 房者</w>
贫民 区</w>
贫 如
质 。</w>
货币 贬
败 北
财政 转移支付</w>
财 务
豪 赌</w>
豪 斯曼</w>
谋 而
谈判 者们</w>
谈判 。</w>
调 整
谁 知道</w>
诺 基
诸如 此类</w>
请 记住</w>
误 。</w>
诡 异</w>
识 性</w>
证券 交易所</w>
访 印</w>
设 限</w>
论 ”</w>
议 。</w>
认 证</w>
言巧 语</w>
言 行</w>
视 ，</w>
视 镜</w>
规 章</w>
规 章
规章 制度</w>
见 面</w>
见 之
覆 灭</w>
西尔维奥· 贝卢斯科尼</w>
西 里
西 藏
西 娜</w>
被 绑架</w>
衰 老</w>
表现 形式</w>
表 情</w>
行政 部门</w>
行政 机构</w>
行为 。</w>
血 腥
蜕 变</w>
虚张 声
虚 无
藩 篱</w>
蒂 莫
落 体</w>
营 ，</w>
营 商
获 释</w>
获 奖者</w>
莱 茵
莫雷 尔</w>
莫 顿</w>
荷尔 蒙</w>
荒漠 化</w>
草 坪</w>
茶 党
茨 瓦
茨 ·
英国 央行</w>
英 、
若泽 ·
若 想</w>
苏联 解体</w>
苏联 式</w>
花 八
芝 麻街</w>
良 多。</w>
良 多</w>
船 上</w>
航 行</w>
致 敬</w>
臭名 昭</w>
自豪 ，</w>
自由裁 量</w>
自由裁 量
自由 民主党</w>
自然资源 ，</w>
自治 政府</w>
自 鸣得意</w>
自 用</w>
自 有
自 尊
自 助
膨胀 ，</w>
膨胀 。</w>
腹 地</w>
脚 石</w>
脚 下</w>
胚 胎
肯尼 迪
肘 ，</w>
聚 居
联 席会议</w>
联 姻</w>
耸 肩</w>
耐 力</w>
而不 实</w>
而 返</w>
考 古
老 布什</w>
老 大
羞 涩</w>
美好 生活</w>
美国 联邦
美国 国
美 日
罪 感</w>
罗马 条约</w>
罗马 尼亚
罗 兴
罗兴 亚</w>
罗 人</w>
罔 顾</w>
缘 由</w>
缓 和
维也纳 ——</w>
维 拉
绰 号</w>
继 位</w>
继 任
统 制</w>
绝不 应该</w>
绝 非
绝 境</w>
给 力</w>
经济体 ，</w>
经济 委员会</w>
经合组织 国家
经 不起</w>
绊 脚石</w>
组成 部分</w>
线 ，</w>
纽 带
纳粹 党</w>
纳 戈尔
纳戈尔 诺</w>
纳 ·
约 定</w>
繁文缛 节</w>
紫 外线</w>
紧急 措施
紧急措施 署</w>
索菲 亚</w>
索 洛
索 夫</w>
糟 ，</w>
精神 病学</w>
精神 病
精 良</w>
粮食 权</w>
粮农 组织</w>
类 拔
米哈伊尔· 戈尔巴乔夫</w>
米利 班
篇 章</w>
管理 ，</w>
管 道
管 好</w>
管 制。</w>
筹集 资金</w>
第二 位</w>
第三 轮</w>
第一 线</w>
第一 天</w>
第 五个</w>
第 一点</w>
第 4
笃 十六世</w>
端 ，</w>
竞选 者</w>
竞技 场</w>
竞 标</w>
突然 之间</w>
突 袭</w>
空 谈</w>
穆 阿迈尔·
稳定 与
稳定与 增长
稳 步
税收 支出</w>
税 ”</w>
移 除</w>
称 谓</w>
积极 主义</w>
积 月
科特 迪
科普 特
科尔 宾
种族 隔离</w>
私人 化</w>
私 营
私 房</w>
离 奇</w>
福 特</w>
福 克
禁 毒</w>
票 面</w>
神 圣
祝 贺</w>
社会 学</w>
社 区
硬 性</w>
破 败</w>
石 原
知 情</w>
知 情
知 名
真主 党
相互 依存
相 左</w>
直接 投资</w>
盲 从</w>
目标 ，</w>
目 以待</w>
盛 产</w>
盆 地</w>
皇 家</w>
的 极限</w>
百分 位</w>
白 银</w>
登 纳</w>
痴呆 症</w>
痴 呆</w>
病毒 。</w>
疾 呼</w>
疏 离</w>
疏 散</w>
男 爵</w>
男 女
电视 屏幕</w>
电 车</w>
申根 区</w>
由 我</w>
用 心</w>
生产 性
生 气
瓦鲁 法基斯</w>
瑟 ·
琴 科</w>
理想 主义者</w>
球 场</w>
班加罗 尔</w>
珍珠 港</w>
现代 史</w>
玩 火</w>
玩 家</w>
玛 ·
王 牌</w>
狮 子</w>
独 行</w>
独 揽</w>
狙 击手</w>
狂 飙</w>
特种 部队</w>
特 首</w>
特 科夫
特 权
物 质
爱好 者</w>
照 搬</w>
然 而
焦 躁</w>
焦 急</w>
炼油 厂</w>
点 。</w>
灵 药</w>
灯 泡</w>
火 药
火 热</w>
瀑 布</w>
激进 派</w>
潮 水</w>
潜 藏</w>
满 怀
滑 铁
滋 味</w>
源泉 ，</w>
源 体</w>
游 击</w>
渴 求</w>
渲 染</w>
温斯 顿·丘吉尔</w>
温 州</w>
渊 源</w>
清 迈</w>
混 战</w>
深 邃</w>
深 省</w>
涨 势</w>
消耗 量</w>
海湾合作 委员会</w>
浪 漫
洞 察
泾 渭
泽 西
泰爱 泰党</w>
波罗的 海
波斯 湾
波士 顿
波 澜</w>
波 尔</w>
泛滥 ”</w>
法 德
法 军</w>
沾 自
沾 沾自
治 标</w>
油 砂</w>
油 井</w>
沦 陷</w>
沙特 政府</w>
沉 默
沉 重
沉 睡</w>
沉 溺</w>
求 得</w>
永 不</w>
水 道</w>
气 象
民选 政府</w>
民主 政治</w>
民主 政体</w>
民 权
毛 拉</w>
比 ，</w>
比 价</w>
母 婴</w>
殖民 统治</w>
残 杀</w>
死 难者</w>
歧视 性</w>
此 种</w>
正 中</w>
止 痛
歌 颂</w>
歇斯底 里</w>
歇 根
欺骗 性</w>
欧洲复兴 开发银行</w>
欧洲 人权
欧元 债券
欧 锦赛</w>
欧 猪
欧 尔
欧 共
欣 然</w>
欢 庆</w>
欠 佳</w>
横 财</w>
榨 取</w>
楼 继
桌 面</w>
格陵兰 岛</w>
格 罗
格 兰
根本 性
标 本</w>
查 阅</w>
查 维斯</w>
枪 杀</w>
枝 末
林 顿</w>
极权 主义
极 致</w>
极 尽</w>
极 佳</w>
杰里 米·
来 访</w>
李 嘉
权威 ，</w>
权 贵</w>
权 ——</w>
机械 化</w>
机 密
本尼 迪克
本 笃十六世</w>
本 科</w>
期 权
服务 。</w>
有生 之年</w>
有 过之而
有 志</w>
月2 6日</w>
月 中旬</w>
最 安全</w>
替代 者</w>
曼 莫汉·辛格</w>
曼 尼
曼 哈
更 甚</w>
更 广义</w>
暴 虐</w>
智 囊
普 惠</w>
普 什图
晚 宴</w>
春 ，</w>
明证 ，</w>
明 确
昂山素 姬</w>
时刻 准备</w>
早 晨</w>
早 上</w>
旧 式</w>
日程 表</w>
日元 ，</w>
日 积月
日 可
无能 ，</w>
无声 无
无可 救药</w>
无关痛 痒</w>
无人 驾驶
无 补。</w>
无 端</w>
无 睹</w>
无 止
无 孔
无孔 不入</w>
无 名</w>
无 功
无功 而返</w>
旗 鼓</w>
方 言</w>
方 案
新闻 业</w>
新 观点</w>
新 理念</w>
新 环境</w>
新 。</w>
斯蒂 格</w>
斯特拉斯 堡</w>
斯托 ·
斯坦福 —</w>
断 ，</w>
断 电</w>
文艺 复兴</w>
文化 遗产</w>
整 理</w>
整 天</w>
整 场</w>
敲 定</w>
数百 万美元</w>
数百 万
数 码</w>
数 十年以来</w>
敬 意</w>
散 户</w>
教育 制度</w>
教 法</w>
教 旨
政府 采购</w>
放 逐</w>
放 矢</w>
放 。</w>
改 为</w>
收 音机</w>
操作 系统</w>
播 出</w>
撒哈拉 沙漠</w>
摄 像
搭 建</w>
提 振
推 手</w>
控制 ，</w>
控 股
接踵 而至</w>
接 轨</w>
接 种
接 班</w>
排 名
排 他
掌 声</w>
捷 列
捷列 什科
捷列什科 娃</w>
振 兴
指 着</w>
指 日可
指 手
拿 下</w>
拭 目以待</w>
拨 付</w>
拉斯维加 斯</w>
拉 多
担 忧
抽 身</w>
押 注</w>
报 应</w>
抢 走</w>
抢 先</w>
折磨 ，</w>
抓 紧</w>
找 回</w>
扭曲 ，</w>
扩 大
打 动</w>
手 表</w>
所 以
所以 说</w>
房 屋
户 口</w>
戴维 营</w>
戴 上</w>
战斗 力</w>
战 区</w>
战 ”</w>
我 们
成本 低</w>
成员 们</w>
成千上 万名</w>
成千 上</w>
成 像</w>
戈 ·
慎之 又
慎之又 慎
愿景 。</w>
感 同
感同 身受</w>
感 叹</w>
愚 昧</w>
意 赅</w>
愈 下</w>
想 着</w>
惩罚 性</w>
惨 烈</w>
惊 恐</w>
悲观 派</w>
恶性循环 ，</w>
恶 毒</w>
恶 果</w>
恰 尔
息 。</w>
急 ，</w>
怀疑 派</w>
怀疑 主义</w>
念 头</w>
快 感</w>
忧心忡 忡
心 情</w>
心 不
德米特里· 梅德韦杰夫</w>
德涅 斯特
德拉克 马</w>
德 洛尔</w>
德 曼</w>
德 拉</w>
得 力</w>
征 兆</w>
形 同虚设</w>
当 ，</w>
当 是</w>
当 地
当 即</w>
归 纳</w>
强 心
强 势
引人 瞩目</w>
式 微</w>
开 枪</w>
开 交</w>
建 起</w>
康 德</w>
废 止</w>
应 激</w>
库尔德 地区</w>
庇 隆
广 度</w>
并 行</w>
平 缓</w>
平 地</w>
平 原</w>
常 谈</w>
帷 幕</w>
帮 派</w>
帖 子</w>
帕 特
希格 斯
布雷顿森林 会议</w>
布莱 恩
市 委书记</w>
币 种</w>
巴黎 协定</w>
巴塞尔 银行
巴 里</w>
巴 林
巴 厘</w>
差 劲</w>
巨 浪</w>
巨 变</w>
巨 。</w>
左 倾
工作 量</w>
工 种</w>
工 党政府</w>
崩盘 ，</w>
屡 见不
屈 不
屈不 挠</w>
居 民
尽 显</w>
尼日 尔</w>
尼安德 特</w>
尼古 拉斯</w>
尼加 拉</w>
尼 察</w>
尚 有</w>
尔 韦
小 事</w>
将 领</w>
导弹 发射</w>
对抗 性</w>
对 照
对 头</w>
富 饶</w>
密 歇根
家庭 暴力</w>
家庭 储蓄率</w>
家 常</w>
家 务</w>
宣 泄</w>
宝 莱坞</w>
定时 炸弹</w>
定居 点</w>
官 邸</w>
安 那
安 瓦尔</w>
学 生
孤立 ，</w>
季 ，</w>
存活 率</w>
嫌 疑</w>
娱 乐
威 斯
好 在</w>
好 似</w>
奥马 尔·
奥斯 卡
奥地 利
奥 古
套 利
奇 洛夫</w>
头 目</w>
头 痛</w>
头 来</w>
失 明</w>
失 忆
天 花
天 方
大行其 道</w>
大惊 失色</w>
大 象</w>
大 豆</w>
大 获</w>
大 猩猩</w>
大 权
大 地</w>
大 国
大 公</w>
大 中</w>
多米尼 加</w>
多哈 回合
多 彩</w>
多 年
多 层次</w>
多 国
多 变</w>
多 万
外交 关系</w>
外 籍</w>
夏威 夷</w>
处 以</w>
墨索 里尼</w>
增长 的极限</w>
增 长期</w>
增 产</w>
塞浦 路</w>
塔 尔
堵 住</w>
堪 培
堤 坝</w>
基督教 民主
基督 教徒</w>
基本 原理</w>
基 奇洛夫</w>
培 训
埃 胡德·
埃 尔</w>
坚不可 摧</w>
地 理
地 步。</w>
在 必
圣 城
土 豆</w>
土 生土长</w>
圆 满</w>
圆 形</w>
图 谋</w>
图 斯克</w>
国际 上</w>
国民 经济</w>
国家安全 局</w>
国家 联盟</w>
国家 元首</w>
国 营企业</w>
固 醇</w>
囹 圄</w>
围 攻</w>
因 果</w>
回 路</w>
回 调</w>
四 射</w>
四 周</w>
嚣 张</w>
噶玛 巴</w>
嘲 弄</w>
嗜 好</w>
喜马拉 雅</w>
喜 剧
喋 喋
善 良</w>
喂 养</w>
商 定</w>
商 会</w>
唐吉诃 德</w>
哈马斯 政府</w>
哈萨 克
哈 格尔</w>
和平 主义</w>
和平 、
和平 ”</w>
周 日</w>
吸 食</w>
启蒙 运动</w>
听 听</w>
含 糊
君主 制</w>
向 外</w>
向 前
后 门</w>
后 继
后 人</w>
名列前 茅
同 胞
同 年</w>
同 义词</w>
吉米·卡 特</w>
吉拉 特
合 ，</w>
合 意</w>
各 部</w>
各 界</w>
各 式</w>
史蒂 芬
史 学家</w>
可 选</w>
可 逆</w>
口 ，</w>
口 头
变革 性</w>
变 质</w>
受害 者们</w>
受 命</w>
发行 人</w>
发改 委</w>
发 觉</w>
发 给</w>
发 热</w>
发 人
发人 深省</w>
反之 亦
反 移民
反 犹太
反 型</w>
反 华</w>
反 人类
双 向</w>
及 其</w>
去年 九月</w>
去年 6月</w>
原因 很简单
压 垮</w>
厂 房</w>
即 发</w>
危机 四
卫星 电视</w>
卫 队
卢 斯蒂格</w>
卡梅 伦
卡斯帕 罗夫</w>
卡 纳
卡 斯</w>
卡 多
占领 ，</w>
占 款</w>
博 茨瓦
卓 识
华 而不实</w>
半 壁
半 世纪</w>
千 里</w>
十 岁</w>
十 名</w>
十 几年</w>
医务 人员</w>
北 海</w>
化 ，
化 ”，</w>
包 装
勤 奋</w>
勒 紧
勇 于</w>
劲 ，</w>
动 因</w>
务 实
加 德</w>
加 厉</w>
功 利
办 事
副 行长</w>
副 总裁</w>
剧 院</w>
前南 国际法庭</w>
前 途
前 几天</w>
前 人</w>
削 减
刺 耳</w>
制片 人</w>
制 高点</w>
制 成品</w>
利益 方</w>
利 巴
创立 者</w>
刚果民主 共和国</w>
列 ，</w>
分析 家们</w>
出 资者</w>
凯 瑟
凯 末
几 百</w>
几 分钟</w>
减 灾</w>
决策 。</w>
决 战</w>
冲 破</w>
冰 山</w>
冰 层</w>
冯 ·
冠 以</w>
军 ，</w>
军 工</w>
冗 余</w>
内塔尼亚胡 政府</w>
内 斯
内 基</w>
养 育</w>
其 人</w>
兴 衰</w>
关键 词</w>
关键 。</w>
关系 紧张</w>
关塔纳摩 湾</w>
关塔纳 摩</w>
关切 。</w>
共和 两党</w>
共 事</w>
兰 尼
六 次</w>
公共 品
公 营</w>
公 职</w>
公 用</w>
公 务</w>
公 元
公 交
全国 各地</w>
全 胜，</w>
全 民
全 无</w>
全 天</w>
入侵 者</w>
入 手</w>
党 （J
克多 科夫斯基</w>
克 伦</w>
克 、</w>
光 ，</w>
光 芒</w>
先 于</w>
充足 性</w>
兄弟 会</w>
储蓄 率，</w>
偷 渡</w>
停滞 。</w>
做 饭</w>
做 大</w>
偏 颇</w>
债权 人和
债权 人
借此 机会</w>
倒 计时</w>
倒 置</w>
倍 功
修正 主义
修 宪</w>
信誉 度</w>
信息 官</w>
保险 商</w>
保险 。</w>
保护 主义，</w>
保 值</w>
侦 测</w>
佩 里</w>
佩 尔韦
你 自己</w>
作用 。</w>
作 恶
佛罗里 达</w>
佛罗伦 萨</w>
何 塞
体 积</w>
体 化</w>
体 力</w>
体 制，</w>
低碳 能源
低 效率</w>
低 效
伸 手</w>
伸 张</w>
估 计
估 价</w>
伯 南
传 记</w>
传 出</w>
会 所</w>
优柔 寡
优 异</w>
众 说</w>
众 们</w>
休 戚
伍 德</w>
伊斯兰 原</w>
伊 克
伊 万
企 。</w>
任 人
代 尔</w>
从 容</w>
人 称</w>
人 猿</w>
人 像</w>
人 中，</w>
享 用</w>
产业 结构</w>
亡 者</w>
亚洲 发展</w>
五 花八
事 前</w>
乳 腺
乳 房</w>
买 进</w>
习以为 常</w>
习 。</w>
九牛一毛 。</w>
乔杜 里</w>
乔 布斯</w>
乐观 主义</w>
乏 善
乌干 达
乌克兰 东部</w>
乌 有</w>
之 ，</w>
义务 ，</w>
主持 人</w>
主义 ——</w>
主 编</w>
主 张
主 力</w>
主 人
临近 ，</w>
中 转
中 美
中 小型</w>
中 国家政府</w>
两岸 关系</w>
两 番</w>
两 次世界大战</w>
两 度</w>
两 只</w>
业 余</w>
世界 银行、
世界 舞台</w>
世界 冠军</w>
专制 主义</w>
专 利
不言自 明</w>
不管 用</w>
不稳定 性。</w>
不确定 性
不 需</w>
不 谋而
不 计
不 言</w>
不 畅</w>
不 平</w>
不 屈不挠</w>
不 利。</w>
不 具</w>
不 以为
不 争</w>
不 一定</w>
下 水</w>
下 。</w>
上涨 ，</w>
上 映</w>
三 起</w>
三 百万</w>
三 思
三 家</w>
三 十年间</w>
三 十年后</w>
万亿 元</w>
一触 即发</w>
一般 人</w>
一意孤 行</w>
一刀 切</w>
一 马
一 身</w>
一 起
一 读</w>
一 而
一 筹。</w>
一 笔
一 端</w>
一 意</w>
一 心
一 对</w>
一 天
一 丝
。 除非
。 鉴于</w>
。 连</w>
。 诚然
。 罗姆尼</w>
。 德
。 埃尔多安</w>
。 同理，</w>
。 卡梅伦</w>
。 加州</w>
。 公司</w>
。 克里姆林宫</w>
。 假</w>
、 突尼斯</w>
、 政府</w>
、 拉脱维亚</w>
、 拉美</w>
、 南亚</w>
、 医院</w>
、 加纳</w>
、 也门</w>
”（ b
”（ B
” 运动</w>
“阿拉伯之春 ”</w>
“量化宽松 ”</w>
“近邻 ”</w>
“软 实力
“ 黑
“ 经济
“ 箭</w>
“ 多
“ 单
“ 9</w>
—— 例如</w>
í a</w>
é e</w>
·阿 齐兹</w>
· 纳
y -
wor k
ut ure</w>
ur s</w>
um an</w>
ud g
tu re
truct ure</w>
tro l</w>
tri es</w>
tis h</w>
te s</w>
s el
s ar
ram e
r ）</w>
pon sib
ou s</w>
old en</w>
od d-
odd- Fran
o t）</w>
o j
n a</w>
m od
m art
mart ya</w>
l en
iv e</w>
iti on</w>
it al
is h</w>
ing s</w>
in v
in s）</w>
ie w
id ad</w>
i h
i g</w>
i a
i -
hi m</w>
f ）</w>
ex c
et ary</w>
ens p
en berg</w>
em b
el le
eff rey</w>
ed ia</w>
e y
e ti
e ig
e b</w>
e ar</w>
d evelop
d e
d ans</w>
ci s</w>
ch ang
c er
b u
b ert</w>
b erg
b as
at h</w>
at eg
at a</w>
as t
ark oz
ard o</w>
an i）</w>
amp quot</w>
am ent
ak ）</w>
ad i
aci ón</w>
ac c
a z</w>
X 光
W olf
Uni on</w>
Till y</w>
T ，</w>
T rich
T AR
Sci ence</w>
S ocial</w>
S il
S ch</w>
S U
R os
R is
R ic
Pro jec
P er
P eac
P ar
O l
NC LO
N or
N ew</w>
M or
M o
M in
M erk
M edic
M e</w>
L ev
K ar
Joh n
IS T</w>
I US</w>
I ND
HIV /
HI V</w>
H A</w>
Group ）</w>
GDP ）</w>
GDP （</w>
GDP 比
GDP 占比</w>
G- 20峰会</w>
G overn
G ord
G oal
G h
Fund ）</w>
FC ’s</w>
F ·
F und</w>
F P
F ML
ES A</w>
E ich
E BR
D u
D e
D aw
Cap ital</w>
C IA</w>
B usiness</w>
B A</w>
Ac coun
AN U</w>
AI G
A hm
A S
A A</w>
90 亿</w>
90 0</w>
9 亿美元</w>
8 美元</w>
8 亿</w>
8 000
7 7%</w>
7 00万</w>
6. 7%</w>
6 9%</w>
500 亿欧元</w>
50 多年</w>
50 亿欧元</w>
5 0年后</w>
4 天</w>
300 亿欧元</w>
3 美元</w>
3 ”</w>
3 %
25 亿</w>
20世纪3 0年代以来</w>
2012年 12月</w>
2011年 11月</w>
2004 年间</w>
2001年 9月11
2000 亿美元</w>
20 多年</w>
2. 8</w>
2. 5</w>
2. 0
2 亿
2 500</w>
2 3</w>
199 9年以来</w>
199 3年
198 0年
196 8年
196 6年</w>
196 4年</w>
195 4年</w>
195 2年</w>
195 0</w>
194 1年</w>
17 00
16 年</w>
16 9
16 4
150 亿欧元</w>
14 亿</w>
13 0</w>
12 架</w>
11 月份</w>
100 年前</w>
100 多</w>
100 亿欧元</w>
10 月份</w>
1. 4万亿美元</w>
1. 4</w>
1 欧元</w>
1 10亿美元</w>
0年代 后期</w>
000 起</w>
000 点</w>
0. 5</w>
&#160;&#160;&#160;&#160; &#160;&#160;
&#160;&#160;&#160;&#160;&#160;&#160; &#160;&#160</w>
； 否则</w>
； “</w>
，然 而</w>
，比 如</w>
，大 银行</w>
，以 期</w>
，不 如</w>
， 阿拉法特</w>
， 那
， 诺贝尔奖</w>
， 视</w>
， 萨科齐</w>
， 英国
， 美</w>
， 突</w>
， 科索沃</w>
， 法德</w>
， 沙龙</w>
， 民</w>
， 正如</w>
， 正如
， 欧洲央行</w>
， 朔</w>
， 布什
， 州</w>
， 委内瑞拉</w>
， 天</w>
， 塞尔维亚</w>
， 从
， 什叶派</w>
， 世行</w>
， SDR</w>
， SD
， R
， MDG</w>
， CDS</w>
） ；
） 中</w>
） 中
（Vik tor</w>
（Tran s
（T reat
（Treat y</w>
（T om</w>
（S w
（N uclear</w>
（Mich el</w>
（M illennium</w>
（M artin</w>
（M D
（I PC
（IPC C）</w>
（G olden</w>
（F ran</w>
（F OM
（E n
（E conom
（Chris tian</w>
（B ill</w>
（B en</w>
（ 约合</w>
（ 亚投行</w>
默默 无
黑 山</w>
黄花 。</w>
麻 疹
麦肯锡 全球
麦克 阿
麦 地</w>
麦 克·
鸠 山
鲍 里斯·
鲁 棒
魏 德曼</w>
高盛 公司</w>
高 频</w>
高 筑
高 技术</w>
高 喊</w>
高 分子</w>
高 乐
骆 驼</w>
马里 兰
马来 亚</w>
马 首</w>
马 歇
马 丁</w>
香 蕉</w>
首尔 —</w>
首 届</w>
馅 饼</w>
饱 和</w>
餐 饮</w>
风 车</w>
领事 馆</w>
领 到</w>
领 事</w>
预言 家</w>
预 订</w>
顾名思 义，</w>
顽 固
顺 畅</w>
顶 部</w>
面 包
非常 好</w>
非 盈利
非 熟练</w>
非 人道</w>
青 人</w>
露 头
霍姆 —</w>
雷杰普·塔伊普· 埃尔多安</w>
雷 区</w>
零和博弈 。</w>
零 散</w>
零 八
零八 宪章</w>
雇 主们</w>
雅 兹
难以 忍受</w>
难 逢</w>
隔 夜</w>
隐 晦</w>
降 雨
陈 述
陆战 队</w>
附 庸
附 和</w>
阿鲁 纳
阿鲁纳 恰尔
阿里· 哈梅内伊</w>
阿里 巴巴</w>
阿根廷 人</w>
阿斯 匹
阿拉伯 语</w>
阿拉伯 联合
阿布扎 比
阿巴 斯
阿基 诺</w>
阿 维
阿 森
阶 梯</w>
阴谋 论</w>
阴 险</w>
闻 。</w>
间歇 性</w>
问责 性</w>
问 道</w>
闭 门</w>
门 ·
长 途
长 篇</w>
长 子</w>
销售 税</w>
铸 成</w>
银行 （B
铁丝 网</w>
铁 托</w>
钱 财</w>
钢 性</w>
钟 ，</w>
钓 鱼</w>
金融稳定 委员会</w>
金 钱
金 枪
金 德
金 库</w>
金 大中</w>
金 、</w>
野 生</w>
重 犯</w>
重 担。</w>
重 伤</w>
里士 多德</w>
里 里</w>
里 根
里 拉</w>
采 烈</w>
配 套</w>
郭 海
郭海 藻</w>
那 年</w>
遗传 性</w>
道 夫·
遍 地</w>
造 势</w>
通货膨胀 ——</w>
通胀 率。</w>
透明 化</w>
透 支</w>
选择 权</w>
选举 人</w>
逆 袭</w>
送 回</w>
退 后</w>
追 问</w>
追 捧</w>
追 回</w>
迪克· 切尼</w>
迪 亚
连通 性</w>
连 动式</w>
远 征</w>
远 处</w>
远 东
进退 两难</w>
进攻 性</w>
这些 年来</w>
这一 招</w>
这 首
这 事</w>
近 日</w>
过去 两
过去 5年</w>
过去 18个月</w>
达 卡</w>
辱 性</w>
辩 护
辨 认</w>
输 油
辐 射
载 难逢</w>
软弱 无力</w>
软 化</w>
轮 机</w>
转 换
车 道</w>
跳 舞</w>
路 边</w>
跨国 银行</w>
跨 境
跑 步
跑 到</w>
跌 价</w>
跋 涉</w>
足 迹</w>
趋 近</w>
越 少</w>
越 境</w>
超级大 国
超 常</w>
起 死
起 伏
起 云
起云 涌</w>
走 向
走 下</w>
赫 斯特</w>
赞成 票</w>
赛 。</w>
资产 。</w>
资 讯</w>
贾 比尔</w>
贾 布里
贾布里 勒</w>
费利佩 ·
费 解</w>
费 尔德斯坦</w>
贸易 战</w>
质量 控制</w>
货币政策 ，</w>
账 目</w>
败 给</w>
贡献 ，</w>
负 ，</w>
贝鲁 斯科
贝 内
贝内 特</w>
谷 歌
谢 赫·
谜 题</w>
谈判 ，</w>
读 书</w>
诺贝尔 委员会</w>
说 教</w>
误 诊</w>
语 调</w>
诘 难</w>
试 问</w>
试 不
词 ，</w>
诈 骗</w>
评 议</w>
证 监会</w>
访 谈</w>
论 调，</w>
记 本</w>
训 诫</w>
计 量</w>
警 戒</w>
言 语</w>
言 听
觊 觎</w>
觉 察</w>
规 定
观 望</w>
覆盖 率</w>
西北 大学</w>
西 那
西 南部</w>
被 拘</w>
衰退 期</w>
补充 性</w>
街 区</w>
衍 生物</w>
行 走</w>
血 液
融资 ，</w>
融资 。</w>
蜜 蜂</w>
虎 。</w>
藉 此</w>
蔓延 ，</w>
蒸 汽</w>
蒸 汽
蒙羞 ，</w>
蒙 古
葡萄 牙
落 空</w>
落 千
落千 丈</w>
萨 科
营养 素</w>
营 运</w>
营 救</w>
菲 德尔</w>
菜 单</w>
获益 匪浅
莱 恩
莫迪 政府</w>
莫 格里
莫 大</w>
莫 卡斯</w>
荷兰 政府</w>
药物 治疗</w>
药 ，</w>
药 店</w>
荒 芜</w>
范 式
英雄 主义</w>
英 寸</w>
苦 果</w>
苏联 ，</w>
苏格兰 议会</w>
苏 伊
花 花
花 旗</w>
花 园</w>
良 知</w>
良 方</w>
航天 局</w>
航 站
航站 楼</w>
致死 率</w>
自豪 。</w>
自行 其</w>
自由 流动
自由 派
自然 资本
自欺欺 人</w>
自作 自
自作自 受</w>
自 满
自 普林斯顿——</w>
自 律</w>
自 始
自 在</w>
脑 部</w>
脑 细胞</w>
能 说</w>
胡 塞
胡 主席</w>
胜利 ”</w>
胜 枚举</w>
胆 ，</w>
胆 大
肯尼亚 政府</w>
肘 。</w>
聚居 区</w>
聚 变
聚 光灯</w>
联邦 紧急措施署</w>
联邦 主义</w>
联合国安理会 五大
联合国 ，</w>
联合国 气候变化
联合国 发展
联合国 千年
联合国千年 发展</w>
联 大</w>
职业 教育</w>
职 工</w>
职 。</w>
耶稣 会</w>
耗 竭</w>
耐 烦</w>
而 广</w>
而 已
而 复
老 话</w>
老 生
老 套</w>
耀 眼</w>
羞 耻</w>
美国证券 交易委员会</w>
美国人 ——</w>
美国 海军</w>
美国 法院</w>
美国 众议院</w>
美国 人，</w>
美 ，</w>
美 英</w>
美 式
羊 群</w>
羁 绊</w>
罪 化</w>
罗马 族</w>
罗马 天主教</w>
罗马 ——</w>
罗斯 福
罗伯特· 戈登</w>
罗 恩·
罂 粟</w>
缩 写</w>
缘 故</w>
编 码</w>
编 入</w>
缓 ，</w>
缅甸 军政府</w>
维生 素
维尔 潘</w>
维 多
绥 靖
绝 缘</w>
绕 开</w>
绑 定</w>
经济 分析</w>
经济 会</w>
经 销商</w>
经 文</w>
经 得
经得 起</w>
终极 目标</w>
终 有</w>
组织 结构</w>
纽约 ——
纳尔 逊·
纲 要</w>
纯 属
纪念 馆</w>
约 尔
纠缠 不
繁 忙</w>
紧 跟</w>
紧 。</w>
索 ，</w>
索 引擎</w>
素 材</w>
糊 弄</w>
精 炼</w>
粮 价</w>
米 斯图
箱 子</w>
简 短</w>
简 意赅</w>
筋 疲力
笼 统</w>
第四 次</w>
第六 次</w>
第二 点</w>
第二 支</w>
第九 条</w>
第三 ，
第 一场</w>
章 。</w>
立方 米</w>
穿 梭</w>
空气 质量</w>
空军 基地</w>
穷 。</w>
穆阿迈尔· 卡扎菲</w>
穆罕默 德
穆沙 拉夫
穆斯林 。</w>
穆 迪</w>
稳步 增长</w>
稳定 器</w>
稳 ，</w>
税收 ，</w>
税 后
稀 土
科 雷
秋 季</w>
私有 企业</w>
私募 股权</w>
私人 保险</w>
祭 出</w>
社会 联盟</w>
社 保</w>
礼 仪</w>
磨 难</w>
破天 荒</w>
石油 业</w>
石原 慎
石原慎 太郎</w>
短 程</w>
知识产 权
知名 度</w>
瞻 远
瞪 口
瞪口 呆</w>
督 促</w>
眼 ”</w>
看 一下</w>
相容 性</w>
相似 ，</w>
相互 依存</w>
相 距</w>
相 向</w>
相 像</w>
直 言</w>
直 击</w>
目 ，</w>
目 瞪口呆</w>
目 共
盛 宴</w>
盛 会</w>
盘 散</w>
盗 版</w>
盖 地</w>
监 护</w>
盎格鲁 －
皮 德</w>
皇 冠</w>
白 皮书</w>
白 天</w>
白 。</w>
登 场</w>
症 ”</w>
病 因</w>
病 历</w>
界 限。</w>
电视 台
电视 剧</w>
电 ，</w>
电 池
申 报</w>
由 此
用 性</w>
用 地</w>
用 上</w>
生存 率</w>
生产 量</w>
生产 线</w>
甚 远</w>
甚 大</w>
瓶 子</w>
瓦齐 里斯坦</w>
瓦 济
瓜 葛</w>
理 睬</w>
珍 贵</w>
玻 璃</w>
玻 璃
现 象
现 值</w>
王 毅</w>
率 ——</w>
独 霸</w>
独 生
独 特性</w>
独 善
独善 其
独 占</w>
狐 狸</w>
犹太复国 主义者</w>
犹太 教
犯 们</w>
犀 利</w>
特里 谢
特立 独行</w>
牧 场</w>
牛 肉
牌 照</w>
爵 士</w>
爱国 者</w>
爱 情</w>
爆炸 式</w>
爆发 式</w>
熄 灭</w>
照 射</w>
煤 炭
煞 费
然无 恙</w>
焦 头
焦头 烂额</w>
热 忱</w>
热 度</w>
烧 掉</w>
烟 消</w>
点 击</w>
炮 轰</w>
炮 火</w>
炙 手
炙手 可
炙手可 热</w>
灭绝 。</w>
火药 桶</w>
火 力</w>
濒 于</w>
激 烈
潦 倒</w>
潜 台词</w>
潜 伏</w>
潘 （A</w>
潘 德里
潘 多
滥用 职权</w>
满 目
滞 涨</w>
滞 。</w>
源泉 。</w>
源 地</w>
游 艇</w>
游 牧民</w>
游 牧</w>
游 泳</w>
游 乐园</w>
渡边 小姐</w>
清 白</w>
清 二
清二 楚</w>
淹 死</w>
深信 不疑</w>
深 谙</w>
深 表</w>
淋 巴
液化 天然气</w>
消费 者
消费 物价
消 亡。</w>
海 面</w>
海 边</w>
海 浪</w>
浪 者</w>
浪 潮，</w>
浑 身</w>
流动 资金
流动 性。</w>
流 产
派 间</w>
活 到</w>
洞察 力</w>
洛 特
洛 克</w>
泰 晤
注 视</w>
波 澜
法 定
治 安</w>
油 轮</w>
没 用</w>
沙 龙
沙 群岛</w>
沙 米尔</w>
沉 沦</w>
沉 沉</w>
沃尔夫 冈
沃尔夫冈 ·
沃· 莫拉莱斯</w>
汽油 税</w>
池 子</w>
江 户</w>
求 援</w>
水 下</w>
氧化 物</w>
氢 化
民族 主义。</w>
民主 政
民主 党人</w>
民主 主义者</w>
民 国</w>
毕业 率</w>
比比 皆是</w>
毒 药</w>
毒 害</w>
每 家</w>
每 况</w>
武 铉</w>
步 步</w>
此 话</w>
正统 性</w>
歌 手</w>
款 额</w>
欧盟委员会 、欧洲央行</w>
欧盟 理事会</w>
欧洲 金融稳定
欧洲 投行</w>
欧元区 GDP</w>
欧 罗
欣 慰
次 级
欠 款</w>
横 溢</w>
横 扫</w>
楼继 伟</w>
植 被</w>
棕榈 油</w>
梦 ，</w>
桑 珠</w>
格雷 戈
格 拉斯
格 式</w>
格 勒</w>
格 勒
格 ·
根据 地</w>
根 康
根康 弘</w>
核 潜艇</w>
核 恐怖主义</w>
核 导弹</w>
校 园
标准 。</w>
查 出</w>
染色 体</w>
柏林 ——</w>
枪 口</w>
极 好</w>
板 上</w>
杰弗 里·
杰 米·
杰 作</w>
条 文</w>
束 之
束之 高阁</w>
权 衡，</w>
权 、</w>
杂 烩</w>
机 组</w>
本雅 明·
末 路</w>
未来 十年</w>
未 获</w>
期 ，</w>
期 日</w>
朝鲜 族</w>
服务 器</w>
服 役</w>
有道 理。</w>
有 线
有 意
有 可
月2 9日</w>
月 上旬</w>
最 极端</w>
替 代</w>
曾 根康弘</w>
更 大幅度</w>
曲 解</w>
暴 行。</w>
智 识</w>
晶体 管</w>
景气 指数</w>
景 ，</w>
普 选</w>
晚 年</w>
星期 日</w>
明 特</w>
明 斯克</w>
昌 盛</w>
旺 盛</w>
旷 日</w>
日积月 累</w>
日内瓦 —</w>
日 起</w>
日 记</w>
日 程。</w>
无法无 天</w>
无所 适</w>
无懈可 击</w>
无影 无
无影无 踪</w>
无声无 息</w>
无 足轻重。</w>
无 解</w>
无 罪</w>
无 线
无 止</w>
无 声</w>
方 舟</w>
新 生活</w>
新 晋</w>
新 教</w>
新 娘</w>
斯蒂格 尔
斯托克 霍姆—</w>
斯堪的纳 维亚
斯坦 福</w>
斯 潘</w>
料 到</w>
文 科</w>
文 档</w>
敷 出</w>
整 套</w>
敲 诈
数据 集</w>
数据 中心</w>
数十 个</w>
数 码
数 十</w>
数 值</w>
数 倍</w>
敛 财</w>
教 训
故 障</w>
故 土</w>
政要 们</w>
政 敌</w>
政 变。</w>
政 变
攻击 者</w>
改革 ”</w>
改 正</w>
改 建</w>
改 名</w>
收缩 ，</w>
收 受</w>
撇 开</w>
摩尔 定律</w>
摆 放</w>
搬 出</w>
搜 索引擎</w>
搜 捕</w>
握 手</w>
提 夫</w>
推 而广</w>
推 上</w>
接 见</w>
接 地</w>
探 明</w>
排外 主义</w>
排 放
掏 腰包</w>
掌 权，</w>
损失 ，</w>
捞 取</w>
振 奋
挣 得</w>
挑衅 性</w>
指 称</w>
指 令
持久 性</w>
拥 堵</w>
招 生</w>
招 收</w>
拙 。</w>
拓 宽</w>
拐 点</w>
拍 卖
拉奎 拉</w>
拉夫桑 贾尼</w>
拉合 尔
拉古 娜</w>
拉丁美洲 ，</w>
拉 特
拉 拉
拉 各
担 ，</w>
抽 出</w>
抬 升</w>
报 表</w>
报 偿</w>
抢 占</w>
投资 家</w>
投 行
投 掷</w>
把 手</w>
技术 ，</w>
扶 轮
扶 植</w>
扰 动</w>
执行 者</w>
托马 斯</w>
托 辞</w>
托 洛
打 死</w>
打 响</w>
打 乱</w>
扎卡 耶夫</w>
扎 瓦
才华 横溢</w>
手 指</w>
手 可得</w>
房地 产业</w>
房 利美</w>
房 价
戛 然而
戒 烟</w>
戈 斯</w>
慰 藉</w>
慰 安
想 过</w>
想 尽</w>
惩 处</w>
情 人</w>
悬 念</w>
悬 崖
悍 然</w>
恼 怒</w>
恶性循环 。</w>
恰 到
恰到 好处</w>
息息 相关。</w>
恫 吓</w>
恐慌 性</w>
恐怖 事件</w>
总 干事</w>
总 产值</w>
性 ，
性 （</w>
性 能</w>
性 感</w>
怒 气</w>
怒 不可
怒不可 遏</w>
怎 能</w>
怀 德斯</w>
怀 德</w>
志同道 合</w>
志 向</w>
心不 在
心 照不宣</w>
心 满意
心 安理
心安理 得</w>
心 头</w>
心 声</w>
德高望 重</w>
德涅斯特 河</w>
德 罗</w>
德 维
微软 公司</w>
得 税</w>
徒劳 无益</w>
当地 居民</w>
强 国，</w>
弹 性
弗 雷</w>
弗 格
弗 吉
弊 病</w>
弊 。</w>
弄巧 成
开诚 布
开 国</w>
建筑 材料</w>
廉 洁</w>
康 拉
康 复
座 右
座右 铭</w>
店 主</w>
底 ，</w>
应急 储备
应急储备 安排
应 由</w>
库 。</w>
广播 公司</w>
广告 牌</w>
并 肩</w>
并 不难</w>
年 景</w>
平均 年龄</w>
平 心
干 ，</w>
干 系</w>
干 涉
幕 式</w>
常 识性</w>
常 。</w>
帕斯 夸
帕斯夸 尔</w>
帕 蒂尔</w>
帕 潘德里
帕 洛
布雷顿森林 体系
布雷 顿</w>
布雷 斯</w>
布拉格 之春</w>
布 满</w>
布 伦
市 政府</w>
巴西 政府</w>
巴沙尔· 阿萨德
巴尔 古
巴塞尔II I</w>
巴 里·
巴 斯</w>
巴 列
差 万
巨 富</w>
工业 革命
工 党
州 立大学</w>
州 政府</w>
崭 露头
崩盘 。</w>
崛 起
峡 谷</w>
屡见不 鲜</w>
屡 试不
屡 次</w>
届 满</w>
局 （European</w>
尽 如人
尼 ，</w>
尼 科
尺 寸</w>
尤 沙
尔德 斯</w>
尔 斯
少数 派
少 不了</w>
小额 信贷</w>
小 学生</w>
尊 严
射 出</w>
封 建</w>
寿终正 寝</w>
寿终正 寝
寻 租</w>
对 数</w>
对 手
富 人们</w>
密松 大坝</w>
密不可 分</w>
家 畜</w>
家 寡
害 ，</w>
宫颈 癌</w>
宪法 ，</w>
宠 儿</w>
实质 上</w>
实 ，</w>
实 惠</w>
实 录</w>
实 属</w>
定时 炸弹
官 样</w>
完 好</w>
安德烈 ·
安吉 拉·默克尔</w>
安 然无恙</w>
安 人</w>
安 东
学术 研究</w>
学 ，
学 、</w>
孤儿 院</w>
孤 家寡
存 在
存 入</w>
子 宫
嫌 犯</w>
媒 体
婚 姻
威 望</w>
委员会 ，</w>
委 任</w>
姐 姐</w>
始 ，</w>
妥 当</w>
如 期</w>
好 比</w>
好 斗</w>
女 孩
女 学生</w>
女 子</w>
奥运 会
奥林匹 克</w>
奥 萨
奖 ，</w>
奖 赏
奇 怪，</w>
夹 杂</w>
夷 为
夷为 平地</w>
失 衡
失 望
夫 拉
夫 。</w>
太平洋合作 伙伴关系（Trans</w>
太平洋 战争</w>
天安 号</w>
天 气
天 前</w>
天 使</w>
大经济体 （</w>
大卫· 卡梅伦</w>
大 门，</w>
大 错。</w>
大 赦
大 棒
大 杂烩</w>
大 戏</w>
大 张
大 度</w>
大 帝</w>
大 增。</w>
大 力气</w>
大 党</w>
多米 尼加
多伦 多</w>
多 年后</w>
多 岁</w>
多 少
外交 家</w>
外 来
外 援</w>
外 出</w>
复 仇
复 一日</w>
处 事</w>
声 名</w>
增长 率。</w>
增长 幅度</w>
增 派</w>
境 。</w>
塔 ·
塌 糊涂</w>
堪 忧。</w>
基金 ”</w>
基因 学</w>
基 调</w>
基 线</w>
城市 地区</w>
坚持 不懈</w>
坚 韧</w>
坐 立
坏 ，</w>
均 力
场 。</w>
地 面
地 里</w>
地 形</w>
在所 不
在 线
圣 方</w>
国际原子能 机构
国际 金融机构</w>
国防 工业</w>
国家 银行</w>
国内生产 总值</w>
国 ，
国 歌</w>
国 事</w>
固定 成本</w>
固 体</w>
围 困</w>
困难 性</w>
回 溯</w>
回 旋</w>
回 扣</w>
四 起</w>
四 种</w>
四 人</w>
噪 音</w>
噪 声</w>
嘴 边</w>
嗤之以 鼻
喧 嚣</w>
喜马拉雅 山
善 行</w>
商 量</w>
商 谈</w>
商 场</w>
哈马斯 。</w>
哈里 里</w>
哈梅内 伊
哈 里</w>
哈 布
哈 尔</w>
哈 利
品 牌
哀 悼</w>
咫 尺</w>
和平进 程，</w>
咋 舌</w>
命 脉</w>
周 知，</w>
周 。</w>
呢 ？
告诉 他</w>
吸 烟
启 发
听 话</w>
否则 ，</w>
后 发</w>
同胞 们</w>
同 ，</w>
同 谋
同 心协力</w>
同 学</w>
吉 布
吉 伦
吉伦 斯</w>
合宪 性</w>
合 共</w>
合 乎
合乎 逻辑</w>
各 路</w>
各 省</w>
各 地区</w>
可比 性</w>
可图 。</w>
可信 性</w>
可 喜</w>
叫 嚷</w>
叫 嚣</w>
叙 述</w>
变革 型</w>
变 坏</w>
受益 人</w>
发明 者</w>
发 自
发 票</w>
发 扬
发 力</w>
反对 ，</w>
反复 无常</w>
反 向</w>
反 向
反 全球化</w>
双边 关系</w>
双 赢</w>
双 刃
友好 型</w>
及 早</w>
参半 。</w>
参 政</w>
去年 8月</w>
厨 房</w>
压 榨</w>
压 力
厄瓜多 尔
厄 尔
却 说</w>
即 时
危地 马拉
印 有</w>
卢 武铉</w>
卢 拉
卡梅伦 政府</w>
卡 门·
博茨瓦 纳</w>
博 主</w>
南辕北 辙</w>
南 韩</w>
南 省</w>
单 向</w>
卓 有
协 商
半壁 江
半 身</w>
千 差万
千 亿</w>
十二 个</w>
十 大</w>
十 亿美元</w>
医 院
匹 兹
北极 地区</w>
北 溪</w>
勒 令</w>
势 均力
劲 。</w>
努 瓦
努 斯</w>
努 力，</w>
助 性</w>
动 态
务 。</w>
加拉加 斯</w>
加尔 布雷斯</w>
加 ，</w>
加 热</w>
功 绩</w>
功 利</w>
办公 室
力 挽
剧 本</w>
剧 中</w>
剑桥 ——
前进 党</w>
前 ，</w>
前 瞻</w>
前 夜</w>
前 一天</w>
刻 画</w>
刻 不容
刺激 性</w>
到 期日</w>
到 头来</w>
别 ，</w>
别 斯
利益 相关
利库德 党</w>
利卡 宁</w>
利伯 曼</w>
利 特</w>
利 斯
利 得税</w>
利 得</w>
创造性 破坏
创新 性
创 业
刚 愎
划 拨</w>
刑 期</w>
出人 意料
出 示</w>
出 场</w>
凯末 尔</w>
几十 亿</w>
几内 亚
几 千亿美元</w>
几 十年后</w>
减速 ，</w>
减 退</w>
减 记
净 化</w>
决 心，</w>
冰 雪</w>
冬 季</w>
军备 竞
军 国
冒险 ，</w>
冒险 家</w>
内 阁
内 生</w>
兼 有</w>
养 鸡</w>
养 殖</w>
兹事 体</w>
其 是</w>
其 中
其中 一位</w>
兴趣 ，</w>
兴趣 。</w>
兴奋 剂
关联 性</w>
关注 度</w>
关 贸
关 灯</w>
共产 党人</w>
共产 主义，</w>
共 生</w>
兰尼 加</w>
六 名</w>
公司 们</w>
公 诉人</w>
公 款</w>
公 有</w>
八 十
全国 人大</w>
全 能</w>
入 籍</w>
入 不
入不 敷出</w>
兔 子</w>
免 。</w>
克里斯蒂 娜·
克莱 蒙特</w>
克 林</w>
先锋 。</w>
先 见之
先 河</w>
兆 ，</w>
兄弟 姐妹</w>
偿 债
停滞 ，</w>
偏 隘</w>
偏 重</w>
偏 好
债权 人，</w>
债务 纾困
债务 抵押
债 台</w>
俯 首</w>
修 辞</w>
修 筑</w>
信 守</w>
保护 性</w>
保护 人</w>
保守 主义
促 发</w>
侯 选人</w>
依赖 度</w>
供 电</w>
使 出</w>
佩 尔</w>
佩 奇</w>
佣 金</w>
作 恶</w>
佛 教徒</w>
何塞 ·
何 地</w>
体 外</w>
伯 利
伦· 巴菲特</w>
伤 痕</w>
传 承</w>
休 ，</w>
休 克</w>
伏 尔
伊朗 ，</w>
伊斯兰 圣战
伊 尔</w>
企业 家们</w>
任期 中</w>
价格 体系</w>
仪 器</w>
以 时日</w>
以 巴</w>
令人 窒息</w>
令人 发指</w>
代理 战争</w>
代 言</w>
代 孕</w>
代 价。</w>
付 息</w>
今年 7月</w>
今年 5月</w>
仁 慈</w>
仁 天皇</w>
什叶派 、逊尼派</w>
人口 稠密</w>
人 马</w>
人 身
人 脉</w>
人 气</w>
亲 西方</w>
京都 议定书
产 卵</w>
交通 工具</w>
交 错</w>
交 纳</w>
交 替</w>
亚伯 拉
亚 里士多德</w>
亚 裔</w>
五花八 门</w>
五 常
五 十年代</w>
五 个人</w>
互惠 互利</w>
互 通</w>
二致 。</w>
二氧化 硫</w>
二十世纪 六十年代</w>
二十 年间</w>
二十 年后</w>
二 次
事 与
乱 局</w>
买 东西</w>
书 ，</w>
乔治· 沃克·布什</w>
乏善 可</w>
之 窗</w>
之 时，</w>
之 战</w>
之 众</w>
久 经</w>
久 。</w>
主 。</w>
为 名</w>
为 主导</w>
临 沂</w>
临 时
中， 银行</w>
中非 共和国</w>
中央 电视台</w>
中共 十八大三中全会</w>
中 日韩</w>
中 意</w>
中 俄
中 位
中 介
严 冬</w>
两 边</w>
两 大
两 千
两 伊</w>
两 份</w>
东 南</w>
业 ，</w>
业 公司</w>
世界 ，</w>
世 ，</w>
专 心</w>
不屑一 顾</w>
不容 置疑</w>
不 配</w>
不 透</w>
不 舒服</w>
不 耐烦</w>
不 绝
不 端</w>
不 法</w>
不 排除</w>
不 忘</w>
不 应
不 公
不 二
不 一</w>
下 结论</w>
下 岗</w>
下 一代人</w>
上海合作 组织</w>
上 层
上 天</w>
上 司</w>
上 个
上 。</w>
三 重
三 类</w>
万 桶</w>
万 户</w>
万 变</w>
七 八十年代</w>
丁 点</w>
一般 性</w>
一次 次</w>
一年 多</w>
一 辈子</w>
一 贫如
一 级</w>
一 清二楚</w>
一 根筋</w>
一 栋</w>
一 旁</w>
一 文</w>
一 带</w>
一 声</w>
一 塌糊涂</w>
一 堆</w>
一 刀</w>
一 亿
一 丁点</w>
。 高</w>
。 辛格</w>
。 联邦政府</w>
。 联合国</w>
。 穆沙拉夫</w>
。 沙龙</w>
。 核</w>
。 哈梅内伊</w>
。 单</w>
。 再
。 克林顿</w>
。 众所周知</w>
。 世行</w>
。 。”</w>
。 S</w>
。 H
。 B
、 马里</w>
、 腐败
、 巴勒斯坦</w>
、 国际
、 利比里亚</w>
、 克罗地亚</w>
、 交通
“流动性 泛滥”</w>
“大 爆炸
“不 ”。</w>
“ 银行
“ 道德
“ 红
“ 科学
“ 碳
“ 硬
“ 核</w>
“ 有效市场
“ 四
é tic
é r
z ab
y ），</w>
y ）。</w>
wor k</w>
w ould</w>
us tri
u h
u el
tr a
ti l
t y</w>
t ability</w>
s ur</w>
ro ug
ro s
ro r</w>
ri k</w>
re n</w>
ras tructure</w>
r o</w>
r en
r ap
p ）</w>
p u
p ri
p os
p e</w>
ovi étic
ou v
os é</w>
or ）</w>
or s</w>
or k
oog le</w>
on t</w>
on g</w>
oh am
oc k
o ol
n ov
m ás</w>
m ore</w>
m at
li v
le g
lan tic</w>
l ad
it z</w>
it h
ism ）</w>
is tr
ir s
im on）</w>
ili p</w>
ie w</w>
ic i
i j
i el
fer ence</w>
f rom</w>
et ter</w>
es h</w>
erg ei</w>
eng re
en ter</w>
emissi on</w>
ed om</w>
eb t</w>
e y）</w>
e qu
e f</w>
d u
d om
d ev
coun tries</w>
chn olog
c on</w>
c e</w>
bor ne）</w>
b y</w>
b ur
ath er
ard s</w>
ar ）</w>
ar los</w>
ar i</w>
an k）</w>
an is</w>
amp lt</w>
amp gt</w>
al li
al e）</w>
al a</w>
air e</w>
ag ree
ad o
aceboo k
a y）</w>
a ir</w>
Y P
W il
V ）</w>
V ar
UM N
U NCLO
T rans
T IP
SU V</w>
SD P）</w>
S up
S n
S am
S P
Rep or
Reg ul
R oy
R od
R obert</w>
R aj
R I
Protec tion</w>
P au
Os borne）</w>
Or ganiz
O ，</w>
O ffice</w>
N et
N ations</w>
N H</w>
Mir ror</w>
Me 公司</w>
M ur
M ay
M ari
L aw
L ab
K at
Inf rastructure</w>
IR GC</w>
I slam
I T
I NGO</w>
I I</w>
H a
G 20
F· 肯尼迪</w>
Fron t）</w>
Found ation）</w>
F l
F ish
F inanc
F ar
Europ e</w>
Eich engre
EFS F</w>
E s
E l
E T
E A）</w>
Dec lar
D rag
Cons ens
Con vention</w>
Chang e）</w>
Cen ter</w>
CN Y</w>
CB R</w>
C ris
C iv
Bank ing</w>
B ad
Al li
Al i</w>
Af ric
Ab d
A k
9. 11</w>
8. 4%</w>
8 个月</w>
8 0年</w>
70 周年</w>
7. 8%</w>
7. 5
7 1%</w>
6月 底</w>
64 岁</w>
6. 8%</w>
6 岁</w>
5月 8日</w>
5. 8%</w>
5 千万</w>
5 到
5 %。</w>
400 万</w>
40 1</w>
4. 8%</w>
4 000亿美元</w>
3月 11日</w>
300 多名</w>
30 亿欧元</w>
3. 4</w>
3 5个</w>
3 4个</w>
3 1日</w>
3 1</w>
3 0年后</w>
25 0%</w>
23and Me公司</w>
23and Me</w>
21 日</w>
20世纪9 0年代以来</w>
20世纪8 0年代中期</w>
20世纪6 0年代末</w>
2010年 初</w>
201 5年后</w>
201 5年前</w>
2008年 初</w>
2008年 12月</w>
2008~ 2009年</w>
2008 年间</w>
2007年 8月</w>
2007 年底</w>
2004 年以来</w>
2000 美元</w>
200 年前</w>
200 名</w>
200 个</w>
20 年以来</w>
20 20</w>
20 19年</w>
2. 9%</w>
2. 6%</w>
2. 4</w>
2 月份</w>
2 P
199 9</w>
199 1
199 0年
198 9年后</w>
197 3年
196 0</w>
194 2年</w>
193 个</w>
18 名</w>
18 15年</w>
178 9年</w>
16 世纪</w>
15 0%</w>
15 .
12 0</w>
100 0</w>
10 万欧元</w>
10 万亿美元</w>
1. 8</w>
1 岁</w>
1 号</w>
1 万
0年代 后</w>
000 家</w>
0. 8
0. 3</w>
？ ”
，极 右翼</w>
，大 部分
，S CAF</w>
，C B
， 钱</w>
， 近</w>
， 辛格</w>
， 萨达姆</w>
， 萨科奇</w>
， 联合国大会</w>
， 罗姆人</w>
， 绝</w>
， 穆巴拉克</w>
， 科威特</w>
， 盖茨</w>
， 清算</w>
， 法国
， 正</w>
， 本</w>
， 有</w>
， 智利
， 方</w>
， 斯诺登</w>
， 斯大林</w>
， 数以</w>
， 教皇</w>
， 库尔德人</w>
， 并
， 年
， 带</w>
， 布鲁塞尔</w>
， 巴
， 尼日利亚</w>
， 安
， 大西洋</w>
， 塞浦路斯</w>
， 哥本哈根</w>
， 发达国家
， 反之亦
， 即
， 南</w>
， 加纳</w>
， 军方</w>
， 保护主义</w>
， 但
， 伴随</w>
， 亲</w>
， 书</w>
， 乔治·W·布什</w>
， 下</w>
） 中，
（W illiam</w>
（U N
（T im
（T h
（S ustainable</w>
（S ocial</w>
（S ergei</w>
（P ro
（P r
（P aul</w>
（M on
（Jan et</w>
（J ean</w>
（G ul
（G er
（EFS F）</w>
（Coun cil</w>
（B ok
（Bok o</w>
（B er
（An gel
（Angel a</w>
（Ahm ed</w>
（A nd
（A f
（ 除</w>
（ 像</w>
（ s
（ b
齐 亚</w>
黯 然
黯然 失色</w>
默默无 闻</w>
默罕默 德</w>
黄 岩
黄岩 岛</w>
麾 下</w>
麻 痹</w>
麦克阿 瑟</w>
麦克纳 马拉</w>
麦 德
鱼 种</w>
魔 术</w>
魔 力</w>
魁 北
高 采烈</w>
高 谈
高谈 阔
高谈阔 论</w>
高 者</w>
高 级
高 筑</w>
高 枕
高枕 无忧</w>
高 度
高 尔
高 声</w>
高 利
高 分</w>
骨 悚
骤 然</w>
马里 ，</w>
马歇 尔
马尔 萨斯</w>
马六 甲
马克思 主义者</w>
马丁·路德· 金</w>
马 赫
马 赛
马 洪</w>
首 肯</w>
首 当</w>
首 府</w>
饲 喂</w>
饱 和
饮 酒</w>
饮 用</w>
饥 渴</w>
风 起云涌</w>
风 行</w>
领导 小组</w>
领 略</w>
预见 性</w>
预测 者</w>
预 案</w>
颂 扬</w>
页岩气 革命</w>
音乐 家</w>
韩 日</w>
韩 元</w>
韧 劲</w>
韦 斯
鞭 策</w>
革命 派</w>
革 新
面 目。</w>
非洲 政府</w>
非 西方
非 官方</w>
非 传染性
靖国神 社
霍尼 格</w>
霍 夫</w>
雷 诺</w>
雷 亚尔</w>
雨 。</w>
雇 工</w>
雇 佣
雅 鲁
雅 各
雀 巢
难 产</w>
难 事</w>
障碍 。</w>
隔 阂</w>
隔 着</w>
隐 秘</w>
除此 以外</w>
降雨 量</w>
降 ，</w>
降 落</w>
陈 词</w>
阿拉伯国家 ，</w>
阿拉伯 政府</w>
阿布格莱 布</w>
阿富汗 塔利班</w>
阿卜杜勒 ·
阿卜杜 拉·
阿卜杜 拉
阿什 顿</w>
阿什 顿
阿 罗
阿 纳斯
阿 玛
阿 尔·
阿 兰·
阿 伯特</w>
阿 以</w>
阻 断</w>
阻 力，</w>
阉 割</w>
间 隔</w>
闪 电</w>
长期 利率
长 袖
长袖 善
长袖善 舞</w>
锦标 赛</w>
锡 克
错 位</w>
销 往</w>
销 声
销声 匿
银行、 保险公司</w>
银行 集团</w>
银行 界</w>
银 币</w>
铤 而
铤而 走
铁 路
钻 探</w>
钳 制</w>
钟 内</w>
金砖 五国</w>
金正 日
金德 博格</w>
金 银</w>
金 管局</w>
金 币</w>
重新 定义</w>
重 重
重 罪</w>
重 担</w>
重 夺</w>
重 力</w>
里 萨</w>
里 程</w>
里 卡
里 克</w>
里 亚尔</w>
里 。</w>
醒 目</w>
酿 成</w>
酸 化</w>
酒 ，</w>
配 方</w>
都 一样</w>
遮 羞
遥遥 领先</w>
遗 ，</w>
道德 感</w>
道 岔</w>
遍 地
逻 辑
造 访</w>
速 率</w>
通货膨胀 、</w>
通行 证</w>
通胀 （</w>
通缩 ，</w>
通 缉</w>
通 牒</w>
透 顶
逍遥法 外，</w>
逊尼派 、
选 取</w>
逆 向</w>
适应 性
退休 后</w>
退 位</w>
追 捕</w>
迷 信</w>
述 事</w>
迫在眉睫 。</w>
迪克 松</w>
迪 尔
违约 ，</w>
违 禁</w>
远 古</w>
远 去</w>
进 展
这首 先</w>
这么 快</w>
这 种
这 回</w>
还 清</w>
近在 眼前</w>
近 一个世纪</w>
运 营商</w>
运 算</w>
迎头 赶上</w>
迎 刃
迎刃 而
迈 耶</w>
过去 四
过去 20年间</w>
达伊 莎</w>
达 卡
边 防
辩 驳</w>
辛 集中营</w>
输 赢</w>
输 出
轰炸 机</w>
轮 胎</w>
转基因 作物</w>
转型 期</w>
转 给</w>
车 祸</w>
身 心</w>
身 份
躁 动</w>
踌 躇</w>
踊 跃</w>
跳 楼</w>
路 人</w>
跛 脚</w>
跑步 机</w>
跃 进</w>
足 感</w>
越来 越少</w>
越 界</w>
超额 准备金</w>
超导 体</w>
超 强</w>
超 大</w>
起草 者</w>
起义 军</w>
走私 者</w>
走 投
走投 无
走投无 路</w>
走 动</w>
走 出来</w>
赫 德</w>
赤 贫
赢 家，</w>
赞助 商</w>
赞 许</w>
赞 比亚</w>
赛 场</w>
赎罪 日战争</w>
赎 回
资金 池</w>
资本 充足率</w>
费 卢
贸易 商</w>
购 房</w>
贫 民</w>
贪 得
贪得 无
贪得无 厌</w>
质疑 者</w>
质 性</w>
质 化</w>
货币 互换
货 运</w>
账 面</w>
败 者</w>
财政 紧缩</w>
财产 税</w>
财 物</w>
负 荷</w>
贝尔斯 登
贝 塔</w>
豪 赌
谩 骂</w>
谨 小
谨小 慎
谦 虚
谢尔 盖
调查 员</w>
读 一读</w>
诺伊 州</w>
诺 夫斯基</w>
说 明
说 客</w>
说 出来</w>
诧 异</w>
该 病</w>
诚 然</w>
诚 挚</w>
试 金
试 点</w>
试 探
译 者</w>
评 定</w>
讽 刺
论 调。</w>
讹 诈</w>
讳 莫
讳莫 如
记忆 犹
议 ，</w>
训练 营</w>
让 渡</w>
订 购</w>
言听 计</w>
解决 好</w>
视 眈
视眈 眈</w>
规 约</w>
观察 。</w>
观 感</w>
见 怪
见怪 不
见 。</w>
要 记住</w>
要 务</w>
西方 银行</w>
西尔维奥· 贝卢斯科尼
西奥 多
西 部
西 纳</w>
西 山</w>
西 ·
装 扮</w>
裁 决。</w>
裁 决
被 曝光</w>
被 害</w>
衷 一
衰 落
表 率</w>
补偿 性</w>
补 助
行动 主义</w>
行 长
行 榜</w>
血 浆
蜜 月</w>
蜘 蛛</w>
蜂 拥</w>
蜂 拥
蛮 横</w>
虚 作
虚作 假</w>
虚 乌有</w>
虎 视眈眈</w>
藏 传
蔓延 。</w>
蒸汽 机</w>
蒙特利 尔
蒙 骗</w>
蒙 德·
蒙 代尔</w>
葡萄 糖</w>
葛兰 运动</w>
落 后者</w>
萨赫 勒</w>
萨 尔·
萨 尔</w>
萨 哈罗
萨哈罗 夫
萨 克逊</w>
营商 环境
营商环境 报告</w>
莫· 易卜拉欣</w>
莫 衷一
药 效</w>
荫 权</w>
荒 诞</w>
茨 威
范 ，</w>
茁 壮
茁壮 成长</w>
英 明</w>
英 吉
英 军</w>
苦 。</w>
若 罔
若 斯潘</w>
若 以</w>
苏黎 世</w>
苏联 集团</w>
苏伊 士
苏 德里</w>
苍 白</w>
花花 公子</w>
芬 兰
节 节
艾滋病、 结核病</w>
艾滋 病毒
艾哈迈 德·
艾伦· 格林斯</w>
色 彩
良性 循环
良 策</w>
船 队</w>
船 员</w>
舍 弃</w>
致 用</w>
自由 职业
自由 民主
自由 度</w>
自由 主义，</w>
自然资源 。</w>
自动稳定 器</w>
自 给</w>
自 省</w>
自 来
自来 水</w>
自 己
自 古</w>
自 助</w>
自 决
臣 民</w>
腰 带
脱 轨</w>
脱 胎</w>
脱 口
能源 部</w>
能源 业</w>
胡萝 卜</w>
胜 算</w>
胜 于
胎 儿</w>
肾 上
肩 作战</w>
肌 体</w>
肉 体</w>
肆 应
肃 清</w>
联合国难民 署</w>
联合国 粮农组织</w>
联合国 海洋法
联合国 委员会</w>
联合国 、
职业 道德</w>
职 场</w>
耳 边</w>
耳 朵</w>
耳 光</w>
耗 尽
而 起</w>
老生 常谈</w>
老 方</w>
老 年
羽 翼</w>
美国 跨国公司</w>
美国 联邦政府</w>
美国 联邦储备委员会</w>
美国 国会
美元 、</w>
美 食</w>
美 沙
美 帝国主义</w>
美 味</w>
羊 补
置 若罔
置 若</w>
罪 人</w>
罗宾 逊</w>
罕 ·
罕· 林肯</w>
网络 战</w>
网 ，</w>
缺陷 。</w>
缅 怀</w>
综合 体</w>
维克托· 亚努科维奇</w>
维 他
统 帅</w>
绝对 值</w>
绝 路</w>
绝 望，</w>
绝 望。</w>
绝 无</w>
绝 不容易</w>
结 社</w>
结 合体</w>
经纪 商</w>
经济学 院</w>
经济体 。</w>
经济 平衡</w>
经 受
终结 。</w>
终 身
细 小</w>
细 化</w>
组织 （</w>
线 。</w>
纾 解</w>
纽 波特</w>
纸 面</w>
纸 上</w>
纯 洁</w>
约翰· F·肯尼迪</w>
约 会</w>
红 十字
繁荣 昌盛</w>
紧缩 ”</w>
索 尔</w>
素 食
系统 ，</w>
系 数
精神 错
米斯图 拉</w>
米 什
篱 笆</w>
管理 者们</w>
管理 、
算 作</w>
签 订
签 发</w>
筹 措</w>
等 高</w>
等 价
笼 箱</w>
第四 ，</w>
第四 条</w>
第四 代</w>
第五 版</w>
第二 次世界大
第一 波</w>
第一 支</w>
第 七</w>
第 一项</w>
第 11
笛 卡尔</w>
笔 记本</w>
童 婚</w>
章 ，</w>
竞 天
立法 委员会</w>
立法 会</w>
立 国</w>
窟 窿</w>
窗 户</w>
突 进</w>
突 击
空 见惯</w>
空 想
穷 困</w>
穴居 人</w>
穆 加
稳 妥</w>
稳 固
稳 健
稳 。</w>
税 费</w>
税 种</w>
税 收入</w>
程 ”</w>
秘 方</w>
科雷 亚</w>
科罗 廖夫</w>
科特迪 瓦</w>
科技 公司</w>
科学 、
科 生</w>
私 隐</w>
私 立</w>
私 生
离 去</w>
离 乡</w>
禁运 ，</w>
禁止 核试验
禁止核试验 条约</w>
票 价</w>
神 明</w>
社会 阶层</w>
社会 安全
礼 仪
磁 体</w>
确 定
硬着陆 。</w>
砝 码</w>
石 。</w>
短 缺
短 线</w>
矛盾 ，</w>
眼 界</w>
真 实性</w>
真 人</w>
相对 论</w>
相去甚 远，</w>
相互 间</w>
相 隔</w>
相 报</w>
直 达</w>
目共 睹</w>
盘 根
盗 取</w>
盖 过</w>
监管 者
监管 化</w>
监 察
益处 。</w>
皮凯 蒂</w>
的 话</w>
的 演讲</w>
白宫 ，</w>
登· 约翰逊</w>
瘦 身</w>
痛 ，</w>
病 痛</w>
病 夫</w>
病 ”</w>
疲 倦</w>
疯 子</w>
疏 导</w>
疆 界</w>
畅 通</w>
电气 化</w>
电子 商务</w>
电 路</w>
申 诉</w>
由 衷</w>
田 园</w>
用 量</w>
生死 攸关</w>
生死 存亡</w>
生存 权</w>
生命 周期</w>
生 病</w>
生 殖
生 性</w>
甘 冒</w>
瓦隆 人</w>
瓦济 里斯坦</w>
瓜 分</w>
瑟 夫</w>
瑞 郎</w>
瑕 疵</w>
琐 碎</w>
理论 ，</w>
理 智，</w>
理 学</w>
班 级</w>
珠 宝</w>
现代 战争</w>
玩 偶</w>
玛 吉
王 位</w>
率 、</w>
猜 忌</w>
猎 物</w>
狭 隘
独立 党
独 断
独 善</w>
犹豫 不决</w>
犹太 教堂</w>
犹太 定居
犯罪 者</w>
犯 规</w>
特派 团</w>
特洛 伊
特 雷
特 赦
特 大</w>
特 区
牵 强</w>
物价 稳定
物 联网
牛 顿
爱丽 舍
爱 好</w>
爱 丁
爆发 性</w>
煽 动
照 办</w>
煤 矿</w>
煤 电厂</w>
煞费 苦心</w>
焦 土</w>
烈 士</w>
炒 作</w>
灵丹妙 药。</w>
灰 色</w>
灭 火</w>
火箭 炮</w>
火 电厂</w>
激进 左翼联盟</w>
激烈 竞争</w>
澳 洲</w>
演 者</w>
演 出</w>
满目 疮
满 足感</w>
滞 ，</w>
溺 水</w>
源 ，</w>
湿 地</w>
湖 泊</w>
游 行
温 哥
温哥 华</w>
温 不
渗 透
渔 利。</w>
渐行渐 远。</w>
渐 趋</w>
清 廉</w>
添 加
添加 剂</w>
深 蓝</w>
液 体</w>
涡 轮机</w>
消失 。</w>
消 沉</w>
海岸 警卫队</w>
海 马</w>
海 运</w>
海 特</w>
浪 尖</w>
浦 东</w>
派 人</w>
活 力
活 下来</w>
洪 涝</w>
洪 水
洛 佩
泾渭 分明</w>
泽西 州</w>
泽 民</w>
泽 尔
泰晤 士
泪 水</w>
注 ，</w>
注 销</w>
注 册
泥 炭</w>
波特 弗利卡</w>
波利 特科夫
波 恩
法郎 区</w>
法兰 西</w>
法 宝</w>
法 学家</w>
法 ——</w>
油 。</w>
河 ，</w>
河 水</w>
沙拉菲 派</w>
沙 泰
沙 伊
沃 伦·巴菲特</w>
江 泽民</w>
汇 总</w>
求 生</w>
水 力</w>
水 中</w>
氧 气</w>
气 质</w>
气 沉沉</w>
气 息</w>
民主 革命</w>
民主 、
民主 ”</w>
民 望</w>
民 兵
氏 症</w>
毫无 意
毛泽 东
毛 骨悚
比 索
比 比</w>
比 拟</w>
比 尔
毒 素</w>
每 隔
母 亲
毅 力</w>
死 气沉沉</w>
死 板</w>
死 挣扎</w>
歧 途。</w>
步 调
步 亦趋</w>
正义 性</w>
正 派</w>
欧洲人权 法院</w>
欧洲 议会</w>
欧洲 法院</w>
欧洲 国家政府</w>
欧尔 班</w>
欧元区 ——</w>
次 优</w>
橡 皮</w>
模 样</w>
椅 子</w>
森 严</w>
棣 文</w>
棍 球</w>
棍 棒</w>
梳 理</w>
梅 伦</w>
案 者</w>
格 言</w>
格 外</w>
格 。</w>
根深蒂固 。</w>
根 据</w>
核 试</w>
核 电厂</w>
核 武
核 反应</w>
标 价</w>
柳 叶
柳叶 刀</w>
枝末 节</w>
果 敢</w>
林 登·约翰逊</w>
极 。</w>
杰 克·
来说 ，</w>
来 纳
杞 人
杞人 忧
杆 菌</w>
权宜之 计</w>
权 势
杀伤 力</w>
杀 戮
机会 主义</w>
机 票</w>
朱 棣文</w>
本世纪 中期</w>
本 科生</w>
本 案</w>
本 来
本 月底</w>
本 方</w>
本 位
未来 二十年</w>
未来 之路</w>
未来 三年</w>
未 卜</w>
期 。</w>
望而 生畏</w>
望 远
有过之而 无</w>
有 种</w>
有 别</w>
最后 通牒</w>
最 轻</w>
最 出色</w>
替代 品
替 换
曾 荫权</w>
曼 纽
更 胜
更 聪明</w>
更 极端</w>
更 完善</w>
更 名</w>
曲 棍球</w>
暴 雨</w>
暴 发</w>
暗 箱
暗 地里</w>
暖 化</w>
智 人</w>
景 点</w>
普罗 大众</w>
普世 价值
普 罗</w>
普 查
显 赫</w>
显 微
显微 镜</w>
是 而非</w>
是 什么</w>
星期 一</w>
明证 ——</w>
明智 ，</w>
明 确性</w>
明 斯基
明 州</w>
昆 仑
时 段</w>
时 无
日 复一日</w>
日 下</w>
既得 利益</w>
无神 论</w>
无法 自拔</w>
无止 境</w>
无家 可</w>
无可厚 非。</w>
无可 争议</w>
无 路
无 足轻重</w>
无 赖</w>
无 论</w>
无 甚</w>
无 理</w>
无 独有</w>
无 济</w>
无 期徒刑</w>
无 时无
无 政府
无 力
族 人</w>
旋 转</w>
旋 律</w>
施 暴
方兴未 艾</w>
方 向上</w>
方 便
新闻 界</w>
新 面孔</w>
新 阶段</w>
新 版</w>
新 泽西州</w>
新 法</w>
新 欧洲</w>
新 机会</w>
新 月</w>
新 势力</w>
斯里兰卡 政府</w>
斯特拉 达</w>
斯特 恩
斯特 ·
斯托 克</w>
斯大林 主义</w>
斯 穆特</w>
斯 拉夫
斯 尼</w>
斯 密</w>
斗争 。</w>
斗 。</w>
文 森
数千 人</w>
数 千万</w>
散 ，</w>
教育 机构</w>
教授 们</w>
教 诲</w>
教 士
教 唆</w>
敌 ，</w>
政治 阶层</w>
政府间气候变化 专门
放 纵</w>
放 牧</w>
放 手</w>
改革 委员会</w>
改革 。</w>
收 藏</w>
收 看</w>
收 留</w>
收 据</w>
收 录</w>
收 容
收 割</w>
收 。</w>
支持 证券
支出 。</w>
操作 性</w>
操之过 急</w>
撰 文</w>
撤 走</w>
撒 手</w>
摩根大 通
摩擦 。</w>
摩天 大楼</w>
摩 西</w>
摈 弃</w>
搭 档</w>
揭 穿</w>
推 延</w>
推 导</w>
推 定</w>
控 告</w>
接踵 而来</w>
接种 率</w>
探 测</w>
掠夺 性</w>
排 行榜</w>
掌 权者</w>
掉 头</w>
损 伤
捐 出</w>
捉襟见 肘，</w>
挑 明</w>
挑 动</w>
按 部
指日可 待</w>
指手 画</w>
指 甲</w>
拿 着</w>
拿 来</w>
拒之 门外</w>
拍 照</w>
拉 达
拉 吉
抵押 品。</w>
抵 扣</w>
抵 制
披 着</w>
报 废</w>
折 中</w>
抗抑郁 药</w>
投资银行 （亚投行</w>
投资 回报率</w>
投资 公司</w>
投资 伙伴关系
投资 。</w>
抓 捕</w>
扩散 。</w>
扩 建</w>
托 人</w>
打击 。</w>
打 通</w>
打 赌</w>
打 独
打 扮</w>
打 印
扎 克
扎克 伯格</w>
扎 ·
才 干</w>
手 续</w>
手 ”</w>
所 谓
所 幸</w>
房地 美</w>
房 市</w>
战略 。</w>
战争 、
战 绩</w>
战 役
戒 律</w>
成 效。</w>
戈 德斯</w>
戈 兰
懒 得</w>
慌 乱</w>
愧 疚</w>
愤 懑</w>
感 想</w>
意识形态 ，</w>
意志 力</w>
想 说</w>
惨 不
惨不 忍
惨不忍 睹</w>
惠 国</w>
惟 一</w>
惊 奇，</w>
情报 委员会</w>
情 结</w>
情 理</w>
情 怀</w>
悲观 主义者</w>
悄 无声
悄 悄
恶 棍</w>
恶 梦</w>
恶 果。</w>
恳 求</w>
恰恰 相反，</w>
息 差</w>
息 万变</w>
恐 后</w>
恋 情</w>
总 设计师</w>
总 计</w>
总 督</w>
总 局</w>
怯 懦</w>
急 性</w>
思想 家们</w>
思 ·
怜 悯</w>
怒 江</w>
快 、</w>
心知肚 明。</w>
心满意 足</w>
心怀 不满</w>
心 灰
心 智</w>
心 ”</w>
德鲁 兹
德拉 基</w>
德克萨 斯
德 累
德 格雷戈
德 政府</w>
德 拉·
德 。</w>
德 、
微观 经济学</w>
微 粒</w>
得 克萨
征 得</w>
往 后</w>
影 。</w>
形 容
形容 词</w>
录 音</w>
录 像
当事 人</w>
当 头</w>
当 上</w>
归 化</w>
强 盛</w>
强 盗</w>
强 奸
强 大
强 国。</w>
弹道 导弹
张 贴</w>
弗格 森</w>
弗 鲁
弗 莱
弗 氏</w>
引人 入胜</w>
引 述</w>
式 ”</w>
弄 虚作假</w>
异 性</w>
开诚布 公</w>
开 城
开城 工业园区</w>
建 模</w>
康 奈
底 气</w>
应 邀</w>
应 承担</w>
应 声</w>
应 变</w>
库尔德 人
库 尔
广 东</w>
幼 儿
并 肩作战</w>
并 入</w>
并 不
年 青人</w>
年 迈</w>
年 老</w>
年 终</w>
年 化
平衡 ”</w>
平心 而
平 方</w>
平 安</w>
平 凡</w>
幕 后
幕 僚</w>
幅 员</w>
常态 ”</w>
帝国 主义者</w>
帕 罗
帕 内
希望 的演讲</w>
希 波
布雷顿 森林</w>
布尔什 维克</w>
布尔什 维克
布什 ，</w>
布 赖
布 托
巴黎 ——
巴尔干 战争</w>
巴 ，</w>
巨 头
工具 箱</w>
工 厂
工 事</w>
州 际
岌岌可危 ，</w>
山 。</w>
屡 屡</w>
屋 子</w>
居民 区</w>
居功 至</w>
居住 地</w>
尾 ，</w>
尽 职
尼斯 条约</w>
尼古拉· 萨科奇</w>
尼 维斯</w>
尼 克</w>
尤科斯 集团</w>
尘 埃
小 时
小 幅</w>
小 城</w>
小 圈子</w>
小 农
封 堵</w>
导 航</w>
寺 庙</w>
对手 方</w>
对外 开放</w>
对 战</w>
对 局</w>
寥寥无 几。</w>
富 商</w>
富 含</w>
寇 蒂斯</w>
宽 裕</w>
家庭 关系</w>
家常 便
家常便 饭</w>
家 门</w>
室 外</w>
宣 讲</w>
宣 言
宣 示</w>
客 机</w>
实践 者</w>
实用 性</w>
实 习</w>
宝 石</w>
定 价，</w>
完美无 缺</w>
安 达
安 第
守 卫</w>
它 地区</w>
学 率</w>
学 徒</w>
学 区</w>
学 。</w>
孤立 伊朗</w>
孤家寡 人</w>
季 斯</w>
孟加拉 国
孔 雀</w>
子 虚乌有</w>
威胁 。</w>
威 望，</w>
威 斯特
委员会 ”</w>
委内瑞拉 、
委 托人</w>
姆 林宫</w>
如 此
如 有</w>
如 意大利</w>
好 评</w>
好 机会</w>
好 兆
好兆 头</w>
奶 制品</w>
奥斯陆 协定</w>
奥斯 本
奥 维尔</w>
奥 会</w>
奢 华</w>
奔 波</w>
奄 奄
奄奄 一
夹 缝</w>
头 顶</w>
头 一次</w>
失 信</w>
太阳能 电池
天翻地 覆</w>
天方 夜</w>
天 鹅
天 赐</w>
天 真
大行其 道。</w>
大肆 宣传</w>
大气 层</w>
大吃一 惊。</w>
大 麻烦</w>
大 鱼</w>
大 门。</w>
大 银行
大 选中</w>
大 趋势</w>
大 海啸</w>
大 洋</w>
大 步</w>
大 有问题</w>
大 户</w>
大 喊</w>
大 同</w>
大 同
大 可</w>
大 佬
大佬 们</w>
大 。
多边 化</w>
多米诺骨 牌</w>
多元 性</w>
多 管</w>
多 杰</w>
多 年以来</w>
多 夫</w>
多 半</w>
外 来者</w>
复 国
声 ，</w>
声 势
声势 浩
墨西哥 石油公司</w>
墨西哥 人</w>
增长 之路</w>
增 收</w>
增 发</w>
填 满</w>
塞浦路斯 银行</w>
塞 瓦
塔 鲁
堂 ，</w>
基督教民主 社会联盟</w>
基督教 民主联盟</w>
基尼 系数
基因 突变</w>
基 斯
埋 单</w>
埃博拉 疫苗</w>
埃博拉 危机</w>
埃克森 美孚</w>
埃 维
埃 米尔</w>
埃 沃·莫拉莱斯</w>
埃 斯特拉达</w>
垮 掉</w>
型 克雅氏病</w>
垄断 者</w>
垂 死挣扎</w>
坦 然</w>
坎帕 拉</w>
均 有</w>
均 可</w>
地下 水</w>
地 震
地 狱
地 热</w>
在所不 惜</w>
在所 难免</w>
在 世</w>
圣战 主义者</w>
土崩 瓦解</w>
土 著
圈 养</w>
图 ，</w>
图 章</w>
国际货币基金组织 ）</w>
国际刑事 法庭
国际 金融</w>
国家安全 委员会</w>
国家 学院</w>
国家 央行</w>
国家 卫生
国家 公园</w>
国债 收益率</w>
国 门</w>
国 外
国 产</w>
固 执
困 苦</w>
回归 。</w>
回 首</w>
四 面
四 百万</w>
四 十年后</w>
四 十多年</w>
器官 移植</w>
器 械</w>
喜剧 演员</w>
喘 病</w>
喋喋 不休</w>
喇 昆仑
善 款</w>
喀麦 隆</w>
喀 喇昆仑
商 用</w>
商 标</w>
唾 手</w>
唯 独</w>
响 起</w>
哈马斯 、
哈里 发</w>
哈布 斯堡</w>
哈姆 丹</w>
哈 西娜</w>
咨询 公司</w>
和平 会议</w>
和 约</w>
咆 哮</w>
呼 ，</w>
呼 喊</w>
周 旋
吸收 器</w>
吸取 教训</w>
启示 录</w>
听 任</w>
含 混</w>
向 东</w>
后继 者</w>
后 视镜</w>
后 危机</w>
后 世</w>
名 状</w>
名 流</w>
吉 姆·
吉 卜
吉 。</w>
合 著</w>
合 剂</w>
号 角</w>
号 码</w>
史密 夫</w>
史 册</w>
台 北</w>
台 上</w>
可 ，</w>
可 恶</w>
可 及</w>
可 做</w>
古 里
叛 逆</w>
叛 者</w>
叛 徒</w>
叛 国
变异 型克雅氏病</w>
变幻 莫测</w>
变 现</w>
变 性</w>
发扬 光
发 者</w>
发 动
反犹 主义。</w>
反对 者们</w>
反型 脂肪
反人类 罪</w>
反之 ，</w>
反 犹</w>
反 毒</w>
反 正</w>
反 制</w>
反 倾销</w>
又 说</w>
参与 者们</w>
去年 同期</w>
去年 4月</w>
去年 3月</w>
原住 民</w>
原 型</w>
厌 恶
历 者</w>
厄尔 尼
危 难</w>
危 急
印第 安人</w>
印度 储备银行</w>
印 钱</w>
卢卡 斯</w>
卢 布
卡罗 来纳
卡洛 斯·
卡尔· 马克思</w>
卡 萨
占领 。</w>
博科圣地 （Boko</w>
博 鳌
博 彩
博 取</w>
南辕北 辙。</w>
南 北
单 打独
协调 ，</w>
华盛顿 ——</w>
华盛顿 —</w>
华 裔</w>
升 ，</w>
升 起</w>
升 。</w>
千 载难逢</w>
千 家
千 夫
千 万
十字路 口。</w>
十字 军</w>
十二五 规划</w>
十 分之
十 亿
十 一
医 用</w>
医 学界</w>
区 位</w>
北 部地区</w>
北 朝鲜</w>
北 半球</w>
化 工</w>
化 、
化 ”。</w>
匈牙 利
勾 画</w>
勾 当</w>
勒 赫</w>
勒 冈
勒冈 州</w>
勇 气
勇 敢
劳伦 斯·
劳 方</w>
努力 ——</w>
动 静</w>
动 辄</w>
动 乱，</w>
加勒比 海</w>
加勒比 地区</w>
加利福 尼亚
加 难</w>
功 效</w>
办事 处</w>
办 理</w>
劝 告</w>
力 不
剖 析</w>
前瞻性 指引
前 去</w>
前 南斯拉夫
刻不容 缓</w>
制 胜</w>
制 作
到 时候</w>
利夫 尼
利 息
利 器</w>
初 选</w>
创造性破坏 ”</w>
创 伤
刚愎 自用</w>
刑事 责任</w>
刑 讯
刑 警</w>
切尔 克
切尔克 索夫</w>
分水岭 。</w>
分散 化</w>
分 ，</w>
分 牌</w>
分 清</w>
分 泌</w>
击 退</w>
出口 者</w>
出 者</w>
出 租</w>
出 庭</w>
凯 尔</w>
凡尔 赛
几十 万</w>
几 轮</w>
几 条</w>
几 天前</w>
几 千名</w>
几 十年间</w>
减 。</w>
冷 藏</w>
冷 落</w>
决定 性
决 裂。</w>
冲 销
冲 进</w>
冲 动。</w>
冰山一 角。</w>
冰 冷</w>
军 队
军 警</w>
写 手</w>
冒险 。</w>
再 平衡。</w>
内 地</w>
内 乱</w>
兼 得</w>
其 它地区</w>
兵 们</w>
兴 高采烈</w>
关贸 总
共同 体
共 谋</w>
共 知</w>
兰 ，</w>
六 百万</w>
六 方</w>
六 年后</w>
六 七
公开 信</w>
公平 性</w>
公司 、
公共 秩序</w>
公 民权</w>
公 交</w>
全面 禁止核试验条约</w>
全球变暖 ，</w>
全球 气候
全 胜。</w>
全 美
全 境</w>
全 副
入 门</w>
兜 底</w>
党 羽</w>
党 派
免 去</w>
克鲁格 曼
克林 姆林宫</w>
克劳德· 容克</w>
克什 米尔
光 速</w>
光 辉</w>
光 荣
光 线</w>
先 期</w>
先 恐后</w>
兆 美元</w>
元 帅</w>
兀 鹫
儿 女</w>
僵尸 银行</w>
僵 硬</w>
僵 尸</w>
僧 伽
傲 慢
储蓄 ——</w>
做 起</w>
偏 颇
假 肢</w>
假 。</w>
倾向 ，</w>
债权人和 债务人</w>
债券 。</w>
倡 议者</w>
借 机</w>
倒 车</w>
倒 地</w>
倍 多</w>
信贷 ，</w>
信贷 危机</w>
信息 革命</w>
信念 。</w>
信 守
保险 ，</w>
保护 主义者</w>
保 安</w>
保 安
俄 美</w>
俄 勒冈州</w>
侵 权</w>
侯赛因· 穆萨维</w>
侧 重</w>
供给 者</w>
供 职</w>
侍 者</w>
作 梗</w>
作 样</w>
作 斗</w>
作 对</w>
何 方</w>
体育 场</w>
佐科 维</w>
住 院</w>
似 是而非</w>
伯南 克
伯利 恒</w>
传 播
伟 。</w>
会议 室</w>
伙伴 们</w>
优越 感</w>
优越 性</w>
优 素
优 渥</w>
休戚 相关</w>
伐 。</w>
伏 笔</w>
伊拉克 逊尼派</w>
伊拉克 北部</w>
伊扎 克·
伊利 诺伊州</w>
企业 管理</w>
任人 唯
任 教</w>
价值 ，</w>
仰 光</w>
代表 人物</w>
代 谢
仙 子</w>
他的 儿子</w>
仓 库</w>
从 容
介 入
今年 底</w>
今年 8月</w>
今年 1月</w>
仇 敌
亿 日元</w>
人口 老化</w>
人口 密度</w>
人 （</w>
人 本</w>
人 寿
人 均
人 为
人 世</w>
亨廷 顿</w>
产 地</w>
亦 步亦趋</w>
交通 运输</w>
交易 ”（
交响 乐团</w>
交 椅</w>
亡 羊补
亚特兰 大</w>
亚洲基础设施 投资银行（亚投行</w>
亚当 ·
亚历山大· 汉密尔顿</w>
亚伯拉 罕·林肯</w>
亚伯 达
亚 齐省</w>
亚 特</w>
亚 尔
亚 利
井 喷
五常 ”</w>
五十 万</w>
五分之 四</w>
五 百
五 次</w>
五 月份</w>
五 人</w>
云 南省</w>
云 南</w>
云 。</w>
于 世</w>
二氧化碳 。</w>
二十 年代</w>
二十 五年前</w>
二 月份</w>
事实 ，</w>
事件 。</w>
事 故
事 儿</w>
事 业
争 先恐后</w>
了 结</w>
书 。</w>
习惯 性</w>
习 得</w>
也 罢
乞 丐</w>
九 岁</w>
九 十亿</w>
乙 肝</w>
乔治·奥 威尔</w>
乔治· 布什</w>
乔 ·
乐 ，</w>
乎 其
乌里 韦
乌 合
义 愤</w>
么 ？</w>
举 世
主导 力</w>
主宰 者</w>
主人 公</w>
主义 ）</w>
主 ，</w>
主 食</w>
主 线</w>
主 管们</w>
为时 已
为 害</w>
为 你</w>
为 主题</w>
丹 尼·
丹 ·
丰 收</w>
中， 公司</w>
中国 国务院</w>
中国 会</w>
中 型</w>
中 上</w>
中 、
严 加</w>
严 刑
两 翼</w>
两 个星期</w>
东盟 +
东 面</w>
东 边</w>
业 界</w>
丘 吉尔
世界银行 集团</w>
世界 。</w>
世 上</w>
专业 性</w>
不过 气</w>
不良 率</w>
不可 挽回</w>
不动 声
不动 产
不 间断</w>
不 赞成</w>
不 让</w>
不 菲</w>
不 经</w>
不 灵</w>
不 朽</w>
不 智</w>
不 好
不 公正</w>
下 手</w>
下 子</w>
下 半叶</w>
上 马</w>
上 风。</w>
上 半叶</w>
三分之 二
三 天</w>
三 场</w>
三 国
三 四
三 十多年</w>
三 十亿</w>
三 分</w>
万灵丹 。</w>
万 辆</w>
万 劫</w>
万 。</w>
七 大</w>
七 十年代
一蹴而 就</w>
一笔 勾</w>
一百 多万</w>
一百 周年</w>
一无 是
一心 一意</w>
一年 级</w>
一大 群</w>
一周 后</w>
一个 星期</w>
一丝 不
一 针</w>
一 说</w>
一 落千丈</w>
一 筹</w>
一 气</w>
一 杯</w>
一 条路</w>
一 成</w>
一 性</w>
一 并</w>
一 帖</w>
一 堵</w>
一 名
一 半
一 分钟</w>
一 倍多</w>
一 两个</w>
一 下子</w>
一 一</w>
。再 者，</w>
。 蒙蒂</w>
。 经合组织</w>
。 第三，</w>
。 正如
。 戈尔</w>
。 德国
。 工党</w>
。 否则，</w>
。 内贾德</w>
。 像
。 伯南克</w>
。 伊斯兰</w>
。 令</w>
。 。。”</w>
。 IMF
、 约旦
、 沙特
、 格鲁吉亚</w>
、 媒体</w>
、 委内瑞拉</w>
、 奥地利</w>
、 失业
、 卡塔尔</w>
、 利比亚
、 公司</w>
、 公
、 保险公司</w>
“过度 特权
“ 管理
“ 异
“ 小
“ 华盛顿共识
“ 冻结</w>
—— 政府</w>
í tic
·拉 加德</w>
zab eth</w>
y ）、
y s
w h
w ell</w>
v in
v el
ur o</w>
ur al</w>
universit é</w>
uk y
ub le）</w>
ub b
u es</w>
tion s</w>
tin ）</w>
ti m
te ph
teph en</w>
te gr
te f
t el
t arg
sk i</w>
si a</w>
se y</w>
sar uky
s w
s hi
s es</w>
s ci
s at
rí qu
ríqu ez</w>
rus os</w>
ro m
ro b
rig ht
ri s</w>
re g
ra m</w>
r i</w>
r g
r ay
por t</w>
ponsib il
par a</w>
p or</w>
p et
ouv ern
oth y</w>
op h
oo r</w>
on ），</w>
on ）
on g
oham ed</w>
od em
ob in</w>
oal ition</w>
o to</w>
o en
o d</w>
o ch
ni e</w>
n ational</w>
min ami</w>
ment ，
ment ）。</w>
m b
li zabeth</w>
le y）</w>
l and
k k
isc al</w>
is t）</w>
ir i</w>
il d</w>
id ）</w>
id e
ic ol
ic h</w>
i Ph
ht on）</w>
hal ed</w>
ha z
ha ve</w>
ha t</w>
h am
g re
g ouvern
f l
f ir
f ic
et t
er o</w>
ensp an）</w>
en tre</w>
ed er
d i</w>
d an
c arbon</w>
b in</w>
av e</w>
ation ）
ather ine</w>
at ory</w>
at e
ash ar</w>
arkoz y</w>
ar l</w>
ap p
ap ol
ant s</w>
an -
am ie</w>
al it
al i</w>
ail ure</w>
ah ）</w>
agree ment</w>
ag e
ag an）</w>
a ff
YouTub e</w>
Wat si</w>
Volck er）</w>
Uni vers
UNCLO S</w>
U ）</w>
TP P，</w>
TP P）</w>
TF P</w>
T e
T al
Sil v
Si egel</w>
S （</w>
S ur
S c
S ant
S and
Re z
R i
R a
R I</w>
Pro toc
Pro gram
Partnership ，
Partnership ）</w>
P re
P al
P P）</w>
O c
N P）</w>
Move ment）</w>
M y
M ill
M il
M ed
M O
L i
L T
L IA</w>
K y
Independ ence</w>
